t ;</w> 619192701
t i 564291067
t h 524051793
i n 469370490
a n 456368938
r e 438829057
t e 356837642
e n 324273336
l t;</w> 305179650
& lt;</w> 305179650
g t;</w> 302184132
& gt;</w> 302184132
th e</w> 288901877
o f</w> 274959925
r o 269192161
o n</w> 263366829
e r 252568360
o n 247449736
i n</w> 231407338
an d</w> 222988867
a ti 210746262
- @</w> 207858619
@ -@</w> 207858619
e d</w> 205897593
i t 186904500
a l</w> 182861896
a r 182526427
o r 179971648
s i 174390568
a l 170955766
R E 156129541
E T 154464794
d i 153171012
a s 152806424
E X 150221276
F RE 150071312
EX T</w> 149966900
FRE ET 149917212
FREET EXT</w> 149917210
e s</w> 149826965
a c 147465978
R A 145285809
e l 143448034
in g</w> 132011679
e c 127671648
i c 127588465
s t 127361148
t o</w> 123810427
a t 122871203
o r</w> 122336748
te d</w> 113099798
u l 110701841
o m 110428905
ati on</w> 107427140
a s</w> 105872726
o l 103685176
e r</w> 98709588
u r 97352199
re s 93220908
p ro 90883734
e s 88388784
t s</w> 87375301
r i 85784941
o s 83043693
a t</w> 81741140
l y</w> 80241062
u n 78005583
i s</w> 77988851
it h</w> 77776045
d e 77463806
w ith</w> 76869659
p l 73703709
T h 72986687
c on 71434189
ti on</w> 70224387
en t</w> 69482614
v e</w> 68647519
u c 67279454
t r 65196083
er e</w> 64859864
p h 64356081
e x 64267194
T I 63846221
c h 63810185
a n</w> 63762522
a m 63715644
i l 61953604
a ted</w> 61693066
u s 61620036
T L 60504178
TL E</w> 59325161
TI TLE</w> 59295274
f or</w> 58822359
a b 57478235
P A 55859807
e n</w> 55748304
w as</w> 55007633
i m 55001399
a g 54862484
a p 53938870
o c 53877024
v i 53661490
w ere</w> 52924772
m e 52676029
P H</w> 52401351
RA G 51966947
te r 51915818
RA PH</w> 51874198
PA RAG 51873946
PARAG RAPH</w> 51873622
f f 51747945
l e 51153261
c om 49980237
th at</w> 49959002
q u 49537330
s u 49160508
it y</w> 48815542
i g 48750358
o u 48359738
Th e</w> 47820809
c e</w> 47807933
on s</w> 46713028
i s 46684764
b y</w> 45344003
i c</w> 44986673
c el 44312312
l e</w> 43969754
p er 43644855
s e 43417743
o w 42299230
at e</w> 42086005
o g 41903638
a d 41547121
S T 40827184
C T</w> 40580520
A B 40362874
e m 40251702
i d 39650919
o p 39181178
p res 38956143
en ts</w> 38905280
ST RA 38483164
AB STRA 38402660
ABSTRA CT</w> 38401814
b e 36901642
w h 36440985
as e</w> 35880243
c l 35738150
a r</w> 35188239
i f 35121766
m o 34979425
u m 34230472
r a 34179893
ac ti 33544468
d uc 33081565
g en 33009239
si s</w> 32506749
n g</w> 31988228
si on</w> 31963286
n e 31487094
ar e</w> 31200601
re n 31174451
p o 31006325
f or 31003109
re d</w> 30832468
te r</w> 30525189
n o 30363368
in e</w> 30000013
s p 29463344
re c 29192874
f ro 28871059
u t 28852030
l s</w> 28706771
o t 28348503
v er 28272755
s h 28217018
u d 28108219
fro m</w> 27922923
ur e</w> 27659233
c o 27489219
p ati 27391983
v el 27150543
p a 26444800
h a 26236768
an t</w> 26117792
m a 26029695
te n 24866639
cel ls</w> 24512863
m ent</w> 24355919
ti c</w> 24327290
t w 24245115
te s</w> 24240824
e p 24098120
ic al</w> 23972951
st r 23939673
l o 23721649
f i 23692310
& # 23389039
b e</w> 23340709
p re 23332974
&# 9 23315733
g n 23166269
pro te 23119733
th e 22960679
l i 22608296
b i 22594714
t ro 22517442
u s</w> 22461375
tr an 22452452
p or 21988869
p ar 21916906
th er</w> 21854200
e v 21761539
t a 21523644
s c 21507539
en ce</w> 21399167
ati ons</w> 21210893
h i 21167342
s y 20963829
e ff 20942334
si gn 20932389
en t 20871766
as s 20819015
pati ents</w> 20775978
ti c 20643995
in c 20168874
al ly</w> 20045963
for m 19751827
d ing</w> 19269042
ec ti 19077078
acti v 18853767
g ro 18798702
o b 18740064
re g 18712790
ig h 18452095
es e</w> 18321900
m on 18242050
an c 18204442
t re 18015709
y p 17856203
i z 17836739
h e 17816630
u m</w> 17796952
s er 17746192
no t</w> 17724438
v ed</w> 17721933
th is</w> 17598711
ti ng</w> 17574963
res p 17362704
ar y</w> 17161062
v e 17087962
ti m 17074869
ul ar</w> 17073878
ol og 17029033
I n</w> 17016046
e ren 16997193
di ff 16988408
al y 16894334
on al</w> 16872220
i d</w> 16713768
as ed</w> 16706413
if ic 16456631
f ac 16384917
ag e</w> 16356982
b u 16332512
in f 16247009
h y 16108915
in ter 16044132
di c 16033160
or s</w> 15890947
en d 15861814
an g 15850319
ou s</w> 15827218
m in 15791914
cel l</w> 15660336
ic h</w> 15642151
e t</w> 15560926
ex pres 15547060
er s</w> 15481965
ab le</w> 15439718
t h</w> 15439414
su b 15383167
N A</w> 15269061
re l 15260967
an t 15245352
sp ec 15244629
m or 15234240
s te 15168408
on e</w> 15022510
y l 15004833
an ce</w> 14914532
ati ve</w> 14838417
en ti 14799370
p os 14648901
an ti 14568481
wh ich</w> 14554573
te ri 14540426
e t 14202379
un c 14172890
in s</w> 14066069
diff eren 14064505
m ic 14061953
st ud 14049050
un d 13975065
ar i 13951256
s e</w> 13950859
o x 13803238
inc re 13790062
res ul 13535713
ha ve</w> 13498105
es s</w> 13496301
an aly 13488486
b in 13480768
oc i 13334529
t u 13330085
i r 13250450
ro n 13190423
o d 13178543
stud y</w> 13158536
tran s 13156980
di s 13102548
o d</w> 13043741
w e</w> 12963157
c or 12918870
e ar 12877819
us ing</w> 12775806
eff ec 12739797
al l</w> 12720186
u p 12633813
s t</w> 12590010
sign ific 12583893
a f 12571520
e en</w> 12541706
s ur 12518812
c y 12492317
a y</w> 12486506
prote in</w> 12399217
th er 12335237
us e</w> 12302652
o un 12223366
es s 12175209
ar g 12130524
s o</w> 12120528
duc ed</w> 12091788
tw een</w> 12085406
l u 12048692
sh ow 12038504
us ed</w> 12019407
qu o 12008919
t ri 11993676
vi d 11971192
be tween</w> 11916151
& quo 11828919
&quo t;</w> 11828919
t or</w> 11731438
en c 11721308
l ow 11716686
i t</w> 11684674
1 ;</w> 11657875
&#9 1;</w> 11657875
3 ;</w> 11657858
&#9 3;</w> 11657858
re s</w> 11626311
u p</w> 11622498
a y 11610798
in ed</w> 11585720
in v 11568500
in g 11520970
ti ve</w> 11447412
y m 11408437
th ese</w> 11396105
i es</w> 11345251
m ut 11311762
it s</w> 11285083
resp on 11256959
com pl 11231837
ti n 11218648
os e</w> 11146574
ul ation</w> 11028999
or y</w> 10987131
tre at 10967919
i r</w> 10944283
expres sion</w> 10905149
t o 10853552
as es</w> 10850479
f unc 10837017
c ar 10779318
W e</w> 10703263
be en</w> 10694830
al so</w> 10683712
r an 10624076
u g 10386852
ass oci 10380360
il ity</w> 10363151
v ari 10359854
h as</w> 10324377
ec ted</w> 10285710
in hi 10283595
ati ng</w> 10260491
m un 10195324
treat ment</w> 10142091
f ol 10114852
ot h</w> 10101518
i th 10048298
al u 10007597
th an</w> 9976348
ti ons</w> 9971467
con tro 9969910
c a 9953065
as t</w> 9909264
af ter</w> 9879203
me th 9870971
activ ity</w> 9847382
t yp 9838603
str uc 9769225
di es</w> 9759020
me di 9667878
I n 9643638
al s</w> 9612874
l oc 9605792
en tr 9605598
ro m 9594503
g l 9508654
vel y</w> 9459901
c ol 9389080
bu t</w> 9371604
Th is</w> 9355215
ap os 9291618
lo w</w> 9279959
at a</w> 9240546
& apos 9238785
p ri 9205639
g g 9201233
d e</w> 9185130
oun d</w> 9148777
ou t</w> 9076115
mor e</w> 9064914
cl ud 9038551
ma y</w> 9038530
st u 9000219
p e 8940742
ou r</w> 8905421
v er</w> 8872069
c an</w> 8862357
tw o</w> 8842746
a tes</w> 8830892
re e</w> 8805856
m s</w> 8798079
d s</w> 8791964
m an 8762878
F i 8737515
resul ts</w> 8720681
ul d</w> 8716094
pa th 8684305
c ur 8676942
c ri 8628396
p ol 8610220
om e</w> 8599155
ur ing</w> 8574158
b oth</w> 8546825
se qu 8506512
i ti 8505246
os t</w> 8496036
de vel 8439531
d u 8436530
di se 8394831
ec tion</w> 8381611
ther ap 8325291
de p 8307376
d om 8299063
l in 8291211
d ec 8280356
am pl 8217574
og en 8199085
b le</w> 8163911
os ph 8163407
Fi g</w> 8134167
i a</w> 8118915
o ther</w> 8106034
anc er</w> 8084822
su gg 8083615
ob ser 8031909
tr ac 8025106
h igh 8014068
o l</w> 7984799
d ata</w> 7978647
t um 7978607
the ir</w> 7969515
igh t</w> 7967755
re qu 7912633
ti onal</w> 7885649
ac teri 7877363
analy sis</w> 7875112
c ul 7833098
sy n 7802107
em ent</w> 7771685
ig h</w> 7765120
re por 7751455
im mun 7745709
vel s</w> 7731915
a v 7715409
ay s</w> 7708327
h um 7685770
it e</w> 7676345
cl in 7655245
ic i 7651251
d el 7646020
le vels</w> 7632827
devel op 7631088
ne u 7612798
re si 7608738
po si 7608428
con c 7601483
ph osph 7596730
t ors</w> 7590280
vi r 7587499
F ig 7582533
pa red</w> 7542671
s uc 7534184
ac h</w> 7529739
associ ated</w> 7525022
D NA</w> 7508850
mic ro 7469767
s ed</w> 7467521
g r 7420083
d r 7418814
ch ang 7408150
in clud 7388727
an ts</w> 7380565
su p 7371035
si m 7357868
ter min 7328371
pl as 7301188
sy ste 7273826
i p 7264844
t ure</w> 7254397
el l</w> 7248073
id enti 7229501
ab ility</w> 7220652
pro c 7205230
w ith 7200799
h igh</w> 7200159
dep end 7188605
ec h 7183584
fi r 7169144
me t 7166225
A l 7160728
gro up</w> 7159783
c ancer</w> 7155005
u b 7150395
es t</w> 7146915
w e 7145175
duc tion</w> 7124613
gen e</w> 7119513
R NA</w> 7114017
uc le 7102583
ant ly</w> 7098659
s el 7088813
m b 7078007
ev er</w> 7067958
gen er 7053213
st ra 7045157
on g</w> 7035844
ac tion</w> 7026896
al l 7023697
d uring</w> 7016942
id e</w> 7009101
d er 7003897
ch em 6975360
ecti ve</w> 6942848
O N 6934290
te c 6922596
in ing</w> 6885182
ha d</w> 6836475
k e</w> 6818815
d ed</w> 6813644
olog ical</w> 6813348
z ed</w> 6800778
f ound</w> 6783564
de f 6782519
s en 6779795
stu dies</w> 6754122
typ e</w> 6743593
ic ation</w> 6735537
incre ased</w> 6663459
dise ase</w> 6638001
ow ever</w> 6634961
per form 6628034
in to</w> 6622581
in dic 6612282
a ff 6608895
t om 6602015
n i 6599606
me as 6592708
es ti 6548293
n or 6500181
k in 6495105
hum an</w> 6477384
k n 6475018
ex per 6474620
iz ed</w> 6452269
f r 6415993
a in</w> 6413958
d ro 6382007
bin ding</w> 6371035
po ten 6334273
fi ed</w> 6328853
in duced</w> 6314292
th ro 6311148
ve l</w> 6308629
an is 6303773
m al 6301103
tim e</w> 6237713
d es 6231616
m at 6228169
com pared</w> 6226927
effec t</w> 6223302
contro l</w> 6212927
si ve</w> 6206307
s ec 6202627
differen t</w> 6171945
iz ation</w> 6154475
b o 6148045
ol ec 6146551
prote ins</w> 6136412
i al</w> 6119381
rec ep 6099518
if ic</w> 6097438
clin ical</w> 6089976
il e</w> 6079726
oc y 6075028
d er</w> 6060485
n o</w> 6041177
form ation</w> 6037573
S I 6002017
A T 5999304
effec ts</w> 5995677
e re 5983101
obser ved</w> 5976253
signific antly</w> 5967590
ent al</w> 5966604
por t 5960863
e i 5960558
w ell</w> 5951576
und er 5930223
ap pro 5928906
s es</w> 5927463
show ed</w> 5923696
con si 5910226
ati c</w> 5902531
de tec 5877668
st s</w> 5851689
s ol 5842579
signific ant</w> 5832972
am in 5814613
spec ific</w> 5808472
k ing</w> 5769498
conc entr 5765733
gro w 5758832
C L 5757896
reg ul 5736560
ti al</w> 5735398
func tion</w> 5731334
vi v 5725492
m ech 5721898
rel ated</w> 5709297
h o 5695973
Th ese</w> 5678479
mic e</w> 5667960
s ti 5644835
ac c 5636645
com p 5628518
olog y</w> 5622605
depend ent</w> 5605485
f in 5588139
ow n</w> 5552643
A C 5552371
therap y</w> 5534971
f e 5512609
ch ar 5506762
m al</w> 5501038
on ly</w> 5489931
ecti vely</w> 5469982
sh o 5465861
T o</w> 5465564
el l 5459956
b r 5449096
me mb 5441004
ri s 5429723
m ost</w> 5422471
m ar 5411732
ti s 5411155
re a 5392104
n ucle 5362228
m a</w> 5358849
w or 5358024
b ased</w> 5349056
sc ri 5335139
ro le</w> 5334456
og ra 5329861
e tic</w> 5324569
suc h</w> 5317298
um b 5290175
ear s</w> 5285187
t arg 5272098
meas u 5271811
ad di 5257807
tic al</w> 5255780
en z 5254627
tr a 5244453
ul ti 5243631
he al 5224172
s o 5212901
m olec 5205917
b it 5200818
dec re 5194369
k s</w> 5192807
respon se</w> 5171542
fol low 5170651
c h</w> 5156441
inhi bi 5151173
reg i 5151017
s ampl 5139298
f lu 5137634
esti g 5118568
ev alu 5117584
ten t</w> 5114147
o ver 5096585
Fig ure</w> 5092483
c al 5068434
de l</w> 5066014
compl e 5056236
thro ug 5051980
de mon 5046612
f u 5045559
activ ation</w> 5035939
con ta 5017053
p r 5013844
C D 4994044
ou g 4993175
inv estig 4974512
y n 4973607
gen es</w> 4969514
mech anis 4955427
ph y 4953919
h ed</w> 4950437
pri m 4946495
ti es</w> 4920188
im port 4918011
H owever</w> 4891025
&apos ; 4889503
v en 4888008
S U 4885453
I I</w> 4884490
per i 4879361
des cri 4878104
ec t</w> 4875961
o us 4866647
l y 4861503
tum or</w> 4849995
pres ent</w> 4848593
el y</w> 4843463
hy dro 4843311
for e</w> 4841730
com bin 4833285
t ot 4831133
v al 4817363
perform ed</w> 4810661
c es</w> 4795925
mo del</w> 4782969
ro s 4781824
T S</w> 4778425
ph en 4772943
vi e 4771341
y l</w> 4768540
ut e</w> 4766527
en g 4765572
il l 4758022
g en</w> 4734981
ec ts</w> 4731663
D S</w> 4728849
th ree</w> 4727956
tis su 4717980
ris k</w> 4698205
inv ol 4697230
a d</w> 4694990
demon str 4690036
exper im 4687272
l if 4686614
ur al</w> 4664859
v alu 4664383
ent ly</w> 4662639
f l 4659917
P C 4657444
ep ti 4655386
w il 4654469
di ag 4646302
n umb 4645725
pl e</w> 4644960
m i 4638212
s ing</w> 4631971
in te 4630309
el ec 4628819
m it 4627308
scri p 4623576
m ents</w> 4622757
tre ated</w> 4620701
al ity</w> 4612577
yl ation</w> 4606244
&apos; s</w> 4604836
char acteri 4586445
b lo 4581232
high er</w> 4574421
r ate</w> 4572010
C h 4568097
pre vi 4561635
grow th</w> 4546269
ter n 4545369
co uld</w> 4539726
ogra ph 4538182
wh en</w> 4535020
inhi bit 4527166
pro vid 4521684
a il 4518403
i ed</w> 4512348
at ure</w> 4511187
show n</w> 4500086
ou t 4499445
ac t</w> 4481583
A s</w> 4481264
om a</w> 4478281
od y</w> 4476640
di rec 4474558
a te 4474067
t ly</w> 4471839
e ther</w> 4470881
ra di 4464860
ous ly</w> 4461846
an s</w> 4459471
path w 4452490
ter s</w> 4436295
o ver</w> 4424922
v it 4414122
con di 4400371
ar d</w> 4399986
ac id</w> 4396172
tran scrip 4388108
er g 4371469
sim il 4361660
&apos ;</w> 4349282
at ory</w> 4346625
b ody</w> 4333122
b ed</w> 4319843
syste m</w> 4314113
pro duc 4309607
y ears</w> 4292783
ing s</w> 4291704
t e</w> 4287152
pati ent</w> 4285948
fir st</w> 4283068
e ach</w> 4279501
par tic 4274217
s tim 4272211
up s</w> 4272037
m ulti 4267496
si ble</w> 4263755
ot yp 4263723
th oug 4258230
memb ran 4257370
di st 4249176
enc y</w> 4248815
throug h</w> 4239360
e d 4235693
de termin 4226523
o per 4217911
te m 4208588
n on</w> 4185960
in j 4159250
acti ve</w> 4127883
nor mal</w> 4126615
incre ase</w> 4122964
C A 4120902
ta ined</w> 4118364
m ac 4117252
pro g 4116222
H O 4106676
C ON 4102704
le vel</w> 4099393
resp ectively</w> 4088056
p op 4084937
pl ic 4083991
c i 4078957
recep tor</w> 4073945
fac tors</w> 4071431
e u 4070498
gro ups</w> 4063434
m y 4060834
k ed</w> 4047022
i red</w> 4040553
hi st 4031190
l arg 4026282
trans f 4022668
ren t</w> 4013571
sur g 4009087
m is 4004504
includ ing</w> 3999953
phy si 3997522
ur ther</w> 3995013
e st 3990161
ab ol 3987549
c ases</w> 3980867
si ons</w> 3979370
numb er</w> 3978461
U SI 3972468
repor ted</w> 3972426
w a 3964571
CL USI 3961846
CON CLUSI 3957799
v ing</w> 3953812
as s</w> 3949379
t y</w> 3948917
an d 3947547
im pro 3939134
ant i</w> 3939012
SU L 3926841
develop ment</w> 3917720
ag es</w> 3917671
te ro 3912729
chang es</w> 3912616
tic s</w> 3905832
RE SUL 3895795
elec tro 3893573
on d 3892538
ati onal</w> 3885454
o re 3879943
G F 3874150
ab l 3871559
l l 3860074
x im 3856031
te ch 3850438
identi fied</w> 3836627
com m 3823883
c le</w> 3821230
s ity</w> 3813399
e ar</w> 3810704
resi st 3808787
or t</w> 3808233
with in</w> 3806463
s ul 3802865
import ant</w> 3797912
RESUL TS</w> 3793238
th ose</w> 3785248
ch rom 3784102
r ang 3776717
acti ons</w> 3770116
du e</w> 3767233
thoug h</w> 3766834
blo od</w> 3758902
fac tor</w> 3755783
v es</w> 3752907
b l 3748863
di vid 3748805
e th 3748353
or g 3728491
pro mo 3727862
poten tial</w> 3725781
neu ro 3711235
id s</w> 3705050
p er</w> 3704548
tot al</w> 3701993
l im 3695598
ver y</w> 3695101
ch il 3689282
enz ym 3686802
al ing</w> 3684381
o ph 3670971
c ap 3668458
sen si 3668364
pre dic 3655698
R O 3653929
en ted</w> 3649703
y c 3647793
comple x</w> 3644062
l am 3641858
v ity</w> 3636864
z e</w> 3635287
co un 3619011
u r</w> 3614681
am e</w> 3608516
phosph or 3605037
M ET 3594040
g u 3588239
s ing 3584330
a th 3579953
bi o 3576440
e l</w> 3573856
v as 3567623
for m</w> 3562262
m p 3553414
res s</w> 3549246
b ra 3536206
te st</w> 3532833
m in</w> 3531027
l a 3529262
simil ar</w> 3528816
vir us</w> 3523958
pres ence</w> 3519340
MET HO 3505404
d o 3500487
di d</w> 3489863
pl ac 3485987
re ve 3485062
addi tion</w> 3484026
l ess</w> 3482649
E R 3473823
I t</w> 3472333
r o</w> 3470277
ne w</w> 3467688
E C 3466978
be t 3466700
ex am 3464398
fi b 3461263
fac e</w> 3457847
re le 3455107
s m 3454230
pres sion</w> 3451196
u al</w> 3449495
hy per 3445143
sugg es 3441338
st a 3438214
pol y 3431104
com par 3425376
re duced</w> 3425125
membran e</w> 3422151
no sis</w> 3421967
g o 3421629
is ol 3420162
kn own</w> 3402290
m us 3395368
ass ess 3388351
ad e</w> 3384515
posi tive</w> 3378742
ic ally</w> 3374033
ti on 3373561
cel l 3371528
f il 3368695
low er</w> 3361722
tu res</w> 3360168
the sis</w> 3359150
u g</w> 3358188
b ec 3355898
A n 3355387
meth od</w> 3346383
f am 3341596
ap p 3341303
d es</w> 3330425
in iti 3329026
p ur 3327844
h om 3316989
P ro 3314356
f requ 3308756
en h 3294856
l ine</w> 3287856
a ut 3286063
c le 3284947
C on 3281025
v en</w> 3277015
i ly</w> 3275783
pl em 3274532
c ular</w> 3263218
descri bed</w> 3259970
ex trac 3256797
met abol 3256378
m g</w> 3252195
in al</w> 3247542
u tion</w> 3238881
wh o</w> 3238274
N D</w> 3226039
te s 3221017
c are</w> 3220024
f urther</w> 3216292
e sis</w> 3214511
e vid 3212665
METHO DS</w> 3199575
se ver 3198365
l ab 3197511
sugg est</w> 3194025
und er</w> 3184816
sing le</w> 3181081
i l</w> 3180173
car di 3176489
tissu e</w> 3164491
R e 3161219
n on 3157055
heal th</w> 3152839
hy po 3135680
d ings</w> 3134717
chil d 3126443
ic e</w> 3124441
th ere</w> 3119648
inf ection</w> 3101046
a re 3098992
am ong</w> 3098223
re vie 3097473
ob tained</w> 3097366
c r 3097288
O N</w> 3097198
wh ile</w> 3095326
f ication</w> 3094942
at s</w> 3094670
ex pos 3088727
c in 3084695
sur viv 3082778
sequ enc 3080653
a si 3072588
with out</w> 3069622
th s</w> 3068035
mo del 3062115
dr ug</w> 3054595
sign aling</w> 3052911
sub j 3052645
mut ations</w> 3051261
F or</w> 3048684
v ol 3044003
sc op 3041335
sup por 3038401
a in 3033279
previ ously</w> 3033168
ar ly</w> 3032636
s ome</w> 3029575
pro b 3029059
conta ining</w> 3028507
ma j 3024894
p at 3023546
re n</w> 3014798
condi tions</w> 3011156
s ite</w> 3001458
h em 2998305
in divid 2990389
y s 2983197
dom ain</w> 2977590
A P 2966286
prim ary</w> 2964386
c ase</w> 2960442
con tr 2952703
sampl es</w> 2949458
an e 2949353
rel ati 2947248
struc ture</w> 2944184
mo d 2944139
is hed</w> 2938391
ei ther</w> 2938335
f t</w> 2932689
ex pl 2926327
ex p 2922211
p it 2917051
ag ing</w> 2914203
re ma 2912905
an n 2911816
col l 2904356
am e 2903645
medi ated</w> 2901905
follow ing</w> 2900979
inf lam 2897605
o ch 2896955
ter m</w> 2896903
mut ant</w> 2895334
al ed</w> 2890370
neu ron 2888629
der i 2888368
res c 2885526
ici ent</w> 2883282
e qu 2883064
od s</w> 2881404
as si 2880376
H I 2877094
st ate</w> 2873473
concentr ation</w> 2864885
molec ular</w> 2864747
inf lu 2863339
m M</w> 2860915
on g 2853869
a x 2853467
th en</w> 2851861
ol d</w> 2851369
we e 2851313
on d</w> 2850165
ear ly</w> 2848560
wh ether</w> 2848238
d ays</w> 2841912
u res</w> 2836783
me an</w> 2836187
or e</w> 2833449
me dic 2828288
ab s 2823370
l ym 2822370
f ul 2820060
vit ro</w> 2819863
l ac 2819166
I L</w> 2816504
d en 2816115
fin dings</w> 2815074
demonstr ated</w> 2808674
ne g 2800749
ac h 2798005
mor ph 2797736
ri c</w> 2797668
sequ ence</w> 2789805
b ility</w> 2786109
S C 2777579
mar k 2776077
out com 2774594
s k 2774300
bra in</w> 2773925
er y</w> 2772733
cy to 2770259
a use</w> 2765431
po in 2765198
ser um</w> 2762009
r ati 2761101
m ic</w> 2760049
flu o 2753027
oc cur 2751764
targ e 2749541
p epti 2748389
or der</w> 2745037
iti es</w> 2743329
ma in 2742167
the y</w> 2741619
stim ul 2740700
C om 2740275
sho w</w> 2740114
C T 2732777
R N 2730235
s ame</w> 2717040
u sion</w> 2709907
reg ulation</w> 2709660
child ren</w> 2706157
b acteri 2701933
ph ase</w> 2700375
decre ased</w> 2699361
li ke</w> 2696328
sti tu 2694791
surviv al</w> 2692990
pathw ay</w> 2690943
w om 2686221
evid ence</w> 2685807
y ing</w> 2684784
l os 2678777
un d</w> 2678329
differen ces</w> 2676554
g i 2675702
l ig 2674302
b re 2674091
determin ed</w> 2673552
ain st</w> 2672038
h t</w> 2667794
A M 2667454
ex c 2664996
d ose</w> 2664359
measu red</w> 2660656
is m</w> 2658309
func tional</w> 2655621
pres s 2651031
ros s</w> 2650201
mo di 2650184
qu e</w> 2650021
ag ainst</w> 2649509
sm all</w> 2648331
S A</w> 2646364
ro ph 2644890
ter m 2640155
se t</w> 2639275
ate ly</w> 2636064
W h 2636020
regi on</w> 2635341
b ri 2633963
in duc 2633302
et y</w> 2632595
reve aled</w> 2632435
ati s 2630237
cl es</w> 2622796
differen ti 2611667
c al</w> 2608050
inhibi tion</w> 2603355
spec ies</w> 2598827
te g 2595035
consi s 2593184
k e 2591297
an y</w> 2589365
proc ess 2586580
ha vi 2585499
invol ved</w> 2583787
ear ch</w> 2581641
sur face</w> 2580607
ograph y</w> 2578853
di sc 2576532
con tri 2575807
concentr ations</w> 2571460
te red</w> 2565894
ti s</w> 2564366
t ox 2562894
pop ulation</w> 2558449
mon ths</w> 2557035
E x 2553752
us es</w> 2552917
an im 2547327
ter n</w> 2546895
anc ed</w> 2546820
is e</w> 2544618
pl ication</w> 2542544
con fir 2541361
expres sed</w> 2536099
chang e</w> 2535431
re duc 2530649
po st 2528613
m l</w> 2526568
fu l</w> 2525807
PC R</w> 2524215
gl uc 2520541
bo dies</w> 2518928
i o 2518366
ent ation</w> 2510439
a u 2509620
ol e</w> 2506416
c at 2504359
op to 2502544
targ et</w> 2499931
n os 2499818
at or</w> 2498520
detec ted</w> 2498171
ox id 2495982
ell ular</w> 2495699
f o 2493694
ig n 2488476
di ed</w> 2486963
sever al</w> 2486590
kin ase</w> 2486230
a z 2479960
cell ular</w> 2479024
al e</w> 2478638
resist ance</w> 2478046
ocy tes</w> 2477987
ic s</w> 2477887
M e 2477631
inter action</w> 2476978
S t 2476969
d ay</w> 2471308
ap opto 2469132
per c 2468148
pro duction</w> 2465194
qu anti 2462375
be havi 2456447
chem ical</w> 2456328
os pit 2454574
mechanis m</w> 2450268
mo use</w> 2449636
res sion</w> 2447005
O ur</w> 2446050
h el 2445405
viv o</w> 2445281
plas ma</w> 2444732
wom en</w> 2437413
ul es</w> 2437394
ON S</w> 2432405
i str 2432102
posi tion</w> 2430990
ch ron 2427519
G F</w> 2426573
ass ay</w> 2425708
n ec 2419622
A L 2415088
ver se</w> 2410176
wh ere 2407551
ti vity</w> 2397731
o f 2397710
st ress</w> 2394611
term ine</w> 2389121
lif er 2386105
l ong</w> 2385112
al ph 2382936
larg e</w> 2381990
de termine</w> 2380366
rang e</w> 2377043
phosphor ylation</w> 2376965
f ree</w> 2375780
if ied</w> 2375076
y ear</w> 2374556
or d 2369865
b loc 2365624
man y</w> 2365131
los s</w> 2364544
cor rel 2362572
si de</w> 2361531
ab out</w> 2360355
vas cular</w> 2360209
t al</w> 2357191
si tes</w> 2349713
neg ative</w> 2349020
ad ul 2346614
ox y 2342268
pro lifer 2339863
C I</w> 2338838
m ental</w> 2335332
comm on</w> 2329654
anti body</w> 2324795
inc ub 2323425
f our</w> 2323341
li k 2322638
mut ation</w> 2318292
f er 2317044
en e 2315039
ecti ons</w> 2313047
gr ad 2311324
diag nosis</w> 2309695
s oci 2307724
b ac 2304523
ad min 2301542
sho uld</w> 2301365
A d 2298783
ac y</w> 2296995
am ine</w> 2296554
r ats</w> 2295086
tech ni 2294254
al ization</w> 2293961
yn am 2293760
g ra 2293173
o th 2292195
fam ily</w> 2291295
os om 2290323
com po 2289688
analy zed</w> 2289526
or al</w> 2289310
exam ined</w> 2287551
mechanis ms</w> 2284989
maj or</w> 2281686
valu es</w> 2278956
p ul 2274849
li ver</w> 2270802
in tr 2267078
wa ter</w> 2266326
A c 2263090
requ ired</w> 2261219
I m 2257881
g re 2254709
multi ple</w> 2253679
ar di 2253138
ri al</w> 2243812
ar t</w> 2242027
wil d</w> 2241774
r u 2241466
wil l</w> 2240467
where as</w> 2239787
di m 2238986
g e</w> 2237404
otyp e</w> 2235842
sy mp 2234540
contr ast</w> 2231141
b one</w> 2230834
lym ph 2227233
I N 2224750
vir al</w> 2223895
el ial</w> 2222766
CONCLUSI ONS</w> 2221376
ag g 2220727
ic ity</w> 2219019
ri bu 2217300
f oc 2216051
proc ess</w> 2212975
amin o</w> 2210851
vi a</w> 2209008
M E 2205953
be fore</w> 2205221
f em 2203881
z ation</w> 2197076
l un 2194724
ac et 2192846
R P 2192692
ogen esis</w> 2192185
c op 2191985
st and 2191799
con struc 2188066
oc c 2187551
m RNA</w> 2187346
li p 2187155
C O 2186963
Th ere</w> 2180105
ad v 2175457
investig ated</w> 2172964
resi du 2169651
comp on 2168513
diag nos 2166870
wor k</w> 2166552
develop ed</w> 2166354
si ze</w> 2166340
at h</w> 2164130
c an 2162313
n it 2159441
dist ribu 2158092
gen etic</w> 2156400
l as 2155734
fluo resc 2154874
A D 2152911
c er 2151516
vari ous</w> 2144741
experim ents</w> 2141000
stu died</w> 2140066
pro per 2139901
av ail 2137059
repor t</w> 2135659
om ic</w> 2135139
v ement</w> 2134813
co h 2134329
rec ei 2134013
f y</w> 2131840
transcrip tion</w> 2130976
w o 2129663
appro ach</w> 2126541
enzym e</w> 2125335
lin es</w> 2122903
immun e</w> 2122365
tr y</w> 2121475
ch ol 2120008
Al l</w> 2118803
m ed</w> 2118424
e ro 2115613
pos sible</w> 2115340
v enti 2111737
a e</w> 2105216
si g 2104984
prote c 2103348
model s</w> 2102539
vi ron 2102082
b as 2100254
is t</w> 2100224
t ur 2098587
O n 2096165
al ized</w> 2094821
o ti 2094484
f eren 2091625
anti bodies</w> 2091296
D i 2090982
alph a</w> 2090407
d rom 2089824
tran sp 2089228
R es 2086764
oper ative</w> 2083998
c ir 2083625
i p</w> 2082757
under st 2081256
C R 2080222
tic ally</w> 2079529
therap eu 2078060
a c</w> 2077756
typ es</w> 2076926
tum ors</w> 2076502
surg ery</w> 2075615
tu b 2075501
tem per 2074572
eff ective</w> 2073775
ici ency</w> 2069523
le ad 2068007
H e 2061566
ab ly</w> 2061504
gl yc 2056901
bet a</w> 2056868
er ase</w> 2053838
cur rent</w> 2049965
respon ses</w> 2049777
r ap 2049311
revie w</w> 2048703
ch o 2048502
Al though</w> 2046321
associ ation</w> 2042415
ra tes</w> 2042229
cy cl 2042216
lik ely</w> 2041550
as p 2038315
re duction</w> 2037503
n er 2036480
on sh 2035865
provid e</w> 2035704
v ation</w> 2035057
car cin 2030213
och ond 2030171
lo b 2027150
u re 2026571
a di 2024972
ac ute</w> 2022519
combin ation</w> 2021918
p rec 2021833
p H</w> 2019512
A f 2018943
bre ast</w> 2018765
te x 2017777
o id</w> 2016896
includ ed</w> 2014170
en viron 2013637
en d</w> 2007346
re action</w> 2003246
ul e</w> 1999959
as t 1999770
no vel</w> 1999565
n at 1997862
ex ten 1997758
g rea 1996794
ati n</w> 1994732
el d</w> 1992463
on ic</w> 1991297
v al</w> 1991109
i um</w> 1990474
res earch</w> 1990270
y st 1990206
we ight</w> 1989593
G T 1984211
a k 1982128
di ab 1978273
de red</w> 1977421
chron ic</w> 1975215
characteri s 1974739
H C 1972289
con tin 1971531
as ing</w> 1968517
est abl 1965396
evalu ated</w> 1963453
id ence</w> 1961333
h ospit 1960468
am p 1955127
im p 1954613
st ro 1952557
car b 1951875
l ight</w> 1950729
at us</w> 1949267
ta ke</w> 1949149
sc re 1949124
i ted</w> 1945651
wh ere</w> 1944666
inhibit or</w> 1944651
symp tom 1942936
Af ter</w> 1941543
ad j 1939666
resul t</w> 1939376
spec ific 1938423
relati onsh 1936787
syn drom 1936245
deri ved</w> 1933829
recep tors</w> 1933340
f ail 1931497
bec ause</w> 1929825
peri od</w> 1929578
fu sion</w> 1927571
rati o</w> 1927537
enti al</w> 1926951
re pres 1926601
S 1</w> 1926259
und s</w> 1925531
fol d</w> 1924161
pl e 1923954
hi bi 1922694
lun g</w> 1921716
in ten 1921605
meth ods</w> 1919488
ab il 1918187
high ly</w> 1915041
t ural</w> 1914956
ub l 1913915
a ro 1912435
neuron s</w> 1912269
B AC 1909719
ogen ic</w> 1906846
EC TI 1905146
tes ted</w> 1902489
subj ects</w> 1901922
N e 1901396
mit ochond 1901109
te n</w> 1897929
el s</w> 1897509
activ ated</w> 1897185
S P 1895616
follow ed</w> 1895442
in formation</w> 1893206
isol ated</w> 1892421
contro ls</w> 1891227
K G 1889667
con duc 1887811
u k 1886279
inj ur 1886058
HI V</w> 1883722
N F</w> 1882946
inte gr 1876758
org an 1872220
mus cle</w> 1872140
p ec 1870869
mat ory</w> 1870637
m ight</w> 1867439
os te 1865100
ff er</w> 1864799
expos ure</w> 1864075
T able</w> 1863310
A R 1862718
ta in</w> 1860946
A r 1860764
ter al</w> 1857521
em ia</w> 1856647
therapeu tic</w> 1856579
h ar 1855059
proper ties</w> 1853319
the re 1852926
differen ce</w> 1852301
sequenc es</w> 1851742
m uc 1851686
k g</w> 1847658
h or 1847626
ven tion</w> 1844775
M S</w> 1844760
inter actions</w> 1841315
ur ation</w> 1838963
O B 1838515
sec re 1837552
dis tin 1836314
l es</w> 1835551
pos ed</w> 1834604
n ess</w> 1834122
en s</w> 1833617
o therapy</w> 1829050
sugges ting</w> 1827094
en e</w> 1826933
he tero 1826906
termin al</w> 1826715
l ong 1823862
E n 1823110
wo uld</w> 1822617
I F 1821915
is h</w> 1821740
pr acti 1820008
s us 1819611
Th us</w> 1819156
or ig 1817220
RO U 1816393
ad en 1811604
s al 1809229
ro sis</w> 1809082
o p</w> 1808188
in ce</w> 1806040
n ing</w> 1804064
BAC KG 1804013
BACKG ROU 1803858
BACKGROU ND</w> 1801813
grea ter</w> 1800924
in dependent</w> 1799771
at ures</w> 1799114
p sy 1797660
stra teg 1795509
residu es</w> 1793397
ag ement</w> 1792231
T w 1789768
de ath</w> 1789034
pa in</w> 1785403
i f</w> 1782825
o sis</w> 1782029
f low</w> 1781167
op ath 1780740
l eng 1780470
sel f</w> 1780354
d am 1779852
a ins</w> 1779798
n an 1778930
m m</w> 1777673
c re 1775051
inflam matory</w> 1774393
su s</w> 1771108
apopto sis</w> 1770764
indic ate</w> 1770355
l og 1769742
u e</w> 1769685
ic ations</w> 1767867
sensi tivity</w> 1766555
n a 1764350
valu e</w> 1763301
C a 1763087
direc t</w> 1763062
ag on 1762978
tri c</w> 1762666
ren al</w> 1759399
pe a 1758921
I C 1757527
par ame 1757311
lif e</w> 1756165
qu ality</w> 1755854
g ly</w> 1753594
pathw ays</w> 1753336
press ure</w> 1752060
decre ase</w> 1748871
medi um</w> 1747006
car ri 1746237
be ing</w> 1745457
ul ations</w> 1744571
ane ous</w> 1744209
h owever</w> 1743898
assess ed</w> 1742866
og ni 1740541
u t</w> 1737786
D e 1737667
ur s</w> 1737579
b ro 1736364
tran si 1735521
suc c 1735364
CONCLUSI ON</w> 1734995
ag ed</w> 1734482
m ass</w> 1733781
temper ature</w> 1728331
P T 1728167
o s</w> 1726175
o ve 1725560
ph ot 1725171
indic ated</w> 1722282
gluc ose</w> 1722270
in sul 1722090
le uk 1721826
partic ip 1721714
b il 1720239
c o</w> 1719653
measu re 1717414
et al</w> 1715836
en co 1714858
re mo 1714478
erg y</w> 1713214
regul ated</w> 1712254
disc us 1710177
d own</w> 1709336
syndrom e</w> 1703232
it ation</w> 1701632
r at</w> 1700230
en ing</w> 1698629
res t</w> 1698298
pl ay</w> 1695643
poin t</w> 1694268
ac cor 1694001
P 1</w> 1693816
O R</w> 1692738
ac hi 1692709
et e</w> 1692305
suppor t</w> 1690030
im aging</w> 1688871
p ubl 1688567
wee ks</w> 1688302
t oc 1687815
n er</w> 1687740
st age</w> 1685681
C C 1685662
frequ ency</w> 1685503
r ic 1682505
nucle ar</w> 1682068
g e 1681243
prolifer ation</w> 1680404
cal cul 1677594
tin al</w> 1677538
sampl e</w> 1677361
pepti de</w> 1676631
S up 1675525
ri g 1674744
st atis 1674743
syn thesis</w> 1673261
anc es</w> 1673260
ll ed</w> 1673124
heal th 1671593
om e 1671288
R ec 1669025
a ver 1668129
avail able</w> 1667781
dise ases</w> 1667400
ex hibi 1666423
an ds</w> 1663846
OB J 1663174
pos t</w> 1662672
tex t</w> 1662210
m il 1660797
ECTI V 1660627
vol um 1660217
sec ond</w> 1659350
immun o 1651729
OBJ ECTIV 1651308
gener ation</w> 1651023
ul ated</w> 1649931
regi ons</w> 1649756
inhibit ors</w> 1645000
rele ase</w> 1644966
ur ther 1643626
oph ag 1642564
detec tion</w> 1639696
tu red</w> 1638948
urther more</w> 1638723
in trac 1638405
ca used</w> 1637815
P s</w> 1636510
o m</w> 1636147
at ten 1635267
M D 1634454
m ag 1632788
pol ym 1625770
mi x 1625274
stra in</w> 1624391
B i 1624354
rel ative</w> 1623443
s l 1622129
K 1</w> 1622103
es tim 1620237
se v 1620068
C .</w> 1619589
B S</w> 1619121
stra ins</w> 1618811
tim es</w> 1618309
acc um 1618297
inf ected</w> 1617873
symptom s</w> 1611443
cl assi 1610750
d ys 1610662
in es</w> 1610141
ti l 1609628
compl ex 1609171
a sis</w> 1607879
cul ture</w> 1606287
er al</w> 1605530
rec or 1605117
oc k 1600277
yl ated</w> 1599806
olog ic</w> 1599735
d ynam 1597666
un i 1596776
ev en</w> 1595622
F urthermore</w> 1595422
mor t 1594531
A G 1593410
ug s</w> 1592929
A P</w> 1592274
le ast</w> 1591561
the si 1591389
m er 1590884
form s</w> 1589440
cl usion</w> 1588189
consi dered</w> 1588125
ep ith 1587857
C o 1587166
identi fy</w> 1586930
vi ties</w> 1585563
ent ary</w> 1584183
ste m</w> 1583939
de grad 1583453
C A</w> 1582344
distribu tion</w> 1582280
stand ard</w> 1580238
ph ar 1580205
leng th</w> 1579714
A n</w> 1577531
cat aly 1575039
p 5</w> 1573562
str ic 1573195
an ding</w> 1573180
A I 1572038
P D 1572027
re x 1571999
aff ected</w> 1571678
b el 1571359
entr al</w> 1568937
am oun 1568211
y s</w> 1567408
cy cle</w> 1567327
c ere 1567097
iz e</w> 1566226
mut ants</w> 1566089
is on</w> 1565936
experim ental</w> 1565829
anim als</w> 1565816
I g 1564535
teri al</w> 1564500
er c 1564168
ca use</w> 1561633
ke y</w> 1560714
ar tic 1560329
individ u 1560084
pa ir</w> 1559273
anc y</w> 1557222
fr ag 1555700
analy ses</w> 1554894
func tions</w> 1554721
in e 1554179
p i 1553323
struc tures</w> 1552690
P re 1551929
em ents</w> 1551841
se par 1549948
o red</w> 1548608
confir med</w> 1546289
E S</w> 1545592
at ors</w> 1545358
exper i 1545140
scop y</w> 1543887
sign al</w> 1543411
contin u 1543284
GF P</w> 1542581
es c 1542488
tissu es</w> 1541302
ren ce</w> 1540971
pl ied</w> 1539819
he art</w> 1539659
abs ence</w> 1539466
fol low</w> 1538937
A s 1537476
str ate</w> 1534427
dr ugs</w> 1534067
sev ere</w> 1533447
pres ented</w> 1531203
or ing</w> 1530704
pos e</w> 1530600
e sts</w> 1526991
syste ms</w> 1523816
g as 1522737
P I 1521650
dom in 1521528
enh anced</w> 1521088
d ri 1520555
par t</w> 1518913
o t</w> 1517134
ho w</w> 1515337
sp ective</w> 1514309
p y 1513697
previ ous</w> 1512086
pro duced</w> 1508825
ro n</w> 1507420
consis tent</w> 1503579
og ether</w> 1502335
st atus</w> 1501233
pl ant</w> 1500987
un it</w> 1500016
w as 1499468
man agement</w> 1498404
are a</w> 1498092
E R</w> 1496648
sol ution</w> 1496472
al low 1496163
B M 1495444
w ay</w> 1492852
contri bu 1492487
th us</w> 1491273
on es</w> 1491175
ti ally</w> 1491039
P L 1490072
differenti ation</w> 1489540
su ff 1489332
fi ve</w> 1488738
op tim 1488400
i an</w> 1488318
p tion</w> 1487690
perform ance</w> 1487485
I II</w> 1486739
istr ation</w> 1486415
com mun 1484200
A D</w> 1483960
si l 1480669
h er 1480402
compo unds</w> 1480264
em br 1479422
mort ality</w> 1475881
ir e</w> 1473777
do es</w> 1472939
injur y</w> 1472650
ow n 1471561
eff ic 1471383
m ig 1471141
insul in</w> 1470987
feren ce</w> 1467211
sensi tive</w> 1466882
form ed</w> 1465077
con t 1464536
stim ulation</w> 1463932
promo ter</w> 1461657
S e 1461189
pro f 1461150
embr y 1459829
characteri zed</w> 1457424
del i 1456912
ti n</w> 1453794
r ing</w> 1450895
us e 1450497
ra y</w> 1450464
d ge</w> 1450143
C l 1447719
M R 1447451
d os 1447150
del e 1446877
sugg ests</w> 1445341
surg ical</w> 1444927
phar mac 1443424
S N 1438903
medic al</w> 1437585
e y 1436496
con f 1436459
ic es</w> 1436358
en ergy</w> 1434079
os ome</w> 1433696
p ap 1432574
addi tional</w> 1432379
P D</w> 1432130
relationsh ip</w> 1432129
parame ters</w> 1430609
individ ual</w> 1430173
ay ed</w> 1429222
im pa 1428680
bu ffer</w> 1428224
RN As</w> 1428041
b ene 1427005
el ev 1426679
den sity</w> 1426176
ol y 1425778
vi su 1425681
e red</w> 1425130
m el 1424093
accor ding</w> 1423436
cor respon 1423165
i sts</w> 1423040
prob le 1422908
i di 1422159
as se 1421821
p p 1421477
ro gen</w> 1421027
is o 1418019
outcom es</w> 1417815
S T</w> 1416695
s mo 1415406
r e</w> 1413011
mis sion</w> 1412370
i de 1411433
c en 1411314
P A</w> 1410689
ond ary</w> 1410681
pl o 1408457
investig ate</w> 1408066
re ad 1407907
characteris tics</w> 1407857
sugges ted</w> 1407570
sub sequ 1407376
h al 1407121
in de 1406600
t op 1404208
evalu ate</w> 1404096
ess ential</w> 1403261
acti vities</w> 1402555
pre val 1402197
direc tly</w> 1401444
in duction</w> 1401344
ran dom 1401242
psy ch 1401196
demonstr ate</w> 1401125
resul ted</w> 1400669
all el 1399772
ag ents</w> 1399128
molec ules</w> 1398765
C 1</w> 1397159
fluoresc ence</w> 1396032
r up 1394882
correl ation</w> 1394194
imp act</w> 1392525
compl ete</w> 1391478
i m</w> 1390136
ol ution</w> 1390009
inv a 1389826
rec ent</w> 1389065
incub ated</w> 1388428
e tes</w> 1388269
tom y</w> 1387299
ograph ic</w> 1386974
ord ers</w> 1386706
ocy te</w> 1385825
cri tical</w> 1385313
ma xim 1384711
re pe 1384625
v ec 1383457
i . 1381355
mon it 1380978
hydro x 1378314
d o</w> 1376670
bi ological</w> 1376475
c y</w> 1376453
dam age</w> 1376049
ac ids</w> 1375742
resul ting</w> 1375577
gener al</w> 1375544
e p</w> 1375415
over all</w> 1374717
is h 1373354
D E 1373194
le ft</w> 1371877
volum e</w> 1371562
t le</w> 1370779
pre gn 1370555
oti de</w> 1370515
influ ence</w> 1370506
gener ated</w> 1370000
pl ant 1369111
Th ere 1368791
- 1</w> 1368272
struc tural</w> 1364401
effic acy</w> 1364224
coll ected</w> 1363478
H ere</w> 1363398
in ity</w> 1361491
an e</w> 1360583
gr am 1359307
con ser 1358816
mo l</w> 1357656
ti cles</w> 1356850
ogen ous</w> 1356661
d own 1355789
s or 1355034
in tro 1354953
incre asing</w> 1354715
re tro 1352463
t ation</w> 1352258
spec tr 1350930
appro xim 1350324
ch ain</w> 1349474
process es</w> 1349322
outcom e</w> 1348355
v acc 1348019
e ding</w> 1347699
health y</w> 1347132
le sions</w> 1346014
tw or 1345386
admin istration</w> 1344045
spec tro 1343396
fe atures</w> 1343370
U ni 1342300
sub strate</w> 1342113
k ers</w> 1341580
gl ut 1341379
ev ents</w> 1340205
tech n 1338834
cardi ac</w> 1338829
oc ardi 1336608
ful ly</w> 1336208
m am 1333434
bet ter</w> 1333090
y ro 1331542
W T</w> 1330732
up on</w> 1329806
carcin oma</w> 1329165
ly s 1328202
prog ression</w> 1327876
d ou 1327782
ne e 1327200
plic ations</w> 1326260
individu als</w> 1324733
m L</w> 1324664
al though</w> 1324345
rea m</w> 1324148
l ed</w> 1323972
C H 1322846
R T</w> 1322815
A t</w> 1321563
si s 1321244
sub st 1319135
c ross</w> 1319065
distin c 1318809
mon ary</w> 1318332
There fore</w> 1318224
th rom 1318169
Sup plem 1318056
ver sity</w> 1317999
o ve</w> 1317165
in ary</w> 1315782
C s</w> 1314269
P K 1314114
su m 1313928
B 1</w> 1312311
he pati 1311885
plas m 1310912
su per 1309889
cy t 1308777
conduc ted</w> 1308577
inhibi ted</w> 1307516
ass ess</w> 1307473
ati vely</w> 1307071
cl os 1305815
N O 1303663
ove rex 1303142
s ch 1302903
all eng 1301865
se en</w> 1301093
ad he 1299526
cr yst 1299272
resist ant</w> 1298456
b ound</w> 1298274
t ol 1296097
initi al</w> 1295739
yc in</w> 1295636
ver sus</w> 1294804
the tic</w> 1294383
techni que</w> 1293779
t able</w> 1293467
ol s</w> 1293182
ass ays</w> 1293072
s af 1292707
ro p 1291882
sel ected</w> 1291210
P ati 1290789
ac cur 1290596
di um</w> 1290582
M ore 1290530
cl us 1287918
fi eld</w> 1287302
sec ondary</w> 1287095
expres sing</w> 1286449
st ron 1286175
P S</w> 1285315
M S 1284577
phosph ate</w> 1283668
min im 1282875
mitochond rial</w> 1282655
More over</w> 1282259
l l</w> 1280177
st ability</w> 1279482
inte s 1276166
adul t</w> 1275677
s .</w> 1274377
trans l 1272944
mal e</w> 1272231
al one</w> 1271013
h ep 1270354
pos si 1269825
gen ome</w> 1269621
st ream</w> 1269293
aver age</w> 1269115
sta ining</w> 1268172
v ant</w> 1267666
teri or</w> 1267428
evalu ation</w> 1265993
impro ved</w> 1265769
le t</w> 1265424
P h 1264670
ac ts</w> 1264654
def ined</w> 1264040
P E 1263991
ch alleng 1263629
aff ect</w> 1263134
s w 1263008
nor mal 1262939
ne l</w> 1261834
inter n 1261292
s y</w> 1260898
sup plem 1259119
inc idence</w> 1258939
pat tern</w> 1258083
tern al</w> 1257948
combin ed</w> 1255232
con tent</w> 1253858
ific ation</w> 1253346
ul t 1253286
R 1</w> 1253061
indic ating</w> 1252251
el ine</w> 1252199
a m</w> 1251636
pat tern 1251516
radi ation</w> 1251165
qu es</w> 1250195
C a</w> 1249596
B P</w> 1247748
ol ic</w> 1247101
ang i 1246790
i on</w> 1246527
A ND</w> 1246258
so ur 1246229
ic ular</w> 1245503
m ade</w> 1241669
ud e</w> 1240701
phen otype</w> 1238634
s on</w> 1237029
ne twor 1232900
cor related</w> 1232461
physi cal</w> 1230753
iti s</w> 1230674
medi ate</w> 1230128
of ten</w> 1229645
t ogether</w> 1229562
mal ign 1229173
A S 1228115
sk in</w> 1227092
complex es</w> 1226505
amin ation</w> 1225932
On e</w> 1225829
st able</w> 1225171
incre ases</w> 1223971
ap plied</w> 1222848
diab etes</w> 1222657
ch arg 1222130
F 1</w> 1222000
metabol ism</w> 1221426
de sign 1221348
nec ess 1221028
c ou 1220572
en s 1220382
ab ove</w> 1220302
ti li 1219937
si x</w> 1219815
tin e</w> 1218953
hor mon 1218760
at al</w> 1218187
compar ison</w> 1217547
val id 1217045
U n 1217005
degrad ation</w> 1215176
b ur 1214894
en si 1212680
establ ished</w> 1212520
au th 1212455
ev ed</w> 1211774
G en 1211323
the m</w> 1211017
end oth 1210750
R I 1210475
d oc 1210445
fail ure</w> 1210035
requ i 1208699
lin ked</w> 1208531
A 1</w> 1208484
ad ap 1206401
hospit al</w> 1205035
N a 1204945
bacteri al</w> 1204612
c entral</w> 1204407
recei ved</w> 1204273
m ation</w> 1204067
gi ven</w> 1204033
dis orders</w> 1203009
compon ents</w> 1200001
rec ur 1199327
there fore</w> 1198656
id es</w> 1197595
y i 1197593
sh ort</w> 1196266
H E 1193153
lab el 1193109
w ide</w> 1191809
ep t</w> 1191504
lim ited</w> 1190611
dom ains</w> 1189068
u ally</w> 1188369
aly sis</w> 1188288
mo ti 1187860
M R</w> 1186610
se g 1185055
provid ed</w> 1184899
con j 1184027
C l</w> 1183909
ol ig 1183753
t ow 1182834
μ g</w> 1182598
ter y</w> 1182047
L e 1182023
d a 1181079
li ter 1181013
le ad</w> 1180883
mig r 1179336
ho urs</w> 1176567
l it 1176148
bi qu 1175904
con ver 1174342
osom al</w> 1174308
aff inity</w> 1174072
k en</w> 1173419
al tern 1172893
sti ll</w> 1172879
T 1</w> 1170963
contro lled</w> 1170477
pa ren 1169986
g li 1168960
ow le 1167730
D 1</w> 1167379
sol u 1166879
p anc 1165893
lip id</w> 1165827
o ur 1165087
ar ds</w> 1164643
g a 1164348
OBJECTIV E</w> 1164348
re li 1163573
gl y 1163442
plant ation</w> 1162401
gen e 1162084
gen ic</w> 1161996
sig n</w> 1161737
approxim ately</w> 1161623
h ost</w> 1160953
r h 1160914
K 2</w> 1160651
2 A</w> 1159303
ne ed</w> 1156868
om et 1155136
pro posed</w> 1154426
tri al</w> 1154061
at ric</w> 1153220
tri als</w> 1151773
preval ence</w> 1151388
s co 1151037
tion ally</w> 1150888
proc ed 1150762
iz ing</w> 1150096
assess ment</w> 1149363
AT P</w> 1149349
enc es</w> 1148091
pattern s</w> 1147983
ro x 1147330
re plication</w> 1146554
ci um</w> 1146114
di g 1145006
ac ross</w> 1144982
un its</w> 1142569
v entr 1139826
w id 1138818
b or 1138689
p ite</w> 1137986
sc ore</w> 1136871
CD 4</w> 1136435
o w</w> 1136279
ro us</w> 1136022
succ ess 1135031
rig ht</w> 1134815
N o</w> 1131012
Wh en</w> 1130169
stra tes</w> 1130153
M A</w> 1129056
intrac ellular</w> 1128524
. 0</w> 1128408
og n 1128239
abl es</w> 1126709
eff icient</w> 1126195
ra m</w> 1125028
calcul ated</w> 1124310
i ally</w> 1123064
lab or 1122978
E ff 1122816
p 1</w> 1122513
produc ts</w> 1121650
fac il 1121058
accum ulation</w> 1118807
pr e</w> 1118399
tr as 1118136
id ne 1117979
A b 1117603
anti gen</w> 1117571
underst anding</w> 1117353
met ast 1117273
v ent</w> 1116998
otyp es</w> 1116923
d on 1116543
fi x 1116001
pro toc 1115811
loc ation</w> 1115780
p s</w> 1115629
an al 1115355
ur se</w> 1114530
te ly</w> 1114115
v s.</w> 1113149
A A 1111955
ut ure</w> 1111615
S O 1111172
il i 1110086
distinc t</w> 1109673
y e 1108802
n m</w> 1108078
par t 1107545
acti n</w> 1107129
m en</w> 1106191
C S 1105939
owle dge</w> 1104596
metabol ic</w> 1104541
O n</w> 1103888
P 2</w> 1103850
am ide</w> 1103735
peri ph 1103246
m es 1102781
in ation</w> 1102495
re fl 1101962
epith elial</w> 1101675
physi ological</w> 1100237
u biqu 1099929
GF R</w> 1098819
V E 1096879
rema ins</w> 1096372
a im</w> 1095887
es tern</w> 1095720
ad ded</w> 1095383
enzym es</w> 1095301
L I 1095161
s it 1095028
b its</w> 1094877
p an 1094627
G 1</w> 1094352
dou ble</w> 1094184
quanti t 1094083
Tw o</w> 1093942
pop ulations</w> 1093197
p en 1093163
cor rec 1092201
rec ru 1091699
meth yl 1091313
ex ampl 1090630
behavi or</w> 1089955
ur ine</w> 1089723
asse mb 1089600
mod ul 1088470
exp ected</w> 1088006
l ay 1087078
pl ants</w> 1085962
om as</w> 1085934
fem ale</w> 1085768
inj ection</w> 1085750
sup pres 1085580
pur ified</w> 1085530
og en</w> 1085314
M C 1084197
ch ed</w> 1084136
m id 1083962
transp ort</w> 1082799
U sing</w> 1082463
contri b 1082338
cap ac 1081942
S .</w> 1081622
syn ap 1081534
inde x</w> 1081105
rec ip 1080282
1 A</w> 1080271
loc al</w> 1079441
e al</w> 1079280
He al 1078586
T r 1078243
d at 1077375
proced ure</w> 1076731
compl ications</w> 1076636
cou pl 1076126
l or 1075591
vari ants</w> 1075013
sur ve 1074931
carri ed</w> 1073865
S im 1073842
er ing</w> 1073598
n s</w> 1073416
S E 1073103
ta il 1072764
Fig . 1072328
er ic</w> 1072162
impro ve</w> 1071845
col i</w> 1071131
induc e</w> 1070722
us t</w> 1068831
re pair</w> 1068174
cal cium</w> 1068021
Q u 1067588
te sts</w> 1066455
liter ature</w> 1066032
ob j 1065413
scre ening</w> 1064887
fr ac 1064184
reg ar 1063789
mo der 1063655
lead ing</w> 1063277
s in</w> 1063026
ecti ng</w> 1061605
rec ently</w> 1061202
al ter 1061086
k idne 1060777
oc k</w> 1060131
L 1</w> 1059485
panc re 1057878
H A</w> 1057795
Pati ents</w> 1057689
pri or</w> 1057598
ul arly</w> 1057279
ven ess</w> 1057253
th al 1056471
ph yl 1056336
M P</w> 1054031
st ri 1052746
y oun 1052654
mac roph 1052329
hyper ten 1051646
enc ed</w> 1050492
pul monary</w> 1049719
mag ne 1049038
G G 1048748
revie w 1048304
ful l</w> 1046951
regul atory</w> 1046562
C N 1045820
P R 1045154
a b</w> 1044712
artic le</w> 1043173
S E</w> 1043101
e .</w> 1043098
O R 1040154
consi der 1039970
L i 1038544
modi fied</w> 1037267
transcrip tional</w> 1037242
provid es</w> 1037063
co ron 1036528
ut ri 1035461
occur red</w> 1035295
electro n</w> 1035159
M T 1035137
re ver 1034044
my el 1032506
tol er 1032307
correspon ding</w> 1032116
fib ro 1031235
p ow 1031224
ron e</w> 1031223
kn owledge</w> 1028859
stro ng</w> 1028426
A C</w> 1027946
ma in</w> 1027478
pro mis 1027235
transf ected</w> 1026919
mark ers</w> 1026425
A T</w> 1025743
pe rox 1025093
H D 1024688
medi an</w> 1024277
d ate</w> 1023412
M y 1022103
vir uses</w> 1021805
measure ments</w> 1021486
bl as 1020594
al es</w> 1019863
r ab 1019542
lac k</w> 1019255
go od</w> 1018661
mel an 1018386
re stric 1018259
ag ent</w> 1017894
lig and</w> 1017885
k er</w> 1017785
bi om 1017543
loc ated</w> 1017503
are as</w> 1015474
cul tured</w> 1013833
F in 1013093
t y 1011592
N S 1011415
sta ined</w> 1011124
gu id 1010056
nucle otide</w> 1009604
dic al</w> 1009429
b ar 1009232
A R</w> 1008980
pro por 1007979
intes tinal</w> 1007819
Th e 1007650
ar tery</w> 1007183
cyto plas 1007144
or ity</w> 1007028
sub stitu 1006939
g lob 1006402
it al</w> 1006093
oxy gen</w> 1005370
ir atory</w> 1004601
In te 1004541
vie w</w> 1004275
per s 1003955
specific ity</w> 1002801
is ed</w> 1002579
br al</w> 1002127
s om 1001858
erg ic</w> 1001038
ap plication</w> 999993
gr ade</w> 998782
ic ro 998672
ac qu 998378
up take</w> 998150
b asis</w> 997191
poly morph 996756
techni ques</w> 995718
loc alization</w> 995621
expos ed</w> 995204
is tic</w> 994911
environ ment</w> 994555
use ful</w> 994485
T ran 994368
diagnos tic</w> 994221
elev ated</w> 993994
cri teri 993968
show s</w> 993774
el ls</w> 993458
on ed</w> 993296
D is 992095
partic ular</w> 991342
appro pri 990949
t ory</w> 989616
d ra 989549
S ur 989371
contrib ute</w> 988507
th yro 988442
import ance</w> 987499
st ar 987252
c u 987008
includ e</w> 986649
w ent</w> 986139
ch an 985829
inter vention</w> 985630
osom es</w> 984597
μ M</w> 983850
amoun t</w> 983367
obser v 982180
b al 979863
tes ting</w> 979049
proc e 978358
sel ective</w> 978109
on ucle 977763
pro gram 977237
Ad di 977113
ser ies</w> 976980
tox icity</w> 976749
bi r 976262
bas eline</w> 976189
necess ary</w> 975645
T C 975207
c epti 975183
vec tor</w> 974707
Supplem entary</w> 974354
M 1</w> 974077
hy bri 973939
u tili 973643
inflam mation</w> 973456
periph eral</w> 973429
i. e.</w> 973387
predic ted</w> 973220
B oth</w> 971666
de m 971488
rap id</w> 971094
ac coun 970490
m an</w> 969869
g am 969755
S D</w> 969479
S er 969258
- - 968572
kn ock 968349
stimul ated</w> 967807
thesi zed</w> 967227
chem otherapy</w> 967172
st abil 966320
rec ogn 966083
ste p</w> 965701
compon ent</w> 965554
ph il 964832
em b 964162
a im 963236
es pec 963081
particip ants</w> 961790
ic ul 961652
reduc e</w> 961567
pap er</w> 961108
o ff 960971
cl ass</w> 960550
espec ially</w> 960223
m ary</w> 959312
bac k 958776
de sign</w> 958459
reg ression</w> 958073
p ac 956043
exhibi ted</w> 955591
con stitu 954786
g s</w> 954532
in d 954329
ach es</w> 953475
com pe 953072
sh if 952897
ant agon 952337
conser ved</w> 952050
an ol</w> 951873
SC s</w> 951655
g el</w> 951168
targe ting</w> 950721
under went</w> 950599
on t 950036
wh ole</w> 949116
practi ce</w> 949084
se t 948682
em plo 948486
m en 948144
z ing</w> 947149
O 2</w> 947111
sus cepti 947093
B ec 946219
on set</w> 945801
chan nel</w> 945432
mi R</w> 945141
g ran 944753
ul ts</w> 943100
transf er</w> 942861
re plac 942586
b rea 942416
sc ale</w> 941399
ne w 941325
sul f 940842
pre pared</w> 940578
op o 939792
def iciency</w> 939583
A S</w> 939081
targe ts</w> 938992
i ble</w> 938889
z y 938231
is tered</w> 937802
ri b 937710
inf ections</w> 937471
anim al</w> 937419
o vascular</w> 937326
in ser 937024
S 2</w> 936865
lin ear</w> 936638
endoth elial</w> 936392
adul ts</w> 935940
capac ity</w> 935596
re combin 935362
tero l</w> 933750
sequenc ing</w> 933686
muc h</w> 933155
hist ory</w> 932990
f uture</w> 932886
o tic</w> 930970
discus sed</w> 930816
p ut</w> 930647
t a</w> 929719
P er 929396
secre tion</w> 929359
c ent 927621
cur ren 925498
cl u 925293
sco res</w> 925169
s ince</w> 924606
inhibit ory</w> 924572
ser v 924243
A N 924169
c m</w> 923112
chol es 921581
ye ast</w> 921387
al coh 921213
pl ays</w> 921096
abs or 920851
c ogni 920247
end ed</w> 920059
conj ug 919495
C lin 917979
so dium</w> 917499
subsequ ent</w> 916971
G l 916856
facil it 916471
bacteri a</w> 916220
strateg ies</w> 914842
re comm 914770
coron ary</w> 913956
e . 913376
ly ing</w> 913186
B e 912724
lo ad 912526
e duc 912492
agg reg 912457
aut ophag 912455
ex is 912016
o v 911524
con n 911321
at t 911315
op en</w> 910830
d uration</w> 910567
th i 910378
ri x</w> 910296
soci al</w> 908597
r ine</w> 908131
C ol 908029
O f</w> 907088
e ph 906935
migr ation</w> 906568
ar ing</w> 906481
G ro 905968
wee k</w> 905887
se e</w> 905873
co urse</w> 904625
cyt os 904581
partic ularly</w> 904354
kidne y</w> 903530
deli very</w> 903408
app ears</w> 902789
tem por 902305
nat ural</w> 901052
u ro 900917
is su 899196
pl ate 899056
con clud 898256
molec ule</w> 898217
I I 897979
al g 897556
fr action</w> 897257
o plas 896822
oxid ative</w> 896134
H R</w> 896101
or ies</w> 895368
A 2</w> 894565
de g 893986
cor e</w> 893188
measu res</w> 892832
P ar 891297
coh ort</w> 890897
exampl e</w> 890594
respon sible</w> 890294
neuron al</w> 890160
pepti des</w> 889840
cul tures</w> 888927
a teral</w> 888610
c anc 887224
occ ur</w> 887157
in a</w> 886882
man ner</w> 886235
sub unit</w> 885754
rele vant</w> 885172
M I 884241
eff iciency</w> 884142
ati c 883933
gro und</w> 883570
ventr icular</w> 883498
inten sity</w> 883123
sel ection</w> 882419
res tin 882282
dis order</w> 882107
T re 881796
fi t</w> 881688
l ast</w> 881325
Res ults</w> 880872
gre es</w> 880753
f as 880486
ex t</w> 880342
identi fication</w> 880022
appropri ate</w> 879885
tra ining</w> 879837
end ogenous</w> 879359
f ici 878054
de v 877520
po or</w> 877500
relati vely</w> 877431
quantit ative</w> 877168
stron gly</w> 876944
P C</w> 876376
n utri 875430
ad d 875321
ic an</w> 874301
poin ts</w> 874076
pre par 873803
produc t</w> 873700
ol ar</w> 872979
ca uses</w> 872867
venti onal</w> 872540
or i 872331
al ong</w> 872221
chrom at 871820
achi eved</w> 871716
ex erc 870457
acti ng</w> 868489
criteri a</w> 867788
un g 867081
deg ree</w> 866953
ner ve</w> 866730
al k 866542
extrac ellular</w> 865600
P BS</w> 865544
h ere</w> 865476
A p 865417
o di 865334
comp u 864245
S C</w> 863957
E .</w> 863288
dele tion</w> 862779
t as 862680
j o 862426
ag en</w> 862211
exam ine</w> 862108
til ity</w> 861698
inc or 861673
sen s 861402
hypo thesis</w> 860999
fe w</w> 860970
pro fil 860527
ro w</w> 860205
rec over 860105
me try</w> 860029
dis rup 859918
th ir 859903
pl ate</w> 859508
de n</w> 859459
mat ure</w> 859396
targe ted</w> 858749
col on 858100
e g 857794
de grees</w> 857738
ta ken</w> 855614
C y 855373
lead s</w> 855084
process ing</w> 855016
l ate</w> 854253
r are</w> 854060
nee ded</w> 853711
se e 853353
mo tor</w> 852285
H 2 852073
ch lor 851250
condi tion</w> 850852
t on 850664
t on</w> 850206
micro scopy</w> 849143
se ro 848228
ati n 847706
con st 847398
altern ative</w> 847369
M a 847276
H 1</w> 846140
restin gly</w> 845779
M T</w> 845101
is chem 845027
g .</w> 844947
S h 844213
ex amination</w> 843804
bi op 842706
T ri 842373
Wh ile</w> 842200
o st 841448
ro les</w> 840137
diagnos ed</w> 839989
ul in</w> 839933
Heal th</w> 839873
li qu 839152
label ed</w> 839086
tot ox 839065
suff icient</w> 838918
pa rent</w> 838705
du res</w> 838493
gen omic</w> 838189
3 A</w> 838120
F L 838035
dos es</w> 837380
U SA</w> 837075
def icient</w> 835939
A mer 835864
publ ished</w> 835771
ann ing</w> 835751
v s</w> 835655
strateg y</w> 834777
e b 834388
org anis 834051
ar ch 833667
inhibi t</w> 832836
E GFR</w> 832377
P U 831731
an other</w> 830720
prog ram</w> 830668
sc i 830579
de ple 830494
mat rix</w> 830276
om es</w> 829338
re actions</w> 829333
T T 829302
ac e</w> 828765
av age</w> 828498
e tics</w> 827938
my ocardi 827580
se x</w> 826858
b enz 825957
resp iratory</w> 825707
l at 825659
visu al</w> 824509
C ell</w> 824490
vari ation</w> 824027
im ens</w> 823944
subst anti 823893
pregn ancy</w> 823888
go ing</w> 823293
dis co 823040
bin d</w> 822638
ul tras 822334
high est</w> 822140
tr ation</w> 821414
ar ity</w> 820440
recombin ant</w> 820336
e. g.</w> 820233
D ata</w> 820174
al tered</w> 820065
plasm id</w> 819926
IF N</w> 819870
bi t</w> 819862
hal f</w> 819356
B D</w> 818659
S H</w> 817387
scop ic</w> 817202
conc er 816726
aut o 816600
networ k</w> 815542
i st 815096
op e</w> 815020
res h 814995
appro aches</w> 814435
perc ent 814422
s pl 813985
I V</w> 813649
fin al</w> 813240
E N 813065
statis tically</w> 812764
throug h 812266
D T 811983
Inte restingly</w> 811635
B io 811344
meth ylation</w> 811297
uni que</w> 811273
da ily</w> 810684
ra ther</w> 810250
design ed</w> 809857
ut aneous</w> 809402
i sion</w> 808499
in t</w> 807857
ar c 807735
ti vely</w> 807710
under lying</w> 807199
le ar 806473
id ity</w> 805327
cogni tive</w> 805168
hep at 804522
incor por 804041
er y 804000
hormon e</w> 803834
C ells</w> 803721
w ard</w> 802591
p al 801971
nucle us</w> 801810
estim ated</w> 801681
B y</w> 800761
mark er</w> 800248
es ted</w> 800176
regul ate</w> 800125
i b</w> 799712
devel op</w> 799652
a de 799599
proce dures</w> 799027
sp inal</w> 798689
ari ly</w> 798662
ri f 797578
no w</w> 797573
fo od</w> 797033
tw are</w> 796748
W ith</w> 796498
impro vement</w> 796202
fici al</w> 795698
ren g 795678
m atic</w> 795519
overex pression</w> 794740
ox ide</w> 794219
S y 794044
bas al</w> 793815
ic a</w> 793613
main ly</w> 793437
auth ors</w> 791615
experi ence</w> 791514
occur s</w> 791414
R s</w> 791170
H B 791038
en ting</w> 790243
h yp 790211
R P</w> 790114
S S</w> 789706
Pro te 789699
sign als</w> 789664
pea k</w> 789513
Sim il 789499
fam il 789493
bi al</w> 789147
E 1</w> 788879
choles terol</w> 788795
inva sive</w> 788544
u tes</w> 788458
meas ure</w> 788264
pro state</w> 788023
olog ies</w> 787692
compo und</w> 787362
i x</w> 786915
en ric 786521
deri v 786491
h and</w> 785848
canc ers</w> 785840
C C</w> 785692
Fig ure 785684
im ages</w> 785099
re st 784711
recover y</w> 784686
D N 784664
p 2</w> 784574
treat ments</w> 784342
as ta 783259
descri be</w> 783016
S ub 782674
cy totox 780255
bac k</w> 780105
recor ded</w> 780067
chrom osome</w> 779510
ex tent</w> 779329
memb ers</w> 779252
re al</w> 778870
admin istered</w> 778860
F urther</w> 778694
domin ant</w> 778566
anti bio 778216
me mor 778062
b ul 777578
c um 777258
produc e</w> 777201
medi a</w> 777074
a or 776738
protoc ol</w> 776693
vi sion</w> 776679
inter val</w> 776588
la teral</w> 776450
istr y</w> 775971
res sive</w> 775178
it on 774584
repor ts</w> 774520
es tion</w> 774454
exerc ise</w> 773427
val ent</w> 772950
meth yl</w> 771837
poten t</w> 771567
L D 771490
ma terial</w> 770656
ch ann 770600
O F</w> 770528
la ter</w> 770486
o od</w> 770470
signific ance</w> 770363
he ad</w> 769747
st reng 769029
b est</w> 768825
syste mic</w> 768641
te x</w> 768518
er r 768470
membran es</w> 768452
f av 768011
ve red</w> 767815
ros ine</w> 767433
os cop 767254
am in</w> 766863
H 2</w> 766756
i e 766487
def ects</w> 765771
specific ally</w> 765675
di lu 765212
hepati c</w> 765018
in tra 764930
mech an 763459
S ince</w> 763086
teri als</w> 762966
P P 762920
di et</w> 762897
H y 761848
n ur 761594
flu id</w> 761421
dys function</w> 761242
ol der</w> 761100
U S</w> 761035
om y 760793
magne tic</w> 760577
I P</w> 760176
asi c</w> 759889
b on 759743
pro xim 759725
dynam ics</w> 759634
A mon 759545
O H</w> 759519
random ized</w> 759187
so f 759148
sour ce</w> 758902
incub ation</w> 758569
lit tle</w> 758247
esti on 757597
un known</w> 757508
R 2</w> 757359
maxim um</w> 757218
was hed</w> 757078
e ight</w> 756531
W estern</w> 756140
trans plantation</w> 755173
pre g 755113
re as 754607
f at 754135
E 2</w> 754104
re ference</w> 753956
C Y 753883
S M 753474
observ ations</w> 753327
d y 752321
c DNA</w> 752302
malign ant</w> 752287
res olution</w> 751440
hem at 750588
develop ing</w> 750289
c ost</w> 750126
comp are</w> 749669
ter ms</w> 749319
Bec ause</w> 749196
ve si 748654
ta il</w> 748590
zy g 748099
tion ing</w> 747858
ap pe 747790
youn g</w> 747396
sh or 747073
H P 746761
con ventional</w> 746435
larg er</w> 746273
liqu id</w> 746262
chann els</w> 746192
si c</w> 746132
tre m 745697
tra um 745247
vari ety</w> 745106
invol vement</w> 744911
su mp 744887
C M 744306
Amon g</w> 744141
allel e</w> 744043
T NF</w> 743723
assemb ly</w> 743420
met asta 743219
o ple</w> 743027
Fin ally</w> 742520
carb on</w> 742228
commun ity</w> 742143
transp or 741701
Im mun 739683
i ron</w> 739426
environ mental</w> 739355
H z</w> 739289
S ig 739014
G E</w> 738694
cardi ovascular</w> 738618
protec tive</w> 738603
labor atory</w> 738545
L A</w> 738222
post operative</w> 737832
g er 737365
gen s</w> 736988
re verse</w> 736888
om y</w> 736423
f at</w> 736091
ar ch</w> 735947
dat ab 735744
ing ly</w> 735721
ogni tion</w> 735552
me ans</w> 734885
saf ety</w> 734738
hyperten sion</w> 734738
of f</w> 734375
hy dr 734252
y et</w> 734110
ax is</w> 734095
N F 733407
o vari 733279
enco ding</w> 733181
proble ms</w> 732596
vari ant</w> 732567
adv anced</w> 732384
ad verse</w> 732315
st ages</w> 731981
m as 731799
impa ir 731609
maj ority</w> 730312
resi due</w> 730075
tro ph 729940
rec tal</w> 729408
b ase</w> 728712
isol ates</w> 728643
sc le 728507
St ud 728045
macroph ages</w> 727977
acc ep 727968
adv ant 727795
cle ar</w> 726438
ter ing</w> 725792
si a</w> 725516
review ed</w> 725340
tri gg 725270
i on 725167
M 2</w> 724423
D es 724196
ha ving</w> 724161
In ter 724136
can di 723592
T A 723292
vari able</w> 723046
hum ans</w> 723020
p ig 722846
prof ile</w> 722837
memor y</w> 722151
C I 722137
frequ ently</w> 722019
S L 721619
charg e</w> 721416
on c 721143
D a</w> 719899
ri a</w> 719722
diff icul 719424
k ine</w> 718428
oc l 718393
ab und 718356
MR I</w> 718156
y ed</w> 718012
sh ap 717778
enh anc 717738
O S</w> 717559
de pression</w> 717484
pl an 717277
detec t</w> 716490
estion na 716287
mon th</w> 716120
gas tric</w> 716031
os yn 715551
sim ple</w> 715318
possi bility</w> 715130
C F 714743
atten u 714590
ste ro 713767
re p 713506
con text</w> 713359
app ing</w> 713340
percent age</w> 713148
ho od</w> 712875
opath y</w> 712837
intern al</w> 712801
res on 712595
d op 712409
a k</w> 711722
gam ma</w> 711322
u preg 711258
A t 711183
chrom atin</w> 711170
rema ined</w> 710940
sof tware</w> 710643
s al</w> 710034
cer tain</w> 709830
eph al 709346
se ven</w> 709201
polym erase</w> 708969
sp ati 708532
ol esc 708293
down stream</w> 707917
regar ding</w> 707549
se ud 707351
AM P</w> 707351
lo op</w> 707104
kin es</w> 707082
inte rest</w> 707049
f etal</w> 707010
& amp 706878
&amp ;</w> 706878
hel p</w> 706829
D I 706540
dim ensi 706535
vari ables</w> 705892
al le 705824
f ish</w> 705794
poten tially</w> 705308
og lob 704644
ac hed</w> 704605
experim ent</w> 704536
grow n</w> 704489
t ase</w> 704411
monit oring</w> 704242
to sis</w> 704231
chem istry</w> 703858
fix ed</w> 703401
id al</w> 703130
um in 702934
ati ves</w> 702711
comple tely</w> 702302
im plic 702255
thir d</w> 702184
ch ing</w> 701890
enc ing</w> 701637
sis tent</w> 701223
G 2</w> 700967
mix ed</w> 700239
ly sis</w> 700065
metasta sis</w> 699982
ag re 699943
s le 699641
tr yp 699595
trans mission</w> 699461
cataly tic</w> 699406
C d 698644
adj u 698323
or th 698192
fac t</w> 697261
solu ble</w> 696936
κ B</w> 696835
conta ins</w> 696491
impa ired</w> 696066
pre vent</w> 696060
D uring</w> 695341
mal ian</w> 695304
os a</w> 694687
ag en 693889
alter ations</w> 693869
ty rosine</w> 693868
fin ding</w> 693816
P O 693636
apopto tic</w> 692852
transi tion</w> 692623
phosphor ylated</w> 692338
w ar 692240
er ro 692163
promo te</w> 691977
r am 691804
throm b 691467
A k 690997
an a 690710
T H 690671
neu tr 690542
measure ment</w> 690230
rec ognition</w> 690227
1 B</w> 689222
ul ate</w> 688921
th ic 688727
techn ology</w> 688123
pe ople</w> 688000
Uni versity</w> 687672
e ous</w> 687635
S ta 686862
hist o 686845
pl us</w> 686505
B R 686450
m T 685963
el etal</w> 685659
s ex 685639
mus t</w> 685493
ro om</w> 685414
M eth 685352
p 3</w> 684516
pur pose</w> 684332
cle avage</w> 683748
frag ment</w> 683720
l ing</w> 683361
rab bit</w> 683224
moder ate</w> 682909
k es</w> 682863
cere bral</w> 682796
long er</w> 682349
stro ke</w> 681508
lay er</w> 681488
ab normal 681474
investig ation</w> 681270
A .</w> 681191
T R</w> 680920
es si 680327
sub strates</w> 679828
f ying</w> 679283
pro p 679089
r al</w> 679055
b le 679047
f ung 678777
s qu 678551
diab etic</w> 678411
pl ayed</w> 678033
fat ty</w> 677699
sever ity</w> 677073
adj us 676756
dynam ic</w> 676717
par tial</w> 676327
chromat ography</w> 676107
P R</w> 675237
pol ar 675080
olog ically</w> 674981
P M 674873
requi res</w> 674697
H S 674188
at tr 673780
asp ase</w> 673453
com mon 673301
dimensi onal</w> 673301
A G</w> 673187
Sig ma</w> 673012
ar y 672811
m ia</w> 672346
S ci 672333
Clin ical</w> 671875
C 2</w> 671691
alcoh ol</w> 670987
B ased</w> 670026
i ety</w> 669841
ti l</w> 669790
M AP 669606
cor tex</w> 669187
A K 668978
to ol</w> 667925
a ir 667440
al b 667434
4 A</w> 667380
myocardi al</w> 667252
se em 667068
ap s</w> 666840
sump tion</w> 666770
ar ticles</w> 666430
el i 665515
met al</w> 665461
metast atic</w> 665085
ev ol 665065
min utes</w> 665043
V A</w> 664668
autophag y</w> 664522
e di 664470
se p 664467
n ic</w> 664372
par ticles</w> 664211
ill ary</w> 664206
R A</w> 663823
pre vention</w> 662729
re ly</w> 662590
P F 662497
obser vation</w> 662446
in ated</w> 662288
P r 662108
S pec 661599
mam malian</w> 660704
hypo x 660586
path ogenesis</w> 660500
TI ON</w> 660249
appe ar</w> 660033
el ements</w> 658438
c as 658430
B C 658182
le ts</w> 658036
ap pea 657877
sp e 657817
E l 657807
con form 657784
indic ates</w> 657778
s per 657702
appea red</w> 657402
ri tis</w> 657318
ten ce</w> 656887
vie w 656871
conta ined</w> 656789
optim al</w> 656163
enc ies</w> 655940
C or 655892
re present</w> 655673
oc amp 655467
ec t 655178
com position</w> 655145
sen se</w> 655018
P G 654915
T 3</w> 654796
al low</w> 654532
blas ts</w> 654424
ar ray</w> 654311
ep tion</w> 654275
p h</w> 654100
ad s</w> 653810
fer red</w> 653356
synap tic</w> 653355
rel ation</w> 653093
3 D</w> 652766
b ut 652340
s plic 652320
gly co 651886
T E 651877
s in 651662
H C</w> 651454
ca teg 651189
A A</w> 651063
curren tly</w> 651034
anal og 650309
b p</w> 649992
N or 649987
intr av 649740
it ary</w> 649398
ip s</w> 649345
organ ic</w> 649200
ar terial</w> 649034
B 2</w> 648362
kin etics</w> 648098
pa ir 648056
eff ici 647959
de tail 647876
ne um 647806
ecti vity</w> 646827
pre ven 645552
remo val</w> 645462
pl ates</w> 644882
co ding</w> 644666
ad olesc 644008
N K</w> 643656
over n 643632
i i</w> 643230
lo ro 642886
The y</w> 642884
ab dom 642569
differen tial</w> 642175
re active</w> 642121
tu al</w> 641953
mit ted</w> 641934
induc es</w> 641498
2 B</w> 641296
pancre atic</w> 640941
thyro id</w> 640828
ot rop 640585
model ing</w> 640244
in sig 640162
bloc k</w> 639650
tow ard</w> 639502
invol ving</w> 639475
sim ult 639470
le ar</w> 639384
ecti veness</w> 639076
n ic 638980
ne ural</w> 638315
oc ar 638131
ne ut 637817
em erg 637547
fem ales</w> 637465
ic le</w> 637002
hi pp 636923
T a 636663
v ical</w> 636644
P .</w> 636241
mal es</w> 636194
M o 636120
n ature</w> 636049
sp ont 635728
n M</w> 635463
at tri 635251
obj ective</w> 635153
gener ate</w> 634991
rif ug 634989
s ph 634732
Tre at 634539
k Da</w> 634463
N ot 634447
5 A</w> 634419
si vely</w> 634224
per me 634218
p ut 634184
col um 633723
adhe sion</w> 633587
S DS</w> 633048
an terior</w> 632963
an g</w> 632888
P I</w> 632813
tempor al</w> 632800
statis tical</w> 632520
protec tion</w> 632474
e f 632465
l ar 632437
numb ers</w> 632431
asi a</w> 632417
main tained</w> 632334
b en 632256
wh at</w> 632174
olec ular</w> 632122
B r 632032
C G 631645
tum our</w> 631552
aro und</w> 631400
ecti n</w> 631349
hetero gene 631216
hipp ocamp 631095
S ign 630976
las er</w> 630790
i ting</w> 630773
I R 630709
ane ously</w> 630669
i tes</w> 630356
N 1</w> 630164
H 3</w> 630156
foc al</w> 630134
Ig G</w> 630072
physi ci 629854
y lo 629603
chang ed</w> 628951
Th er 627956
id ine</w> 627945
P l 627690
ent y</w> 627484
or ts</w> 627308
u fac 627271
yi el 626948
th resh 626394
er cul 626306
te l 626191
at ase</w> 626172
li po 626150
hydrox y 626124
gn os 625951
th em 625830
com e</w> 625465
conf idence</w> 625324
reduc ing</w> 625232
H D</w> 624553
proble m</w> 624315
co ord 623945
gen otype</w> 623712
inj ected</w> 623470
g er</w> 623231
P 3</w> 623192
cont act</w> 623088
i ous</w> 622651
w all</w> 622648
propor tion</w> 622319
sol id</w> 622022
common ly</w> 622009
re f 621721
G N</w> 621357
an es 621163
v ar 620397
Th ree</w> 620341
ex trem 620095
op recip 619945
n t</w> 619811
exp an 619783
si RNA</w> 619776
accur acy</w> 619704
compar able</w> 619695
ar r 619665
ne ar</w> 618919
ot ox 618822
suppor ted</w> 618624
t am 618022
P ri 617717
man ufac 617416
bir th</w> 617177
g al 617161
hydro gen</w> 616600
vari ate</w> 616577
B C</w> 616306
CD 1</w> 616079
sy m 616078
r s 616018
con clusion</w> 615902
I T 615648
ocl onal</w> 615643
k er 615516
w ise</w> 615469
kn ess</w> 615150
melan oma</w> 614922
do m</w> 614743
m ing</w> 614154
el im 614074
im plem 614004
An alysis</w> 613800
ell a</w> 613699
hom olog 613565
prog nosis</w> 613253
M D</w> 613208
μ l</w> 613189
inter pre 612330
cor tical</w> 612278
w ays</w> 612128
in t 611679
p el 611439
es ity</w> 611044
trac t</w> 610953
st ates</w> 610862
venti ons</w> 610519
per fusion</w> 610162
moti f</w> 610033
F or 610017
s ection</w> 609985
c all 609820
therap ies</w> 609776
Treat ment</w> 609388
id ly</w> 609083
t or 608987
reson ance</w> 608911
inf ants</w> 608893
F s</w> 608779
bel ow</w> 608434
on omic</w> 608349
show ing</w> 608301
il s</w> 608120
chem o 607882
a ir</w> 607575
clin ically</w> 607567
ac u 607558
pro be</w> 607533
omet ric</w> 607191
as ym 606858
const ant</w> 606832
a qu 606416
equ i 605843
b ly</w> 605327
C ar 605112
form ing</w> 604802
bec ome</w> 604313
for ce</w> 604038
er ization</w> 603721
c ros 603670
am b 603462
syn thesized</w> 603401
cytoplas mic</w> 603113
ex tr 602975
in take</w> 602960
az ole</w> 602932
cy tom 602828
t ren 602557
eb o</w> 602524
M .</w> 602220
cryst al</w> 602010
ass es</w> 601683
b idity</w> 601562
log ical</w> 601500
ob las 601464
ig n</w> 601203
ver sion</w> 600958
profil es</w> 600318
di ame 600285
oper ation</w> 600087
S p 599991
educ ation</w> 599847
ot ting</w> 599274
ap plications</w> 598938
re produc 597994
hist one</w> 597778
bin ds</w> 597107
eff ectiveness</w> 597079
bio chemical</w> 596766
through out</w> 596751
phot o 596721
glob al</w> 596592
acet yl 596290
loc alized</w> 596215
surve y</w> 595821
sub units</w> 595482
no ted</w> 595458
an th 595062
inva sion</w> 594715
glut am 594584
as th 594455
gener ally</w> 594443
n ext</w> 594254
ovari an</w> 594207
mar row</w> 594025
un til</w> 593749
Se ver 593682
poten ti 593315
initi ation</w> 593315
ver s</w> 593286
bo v 593200
lear ning</w> 592858
re construc 592404
G i 592114
eth anol</w> 592066
y r 591730
gen ase</w> 591266
pr inc 591143
c aspase</w> 591068
asp ects</w> 590842
vi ous</w> 590756
In de 590684
aim ed</w> 590300
soci ation</w> 590236
AL S</w> 589715
tem p 589412
im age</w> 589327
plac ebo</w> 589304
fl ex 589207
Gro up</w> 588926
coupl ed</w> 588510
c ad 588371
mitochond ria</w> 588361
pro j 588356
bar ri 588280
extrac ted</w> 588211
T 2</w> 587759
N a</w> 587380
gas tro 586951
vi si 586921
transf erase</w> 586574
success ful</w> 586478
gnos tic</w> 586311
suscepti bility</w> 585935
se ts</w> 585602
N eu 584950
conta in</w> 584608
coll agen</w> 584522
determin ation</w> 584457
biom ar 584389
z es</w> 584305
pow er</w> 584235
vi ding</w> 584106
Di ff 584102
ic hi 584101
regul ating</w> 583919
iti n</w> 583798
knock down</w> 583703
ul l</w> 583247
qu estionna 583204
sle ep</w> 583189
E B 583069
ev olution</w> 582875
continu ous</w> 582770
ab or 582245
ur s 582014
rema in</w> 581829
an ine</w> 581791
up per</w> 581701
N I 581611
ol ip 581544
rap idly</w> 581475
de hy 581293
zyg ous</w> 581245
orig in</w> 581034
inf arc 581022
es ophag 580845
vacc ine</w> 580845
al most</w> 580803
doc um 580776
Ne w</w> 580402
P ase</w> 580371
O SE</w> 580127
vit amin</w> 579947
transf ection</w> 579886
mat ched</w> 579795
leuk emia</w> 579455
i ons</w> 578904
D 2</w> 578676
ur b 578578
ou th</w> 578540
modi fication</w> 578512
at om 578302
regul ates</w> 578283
or ith 578260
M O 578092
h ex 577931
prote ase</w> 577866
cy tes</w> 577865
Des pite</w> 577808
extrac ts</w> 577691
N O</w> 577133
Na Cl</w> 577119
mo de</w> 577094
inter act</w> 577086
spectr um</w> 576645
n e</w> 576642
pro spective</w> 576424
e ts</w> 576374
ad ren 576251
spec imens</w> 576136
eth yl 576029
transf er 575994
ar th 575793
M ost</w> 575752
le sion</w> 575744
o g</w> 575323
P 4</w> 575248
F ro 575129
V 1</w> 574838
exhibi t</w> 574755
2 D</w> 574750
inhi bits</w> 574699
recur rence</w> 574625
activ ate</w> 574152
p neum 574129
com pri 574090
blo t</w> 574090
PU RP 573896
s atis 573877
e ti 573652
morph ology</w> 573585
fluoresc ent</w> 573465
foc us</w> 573197
cent rifug 573071
streng th</w> 572867
F e 572775
O ver 572596
RO S</w> 572581
S I</w> 572429
n am 572385
res ection</w> 571962
C B 571826
bene fit</w> 571787
et ary</w> 571570
prec urs 571355
inter ventions</w> 570925
is sion</w> 570684
s po 570444
sti t 570288
famil ies</w> 570216
T R 570148
s ections</w> 570075
allow s</w> 569893
characteri zation</w> 569749
mix ture</w> 569643
L .</w> 569547
oxid ation</w> 569196
mon oclonal</w> 569044
h in 569033
cr uc 568335
PURP OSE</w> 568232
M icro 568037
ap parent</w> 567825
he at</w> 567817
sh e 567728
em er 567717
u tive</w> 567497
sm all 567298
al dehy 567008
cl ose</w> 566680
Ak t</w> 566610
cer vical</w> 566469
confir m</w> 566393
uc id 566371
toler ance</w> 566338
- 0</w> 566131
back ground</w> 566079
wor l 565612
promis ing</w> 565599
wid ely</w> 565555
ep ide 565376
r ich</w> 565319
plate let</w> 565153
a w 565115
H um 564906
mechan ical</w> 564715
M L 564334
enh ance</w> 564319
ten ance</w> 564137
abnormal ities</w> 564122
remo ved</w> 564025
t t 564001
difficul t</w> 563929
press or</w> 563877
F A</w> 563790
atic ally</w> 563787
pe di 563546
direc ted</w> 563512
or ph 563207
em ic</w> 563042
S ch 562992
amoun ts</w> 562796
car r 562734
us ually</w> 562235
fibro blasts</w> 562201
ner v 562115
alg orith 562096
ade qu 561861
om en 561593
N ational</w> 561399
str um 561306
ul a</w> 561301
yi eld</w> 561207
en ter</w> 560807
divid ed</w> 560519
sp ace</w> 560481
N MR</w> 560394
ne on 560216
Res earch</w> 560186
ab normal</w> 560156
agre ement</w> 560125
S ec 559929
it able</w> 559798
M ulti 559790
ad der</w> 559626
des pite</w> 559618
ar teri 559090
kin etic</w> 559072
develop mental</w> 558730
wh ite</w> 558475
al .</w> 558315
t an 558312
stit ute</w> 558214
m entation</w> 557886
shif t</w> 557740
r s</w> 557720
dis played</w> 557671
inter mediate</w> 557012
enti f 556606
immun oprecip 556502
ear li 555701
man if 555576
ur inary</w> 555211
ha em 554896
challeng e</w> 554869
en sive</w> 554341
smo king</w> 554213
el ines</w> 554076
C 3</w> 553792
sup pression</w> 553745
as tro 553601
hom e 553430
hy th 553341
Com par 553059
fib ri 552908
prim ers</w> 552450
absor ption</w> 551964
g ain</w> 551893
atten tion</w> 551749
ep id 551242
A L</w> 551227
A u 550946
spati al</w> 550898
id en 550758
pos ite</w> 550758
emer gen 550566
pro long 550537
res ting</w> 550241
ob esity</w> 549828
par tially</w> 549664
ery thro 549386
oth ers</w> 549348
stud ents</w> 549320
re plic 549319
M P 549236
D r 549068
pl asia</w> 549042
ar com 548843
w w 548806
cyto kines</w> 548726
e very</w> 548659
ill in</w> 548516
comp an 548467
el ium</w> 548452
bov ine</w> 548193
requ ire</w> 547727
tri es</w> 547641
Tran s 547359
G er 547326
Sever al</w> 547229
trans genic</w> 547092
lig ands</w> 546946
mil d</w> 546877
C D</w> 546242
L E 546237
J ap 545867
ER I 545636
u me 545311
depend ently</w> 545297
publ ic</w> 544631
transl ation</w> 544307
tur n</w> 544248
u es</w> 544153
b er 544137
Fro m</w> 543967
K O</w> 543663
C S</w> 543285
C al 543282
can not</w> 543093
bloc ked</w> 542874
f ications</w> 542803
accoun t</w> 542713
μ m</w> 542553
con sumption</w> 542476
medic ine</w> 541793
ar ti 541758
S m 541670
th ym 541068
ac char 541021
z o 540856
cle arly</w> 540825
os ine</w> 540805
ati on 540545
main tenance</w> 540174
F 2</w> 540057
frag ments</w> 539977
ST AT 539953
don or</w> 539654
chil d</w> 539330
lymph ocytes</w> 539058
l ap 538781
N E 537912
allow ed</w> 537884
sus p 537699
detec table</w> 537556
nan op 537271
ec tomy</w> 537234
m urine</w> 537092
entif ic</w> 536689
ma terials</w> 536660
adjus ted</w> 536628
pro gnostic</w> 536591
G L 536478
h ol 536430
f al 536356
supplem ented</w> 535979
D A</w> 535825
k ary 535428
repor ter</w> 535265
pr o</w> 535196
b asic</w> 535026
. 1</w> 535004
phen otypes</w> 534999
g radi 534770
n ative</w> 534590
G C</w> 534536
acqu ired</w> 534534
S 3</w> 534481
ma tes</w> 534245
N P</w> 534068
aor tic</w> 533652
biop sy</w> 533597
fac es</w> 533515
d ine</w> 533305
embry os</w> 533178
prob ably</w> 532888
recei ving</w> 532755
a vi 532566
extrac t</w> 532171
d or 532161
if or 532118
tow ards</w> 532035
ic in</w> 531772
extrac tion</w> 531718
p on 531607
l igh 531587
resp ect</w> 531411
ex clud 531321
S R 531186
t ment</w> 530941
sta sis</w> 530730
U V</w> 530709
kin ases</w> 530563
S P</w> 529787
ro u 529663
subj ected</w> 529569
it ment</w> 529516
M AT 529097
underst and</w> 528847
predic t</w> 528772
emplo yed</w> 528646
o si 528586
electro ph 528466
b and</w> 528322
path ological</w> 528211
ac k</w> 528120
resi d 527510
success fully</w> 527461
syn thetic</w> 527275
fail ed</w> 527216
im plications</w> 527162
di sp 527104
3 B</w> 526786
lo ad</w> 526659
T GF</w> 526381
F ol 526313
j unc 525737
al ign 525682
ar m</w> 525672
acc ess</w> 525597
implic ated</w> 525373
re r</w> 525301
uc h</w> 524472
s at 524347
gen ital</w> 524341
D P</w> 524210
k age</w> 524097
u ter 523956
hepati tis</w> 523816
al lo 523726
if y</w> 523695
s cho 523118
CD 8</w> 523110
int act</w> 522565
el ucid 522346
D U 522075
iden tical</w> 522043
D O 521910
hom o 521804
frequ ent</w> 521614
SI GN</w> 521514
under going</w> 521325
requi re 521222
tr uc 520881
ex change</w> 520872
Addi tionally</w> 520619
scop e</w> 520468
st ly</w> 520292
at temp 519996
d le</w> 519892
wh ose</w> 519483
HC V</w> 519168
ver te 518942
S yn 518704
embry onic</w> 518635
struc tion</w> 518435
pos terior</w> 518408
H T</w> 518330
o rectal</w> 518318
th or 518304
O r 518263
s on 518049
T ech 517945
aldehy de</w> 517723
prim arily</w> 517714
ch ec 517570
def ect</w> 517559
ma ternal</w> 517457
diame ter</w> 517432
ari es</w> 517322
CS F</w> 517273
perc ent</w> 517233
distin gu 517061
deple tion</w> 516971
ach ing</w> 516694
d on</w> 516356
fin d</w> 516289
mar ked</w> 515979
d enti 515966
b ron 515643
t un 515463
em o 515206
there by</w> 515194
Ca 2</w> 515141
recogn ized</w> 515048
tub ercul 515008
clus ter</w> 514980
characteris tic</w> 514860
or ation</w> 514848
ogen etic</w> 514475
M A 514365
d one</w> 514360
re tinal</w> 513734
conclud e</w> 513710
ocy tosis</w> 513284
cal c 512770
app ear 512659
dist ance</w> 512626
en ding</w> 512545
expres s</w> 512352
recru itment</w> 512256
cl oned</w> 512177
PI 3 512176
MD A</w> 512124
v o 511844
abdom inal</w> 511717
i tin 511606
ta ining</w> 511490
B .</w> 511431
an x 511382
diff er</w> 511261
v ul 511118
le th 511075
organis ms</w> 510801
seem s</w> 510649
g o</w> 510601
tox ic</w> 510408
impair ment</w> 510385
C an 510260
bl adder</w> 510256
throm bo 510199
der ly</w> 509952
transi ent</w> 509716
oly tic</w> 509715
in oc 509707
unc lear</w> 509584
compe ti 509018
pro gen 508952
co ver 508756
cor d</w> 508663
ma ke</w> 508507
set ting</w> 508430
ma king</w> 508161
per im 508085
to m</w> 507823
coun tries</w> 507645
vi ability</w> 507559
construc t</w> 507548
esc ence</w> 507337
B M</w> 507095
ev ent</w> 506900
C ancer</w> 506860
L PS</w> 506612
cen ter</w> 506575
influ enz 506494
C E 506056
predic tive</w> 505992
s ess 505901
l ation</w> 505807
pre h 505457
y cl 504952
manufac tu 504907
plac e</w> 504537
1 a</w> 504479
posi tions</w> 504241
trans formation</w> 504173
ey e</w> 503932
CD 3</w> 503923
relationsh ips</w> 503903
F P</w> 503806
b ond</w> 503695
lym ph</w> 503596
classi fication</w> 503533
bi osyn 503518
prepar ation</w> 503248
DE SIGN</w> 503103
ne ph 503075
res ol 502649
oxid ant</w> 502565
rati os</w> 502461
Amer ican</w> 502277
te en</w> 502061
cyto kine</w> 501795
plac ed</w> 501673
ch loro 501566
k it</w> 501515
a rom 501502
cy ste 501456
iz es</w> 501357
Stud y</w> 501278
tom ography</w> 501006
n as 500996
f ar</w> 500941
es sive</w> 500856
ph ob 500240
alle l</w> 500183
Hum an</w> 500154
qu in 499773
t agg 499713
A fr 499223
termin us</w> 498721
org an</w> 498684
f s</w> 498645
radi o 498624
n ine</w> 498577
ar rang 498479
lac t 498433
- 2</w> 498179
fib rosis</w> 498052
datab ase</w> 497864
cruc ial</w> 497803
id ase</w> 497722
phosph atase</w> 497662
lac king</w> 497639
mo bil 497478
G A</w> 496976
bal ance</w> 496591
overex pres 496468
i pl 496264
N T 495511
colum n</w> 495139
p u 495035
b ic</w> 494865
um ab</w> 494676
Diff eren 494653
M an 494636
In vit 494350
Rec ent</w> 494251
we igh 494176
ch ym 494088
expl ore</w> 493911
v ements</w> 493777
S u 493505
e f</w> 493234
electroph ore 493222
cl ones</w> 493120
dra w 492958
M et 492886
fe eding</w> 492844
fr actions</w> 492638
path ology</w> 492536
tas k</w> 492524
d end 492503
con sec 492383
op tical</w> 492381
exc ept</w> 492297
Invit rogen</w> 492254
small er</w> 492184
N L 492031
li ving</w> 491920
rea d</w> 491870
serv ices</w> 491863
tom a</w> 491837
activ ating</w> 491825
ome try</w> 491742
l and</w> 491617
H ospit 491604
An ti 491600
associ ations</w> 490933
arth ritis</w> 490652
minim al</w> 490547
subsequ ently</w> 490072
larg ely</w> 489948
put ative</w> 489897
ocar cin 489868
occ us</w> 489866
loc us</w> 489750
ex ternal</w> 489729
C E</w> 489422
e ve</w> 489414
or rh 489341
ch es</w> 489145
il ep 489079
tra di 488974
se arch</w> 488803
col on</w> 488785
I R</w> 488676
en ed</w> 488574
cir cul 488281
e try</w> 488276
vas cul 488215
as sign 488044
re t 487853
D M</w> 487736
n ed</w> 487672
f ed</w> 487506
def in 487429
intrav en 487292
ex on</w> 487044
expl a 486207
Tri s</w> 486099
OBJECTIV ES</w> 485880
earli er</w> 485136
pro viding</w> 485087
depend ence</w> 484634
comple ted</w> 484573
P hy 484306
phen omen 484222
be g 484057
spec i 483963
gen der</w> 483915
H 3 483738
pres sive</w> 483586
igh tly</w> 483390
dist al</w> 483208
scle rosis</w> 483140
o stasis</w> 482815
vari ability</w> 482545
mo vement</w> 482472
r ac 482467
t ob 482296
res our 482176
sw it 482150
oti des</w> 482031
C X 481758
repres ents</w> 481671
hom ogen 481173
neut roph 481087
D s</w> 480969
ult i</w> 480951
n or</w> 480728
PA R 480718
H igh</w> 480680
av es</w> 480632
F ir 480555
sel y</w> 480460
spont aneous</w> 480237
T RA 480135
pre domin 479883
ven ous</w> 479489
l uc 479360
fluo ro 479346
T B 479073
retro spective</w> 479018
recur rent</w> 478875
yl ate</w> 478826
guid elines</w> 478714
behavi oral</w> 478447
di verse</w> 478368
b ile</w> 478320
M I</w> 478287
c it 478280
thresh old</w> 477989
on ing</w> 477954
c utaneous</w> 477810
d og 477709
ple x</w> 477647
expl ain</w> 477627
Over all</w> 476790
di versity</w> 476779
sl ightly</w> 476777
S i 476755
a the 476753
deriv atives</w> 476672
m er</w> 476581
hydro phob 476460
par allel</w> 476398
repe ated</w> 476232
i atric</w> 476195
gl and</w> 476090
il l</w> 475816
contribu tion</w> 475630
H R 475586
conjug ated</w> 475530
el derly</w> 475368
VE GF</w> 475289
exis ting</w> 475202
1 C</w> 474894
st atic</w> 474829
analy sed</w> 474737
G AB 474300
el ess</w> 474159
con trac 474119
ac compan 474076
mon om 473799
lat ter</w> 473661
ac cel 473540
ep it 473427
L 2</w> 473247
M ut 473124
S S 473112
D R 473086
immuno histo 472999
in strum 472944
ro ot</w> 472525
ch ic 472401
me tric</w> 472284
conver sion</w> 472160
typ ical</w> 471871
mor bidity</w> 471700
con formation</w> 471576
on to</w> 471309
exten sive</w> 471249
stimul i</w> 471022
all ing</w> 470997
ot al</w> 470990
pan el</w> 470684
G S</w> 470559
T ak 470471
z in 470414
H g</w> 470334
call ed</w> 470266
lu e</w> 470106
c l</w> 469965
scri min 469787
anti gens</w> 469747
cur ve</w> 469529
di scrimin 469407
lin e 469370
ther mal</w> 469179
ro ug 469160
Prote in</w> 468586
differenti ated</w> 468404
occur rence</w> 468287
attr s</w> 467936
CO 2</w> 467930
p seud 467896
in dependently</w> 467879
m im 467805
ER K</w> 467680
A M</w> 467604
nerv ous</w> 467175
s ecti 466981
inf il 466845
py ri 466577
S tu 466431
di etary</w> 466361
sit u</w> 466313
L a</w> 466283
D ec 466192
rema ining</w> 466112
ed ly</w> 465887
E r 465859
str and</w> 465594
f it 465435
exten ded</w> 465419
spectro scopy</w> 465346
spectr a</w> 465103
Tech n 465084
sur ro 464368
tr ical</w> 464328
us al</w> 464240
sequ ently</w> 464107
proxim al</w> 464105
ynam ic</w> 463898
ig en 463789
f ts</w> 463744
ther n</w> 463598
tagg ed</w> 463572
li br 463552
avail ability</w> 463329
ume rous</w> 462897
M ed</w> 462753
fro n 462672
ul f 462646
L C</w> 462516
ampl ification</w> 462516
B L</w> 462290
ocy tic</w> 462258
C r 462199
manufactu rer</w> 461907
inf er 461668
b lin 461606
phen yl 461535
intro duced</w> 461384
dri ven</w> 461308
aff ects</w> 461225
nee ds</w> 461146
re tin 461116
it ud 461114
pres er 460973
ep ilep 460916
su peri 460868
nec rosis</w> 460799
B ri 460668
otyp ic</w> 460487
compl em 460441
pol y</w> 460270
C 5</w> 460033
inf usion</w> 459518
ero l</w> 459372
immun ity</w> 459080
di an</w> 458916
gra ft</w> 458582
reve al</w> 458529
R el 458409
grow ing</w> 458402
separ ated</w> 458127
influenz a</w> 457911
foc used</w> 457746
super nat 457476
ll ing</w> 457428
jo int</w> 457391
C P 457190
en ro 457147
co ag 457129
PI3 K</w> 456679
organ ization</w> 456598
iton eal</w> 456524
replac ement</w> 456497
satis fac 456352
prolong ed</w> 456314
modi fications</w> 456170
i v 456045
pair s</w> 455963
enric hed</w> 455941
thoug ht</w> 455882
he re 455794
suppres sed</w> 455732
mut ated</w> 455299
g as</w> 454769
f a 454739
P las 454476
ran dom</w> 454265
sex ual</w> 454217
classi fied</w> 454131
H LA</w> 454100
low ing</w> 454024
C P</w> 453838
f its</w> 453598
inter fe 453560
E C</w> 453354
consec utive</w> 453318
sk eletal</w> 453093
nit rogen</w> 452851
al ine</w> 452763
4 B</w> 452651
accur ate</w> 452539
col orectal</w> 452348
syste matic</w> 452309
transcrip ts</w> 452231
C ur 452106
por e</w> 451956
S ome</w> 451944
promo tes</w> 451902
A 3</w> 451770
mark edly</w> 451689
ubiqu itin</w> 451361
r in</w> 451143
clos ely</w> 451132
trans location</w> 451014
mon o 451011
agon ist</w> 450967
f ast</w> 450854
sal ine</w> 450821
def ic 450813
M O</w> 450718
Ex perim 450660
the ory</w> 450414
el ement</w> 450208
g on 450023
cap able</w> 449860
b es</w> 449611
asth ma</w> 449570
equ al</w> 449339
de vi 449193
ichi a</w> 448996
ampl ified</w> 448878
ob tain</w> 448798
sour ces</w> 448608
p ast</w> 448396
Me dical</w> 448124
mod ulation</w> 447884
ex er 447511
phil a</w> 447428
3 H</w> 447131
is ms</w> 446999
A U 446761
r he 446741
ph ag 446638
com preh 446549
ca ten 446376
in sic</w> 446284
R ep 446204
oc rine</w> 446198
ra z 446154
spectro metry</w> 445922
ar rest</w> 445882
accel er 445642
6 A</w> 445559
D S 445175
Ch in 445133
P ub 445069
cy cles</w> 444975
is om 444860
ac r 444412
hybri di 444328
ogen s</w> 444252
micro tub 444028
overn ight</w> 443854
MAT ERI 443775
o il</w> 443757
h ab 443708
ste ps</w> 443192
Hospit al</w> 442840
eng ine 442768
mid dle</w> 442539
ser ine</w> 442457
pres entation</w> 441959
t age</w> 441893
o k</w> 441803
MAP K</w> 441689
er a</w> 441620
2 C</w> 441439
F lu 441377
p ass 441366
no v 441338
a red</w> 441302
ir radiation</w> 441122
prof essi 440906
hel ix</w> 440890
aff ecting</w> 440859
oph il 440835
Ch ina</w> 440581
P K</w> 440575
Eff ect</w> 439822
em p 439819
CY P 439808
ti g 439800
d ers</w> 439746
um in</w> 439482
E LI 439408
ten cy</w> 439336
program s</w> 439296
pol ar</w> 439109
maxim al</w> 439103
if erase</w> 439085
oste rone</w> 438964
har v 438816
dev ice</w> 438532
pl a 438448
facilit ate</w> 438296
thesi a</w> 438286
Bi os 438203
issu e</w> 437799
est rogen</w> 437726
in activation</w> 437616
qu al 437596
possi bly</w> 437429
del ayed</w> 437157
immun os 437115
entr y</w> 437066
oc or 437057
fil am 436787
O b 436719
decre ases</w> 436532
nec k</w> 436451
pneum on 436243
oly sis</w> 436230
sit u 436141
il lu 435757
lymph oma</w> 435457
wa ve</w> 435442
em ph 435323
attri bu 435057
sign s</w> 434916
m 2</w> 434908
epid er 434574
Chin ese</w> 434522
estim ate</w> 434521
thic kness</w> 434414
construc ted</w> 434227
h ts</w> 433991
str y</w> 433985
candi date</w> 433942
ne oplas 433693
carb ox 433690
predic tion</w> 433644
bor n</w> 433602
appear ance</w> 432939
metabol ites</w> 432814
Uni ted</w> 432760
ar in</w> 432510
arg in 432496
j u 432469
thal am 432337
D C</w> 432306
tox in</w> 432175
bi ology</w> 431975
glyc os 431912
acet ate</w> 431655
pedi atric</w> 431635
an k</w> 431430
regul ator</w> 431136
aggreg ation</w> 431031
D ro 430901
d ance</w> 430860
rel ap 430761
CL C</w> 430758
antagon ist</w> 430713
D R</w> 430423
ten tion</w> 430364
occur ring</w> 430234
dim er</w> 430185
t al 430098
de hydro 430050
li on</w> 429757
p ed</w> 429744
enc ephal 429638
PL C</w> 429577
Stu dies</w> 429439
dend ri 429053
pro pose</w> 429041
ad sor 428865
cycl o 428463
A b</w> 428451
opo i 428392
i si 428125
res sed</w> 427990
sh ock</w> 427730
G ST</w> 427621
prog ressive</w> 426930
tw ice</w> 426785
o ked</w> 426535
dr am 426533
m ulti</w> 426525
prim er</w> 426523
polymorph ism</w> 426447
3 C</w> 426373
or age</w> 426087
compu ted</w> 426060
P ol 426052
questionna ire</w> 425988
mes en 425963
mil k</w> 425875
tubercul osis</w> 425866
so il</w> 425848
fil m</w> 425813
ro w 425695
hypox ia</w> 425647
Fir st</w> 425410
l and 425368
gradi ent</w> 425360
m ul 425303
CA 1</w> 425303
ischem ia</w> 425213
traum a</w> 424911
anc ies</w> 424748
nor m 424709
an tic 424388
underst ood</w> 424175
allel es</w> 424148
pres cri 424147
E sch 424050
inter face</w> 423987
ta x 423958
fac ial</w> 423948
construc ts</w> 423728
al ter</w> 423594
g est 423548
s low</w> 423451
Re g 423329
col d</w> 423216
od ds</w> 423161
anx iety</w> 423025
or ly</w> 422908
add ress</w> 422878
tro p 422861
in stitu 422808
ro b 422808
produc ing</w> 422734
plac ement</w> 422676
posi tively</w> 422603
Inde ed</w> 422392
adequ ate</w> 422346
random ly</w> 422053
Pub Med</w> 421999
c AMP</w> 421630
resp ective</w> 421596
wor ds</w> 421425
fi br 421383
Esch er 421332
re z</w> 421142
cl onal</w> 420856
th re 420828
in ate</w> 420762
chlor ide</w> 420624
issu es</w> 420498
meth od 420462
metast ases</w> 420432
su itable</w> 420380
fl av 420377
min or</w> 420341
coun ter 420229
experi enced</w> 419996
no de</w> 419962
Escher ichia</w> 419787
compar ing</w> 419733
em ission</w> 419413
U T 419363
recomm ended</w> 419221
im en</w> 419201
substanti al</w> 419197
ic illin</w> 419070
an a</w> 419023
caten in</w> 418723
dog s</w> 418647
superi or</w> 418646
an tim 418603
chrom e</w> 418374
hydrophob ic</w> 418324
fib ers</w> 418303
u ary</w> 418279
nucle i</w> 418207
ecti ous</w> 418190
ca the 418075
syn th 418061
ultras ound</w> 417960
aut om 417877
G C 417722
equ ili 417640
CD 2</w> 417533
dec ision</w> 417391
am ylo 417302
a f</w> 417071
ischem ic</w> 417048
ca ro 416857
f und 416815
mut agen 416793
detail ed</w> 416748
P E</w> 416719
saf e</w> 416632
ari a</w> 416409
os in</w> 416296
transfer red</w> 416117
prote in 416014
appro ved</w> 415890
nanop articles</w> 415813
iso forms</w> 415734
M M 415645
s a 415618
medi ately</w> 415519
L O 415497
medi ates</w> 415086
to ols</w> 415041
monit ored</w> 414887
ent ally</w> 414774
ic king</w> 414763
du al</w> 414489
de generation</w> 414351
quanti fied</w> 414212
z e 413851
expla ined</w> 413850
mo tion</w> 413686
analy ze</w> 413474
og ly 413260
M on 413165
i ent</w> 413058
diff usion</w> 412872
pa ired</w> 412850
read y</w> 412780
ath i 412734
phosph olip 412696
bu il 412668
load ing</w> 412642
sal t</w> 412556
cycl ic</w> 412003
1 H</w> 411752
succ ess</w> 411629
nur sing</w> 411471
establ ish</w> 411419
d ly</w> 411314
subj ect</w> 411194
d a</w> 411066
i te 410954
t ant</w> 410842
aro se</w> 410818
E uro 410694
restric ted</w> 410343
inser tion</w> 410222
1 α</w> 410198
st rep 410107
ran ial</w> 410106
ad op 410070
Ex pression</w> 410068
G lu 409966
tr aff 409939
ex ci 409911
infarc tion</w> 409686
S al 409530
high ligh 409416
RA S</w> 409354
I N</w> 409256
eff ectively</w> 409162
a x</w> 408943
E ach</w> 408904
ec onomic</w> 408675
F r 408163
N A 408035
ent rez</w> 408030
seg ment</w> 408017
v ag 407854
end oscop 407787
de x 407786
zin c</w> 407721
A g 407486
di ver 407407
ar s</w> 407234
di a</w> 407191
valid ated</w> 407133
vari ations</w> 407070
ang le</w> 407019
teri c</w> 406866
SN Ps</w> 406532
expl ored</w> 406348
IN T 406228
epide mi 406197
p tom 406137
M ore</w> 406071
ic h 405985
sp ectively</w> 405967
new ly</w> 405845
promo ting</w> 405792
om er 405614
ey es</w> 405543
S K 405484
prote as 405473
restric tion</w> 405449
solu tions</w> 405201
k et 405179
F O 405099
antibio tic</w> 404878
k in</w> 404877
is ation</w> 404732
st ance</w> 404516
On ly</w> 404382
d ental</w> 404282
defin i 404230
achi eve</w> 404221
lim it</w> 403949
conform ational</w> 403929
por t</w> 403901
se iz 403848
oc om 403711
prolifer ative</w> 403674
tradi tional</w> 403597
M E</w> 403255
E N</w> 403195
us ual</w> 403129
fe ed 403064
trans formed</w> 403057
up stream</w> 403054
4 C</w> 403012
invol ves</w> 402995
ser ve</w> 402752
arcom a</w> 402655
Simil arly</w> 402553
co sts</w> 402475
an dro 402297
pre feren 402289
I f</w> 402205
β 1</w> 402160
ri se</w> 402098
Th ir 402016
physi ology</w> 401967
h r</w> 401961
shap e</w> 401518
pol yp 401514
Me dic 401337
oc ular</w> 401210
activ ator</w> 401200
ac ent</w> 401152
networ ks</w> 401009
ac ted</w> 400971
1 b</w> 400785
ste ms</w> 400700
gre at</w> 400597
pur ch 400456
A β</w> 400329
rel ax 400209
M B</w> 400191
Tw enty</w> 400163
trans duction</w> 400042
home ostasis</w> 399543
polymorph isms</w> 399536
cycl in</w> 399503
P o 399109
epti de</w> 399059
read ing</w> 399053
enti re</w> 398996
O p 398783
si an</w> 398774
R T 398521
h our</w> 398448
clus ters</w> 398439
cell ent</w> 398398
Cl 2</w> 398398
sum mar 398348
El ec 398307
un treated</w> 398279
ste ad</w> 398252
glutam ate</w> 398115
gener ative</w> 398025
z ym 397997
fe ature</w> 397735
equi valent</w> 397689
M ar 397591
ra dical</w> 397543
rele ased</w> 397524
ch ains</w> 397516
sch iz 397423
gre en</w> 397280
PA GE</w> 397229
Eff ects</w> 397213
p . 397174
path ogenic</w> 397127
bron ch 397117
abil ities</w> 397116
h tt 397101
separ ate</w> 396999
c ent</w> 396867
G u 396729
cytoplas m</w> 396702
injur ies</w> 396680
p ly</w> 396565
I D</w> 396348
v als</w> 396249
cytotox ic</w> 396058
k ne 395979
Ac cor 395697
dis play</w> 395380
w t</w> 395249
leuk in</w> 395226
induc ing</w> 395099
cle ar 394954
anti oxidant</w> 394921
H ER 394777
enzym atic</w> 394622
con sequences</w> 394287
T P 394245
orig inal</w> 394146
H S</w> 393985
ELI SA</w> 393946
repres ent 393907
M in 393855
C O</w> 393854
inhibi ting</w> 393854
athe ro 393773
D L 393637
fib er</w> 393630
thor ac 393248
ti d</w> 393168
V i 393135
algorith m</w> 393071
reduc es</w> 393069
mat uration</w> 392877
am ycin</w> 392731
In cre 392479
m mol</w> 392351
ble eding</w> 392338
sensi ti 392332
adj acent</w> 392162
no d 391804
cyste ine</w> 391726
on ce</w> 391636
f used</w> 391625
bene fits</w> 391567
pl atin</w> 391527
separ ation</w> 391491
mag nit 391358
p 6</w> 391221
ess els</w> 391089
te tr 390789
tre at</w> 390629
ell ing</w> 390407
micro scope</w> 390345
S V</w> 390316
ten tly</w> 390311
bro ad</w> 390189
meas uring</w> 390080
progen it 390055
secti onal</w> 390040
H O</w> 389971
pul se</w> 389920
so phila</w> 389886
M olecular</w> 389862
un ding</w> 389762
M g 389684
x en 389668
ubiqu itin 389577
for ward</w> 389530
BM I</w> 389487
oph ren 389337
n umerous</w> 389304
N G</w> 389160
w ound</w> 388969
ca using</w> 388964
u tion 388601
od on 388540
aden ocarcin 388318
psych ological</w> 388230
n ull</w> 388098
G I 388062
ac t 387826
tin ib</w> 387699
intraven ous</w> 387575
psy cho 387481
erro r</w> 387368
disco very</w> 387026
ab err 386980
includ es</w> 386967
I GF</w> 386944
Neu ro 386704
cho ice</w> 386596
z one</w> 386555
vari ed</w> 386547
N T</w> 386491
S 4</w> 386451
im mediately</w> 386450
2 a</w> 386419
N 2</w> 386348
port un 385858
ve h 385786
enhanc ement</w> 385619
Dro sophila</w> 385500
k ill 385458
ex cellent</w> 385438
contribu tes</w> 385363
yp e</w> 385266
perox ide</w> 385225
electrophore sis</w> 385053
v essels</w> 384926
ur ys 384528
hybri d</w> 384503
tin gs</w> 384494
F e</w> 384446
f ore 384334
vesi cles</w> 384325
ul um</w> 384319
par ts</w> 384175
discus s</w> 384021
F ac 383978
de oxy 383899
HC C</w> 383884
plas tic</w> 383583
fr ame 383573
sign alling</w> 383564
luc iferase</w> 383034
bloc king</w> 383005
po orly</w> 383003
H ist 382877
w al 382806
acti c</w> 382776
Im port 382546
Meth ods</w> 382342
frac ture</w> 382262
AT Pase</w> 381848
ma x</w> 381845
clear ance</w> 381803
A F</w> 381786
M Y 381708
Con tro 381703
sens ory</w> 381558
m o</w> 381477
te tra 381373
prec ip 381348
accompan ied</w> 381173
yl ase</w> 380868
Tak en</w> 380697
h und 380644
coupl ing</w> 380585
I s</w> 380474
Pre vious</w> 380364
org ans</w> 380256
vol tage</w> 380196
es sion</w> 380130
neg atively</w> 379826
O c 379690
fol l 379687
integr ated</w> 379632
od e</w> 379588
D 3</w> 379415
met a</w> 379410
co ated</w> 379342
inter vals</w> 379316
ver sely</w> 379283
rang ing</w> 379128
adolesc ents</w> 379061
com posed</w> 379049
Fol lowing</w> 379022
initi ally</w> 378935
ach ment</w> 378737
V s</w> 378730
end omet 378710
res us 378021
respon sive</w> 377996
inf ectious</w> 377877
gra ph 377859
biosyn thesis</w> 377734
P a 377710
ti t 377576
trans plant</w> 376950
esophag eal</w> 376830
de si 376684
pol ic 376526
5 B</w> 376251
el u 376219
ve in</w> 375964
path y</w> 375758
reli able</w> 375464
vir ul 375264
vol un 375219
Rec ently</w> 375186
fol ding</w> 375174
app ed</w> 375097
nit ro 375036
reconstruc tion</w> 374907
phen yl</w> 374844
pharmac ological</w> 374842
sc anning</w> 374774
re ached</w> 374764
enco ded</w> 374734
bene ficial</w> 374685
ang io 374387
S el 374113
D H</w> 374109
H M 374084
it ations</w> 374033
G r 374027
substitu tion</w> 373706
l um 373511
b ot 373454
frequ encies</w> 372741
es tions</w> 372575
vel op 372340
mT OR</w> 372251
barri er</w> 372220
pl at 372116
Euro pe 372107
ang u 372067
pres enting</w> 372030
load ed</w> 371979
medic ation</w> 371966
ill us</w> 371824
Simil ar</w> 371689
J an 371587
conc ept</w> 371454
w in 371431
determin ing</w> 371362
re combination</w> 371141
athi one</w> 370979
recomm end 370820
ex ist</w> 370688
abund ance</w> 370677
clu sions</w> 370643
s . 370587
neon atal</w> 370572
partic le</w> 370510
op portun 370493
D el 370307
cor tic 370285
su stained</w> 370282
st rom 370270
alb umin</w> 370260
oglob in</w> 370158
H is</w> 370151
hem orrh 370151
DT A</w> 370092
S r 370068
chym al</w> 369957
oug h</w> 369956
contro lling</w> 369915
the ore 369902
integr ation</w> 369812
be aring</w> 369774
micro M</w> 369564
E T</w> 369499
tu mo 369462
allow ing</w> 369438
lap aro 369414
R S</w> 369335
isol ation</w> 369251
glyc erol</w> 369104
sen sus</w> 369031
be ads</w> 369000
morph ological</w> 368976
hist ological</w> 368890
h ome</w> 368889
transl ational</w> 368817
lin k</w> 368810
A 5</w> 368770
Com pared</w> 368663
main tain</w> 368572
hi p</w> 368537
g ent</w> 368196
precurs or</w> 368040
commun ication</w> 367937
gran ul 367872
c is 367465
g ang 367380
B o 367322
B ac 367055
smo oth</w> 367045
regi onal</w> 366997
ef ly</w> 366925
magnit ude</w> 366910
tr unc 366877
di min 366827
S te 366709
at rial</w> 366649
d ase</w> 366423
Sta tes</w> 366214
is ing</w> 366191
influ enced</w> 366121
memb er</w> 366065
sulf ate</w> 366013
psych iatric</w> 365909
expan sion</w> 365853
loc i</w> 365825
qu estion</w> 365800
al ize</w> 365743
fibri ll 365696
to p</w> 365554
purch ased</w> 365497
ane urys 365424
vi ol 365398
p ic 365192
cl one</w> 364979
om ics</w> 364938
H .</w> 364774
ep is 364675
plasm ids</w> 364431
dop amine</w> 364364
physici ans</w> 364257
cal e</w> 364255
al ready</w> 364187
tu be</w> 364158
attenu ated</w> 363922
si des</w> 363896
rob ust</w> 363893
Ch il 363859
o ids</w> 363834
schiz ophren 363720
com it 363606
ben ign</w> 363511
wor king</w> 363411
olig om 363262
antibio tics</w> 363226
synth ase</w> 363201
sub set</w> 362943
S uch</w> 362926
se min 362828
W il 362650
cytotox icity</w> 362578
p il 362534
N AD 362500
it ude</w> 362372
k 1</w> 362320
flu x</w> 362289
st orage</w> 362127
li es</w> 362106
tel om 362062
a ine</w> 362046
child hood</w> 362020
L if 361962
b s</w> 361732
ne o 361467
carr ying</w> 361457
predomin antly</w> 361395
He La</w> 361175
al i 360819
it ol</w> 360644
im er</w> 360539
peri ods</w> 360429
exten sion</w> 360404
scho ol</w> 360376
in struc 360253
E D</w> 360219
repe at</w> 359948
v ate</w> 359916
intr insic</w> 359726
ha z 359640
1 p</w> 359615
HC l</w> 359390
r in 359359
vec tors</w> 359283
T .</w> 359215
en ia</w> 359209
ad y</w> 359038
j ection</w> 359035
M MP</w> 358836
In c</w> 358826
re activity</w> 358815
E DTA</w> 358810
so ft</w> 358629
k b</w> 358608
S er</w> 358487
be d 358305
residu al</w> 358149
i bility</w> 358088
homolog ous</w> 358045
7 A</w> 357988
adi p 357908
st om 357878
tran s</w> 357801
fung al</w> 357744
Europe an</w> 357632
gra m</w> 357606
mat ter</w> 357251
effici ently</w> 357184
od es</w> 357153
circul ating</w> 357139
ic ated</w> 357116
S oci 356977
E M 356852
rang ed</w> 356804
L T 356753
roph y</w> 356734
su b</w> 356590
gen otypes</w> 356548
biomar kers</w> 356514
ei ved</w> 356481
re tic 356447
tion ed</w> 356418
gastro intestinal</w> 356395
ell ar</w> 356302
in n 356205
for c 356089
sc aff 356008
sim ulations</w> 355972
i ents</w> 355819
f ill 355752
compl ement</w> 355650
docum ented</w> 355631
a ph 355563
recru ited</w> 355355
y r</w> 355194
scre en</w> 355082
ac idi 355007
al anine</w> 354869
b lue</w> 354835
inter acts</w> 354697
n ia</w> 354541
B D 354510
f ing 354498
conclud ed</w> 354421
demon strates</w> 354369
Gi ven</w> 354360
inc id 354306
assign ed</w> 354299
rou tine</w> 354295
CN S</w> 354284
oc ity</w> 354050
adju vant</w> 353879
ap e 353843
bil ateral</w> 353843
re ferred</w> 353819
B lo 353812
RN A 353799
LD L</w> 353431
splic ing</w> 353248
ampl itude</w> 353201
ati tis</w> 352934
mac ro 352927
H F 352840
av y</w> 352825
r a</w> 352704
chol ine</w> 352658
simult aneously</w> 352617
compreh ensive</w> 352549
S c 352470
label ing</w> 352196
refl ect</w> 352126
identi ty</w> 351990
en ic</w> 351884
plan ted</w> 351865
characteri ze</w> 351840
W or 351714
an ese</w> 351663
F I 351640
res er 351614
d yl 351609
effec tor</w> 351606
sur faces</w> 351582
ta u</w> 351333
typ ically</w> 351285
A m 351217
R h 351194
frac tures</w> 351020
it self</w> 350968
Addi tional</w> 350818
heal ing</w> 350803
transcrip t</w> 350736
dep ending</w> 350731
sampl ing</w> 350602
rever sible</w> 350584
G a 350564
v ents</w> 350448
comp ens 350397
de ep</w> 350346
aqu eous</w> 350288
epith elium</w> 350283
O ther</w> 350237
f lo 350183
sup pressor</w> 350092
H L</w> 350053
hypo thesized</w> 349986
e ase</w> 349941
A B</w> 349851
tren d</w> 349735
enro lled</w> 349706
cir cum 349699
hybridi zation</w> 349617
stimul us</w> 349576
it us</w> 349551
G ol 349422
depend s</w> 349337
in du 349308
mus cles</w> 348891
polar ization</w> 348885
os al</w> 348880
we ak</w> 348815
emergen cy</w> 348649
S R</w> 348591
process ed</w> 348475
dec line</w> 348465
exc ess</w> 348275
re tention</w> 348072
3 a</w> 347536
bri um</w> 347515
A F 347478
r ho 347470
M any</w> 347281
consis ting</w> 347022
feed back</w> 346988
flu or 346807
se l</w> 346750
challeng es</w> 346732
tic ity</w> 346705
al is</w> 346702
PE T</w> 346589
ne t</w> 346537
itud inal</w> 346464
cop y</w> 346418
o virus</w> 346317
2 -</w> 346294
in ner</w> 346222
behavi ors</w> 346172
neuro logical</w> 346074
dehydro genase</w> 345906
sp i 345862
emb er</w> 345724
charg ed</w> 345703
ar thro 345569
heterogene ity</w> 345541
manif est 345296
F our</w> 345290
kne e</w> 345188
cell ul 345097
knock out</w> 344687
K D</w> 344664
car bo 344598
I V 344549
a ud 344543
top ic</w> 344441
ex amin 344281
b ing</w> 344256
a ug 344222
G AT 344006
prob ability</w> 343791
continu ed</w> 343769
it ated</w> 343445
preven ted</w> 343327
ne arly</w> 343145
S V 343096
C R</w> 342996
cyto chrome</w> 342938
glyc er 342696
bacteri um</w> 342463
- 3</w> 342336
simil arity</w> 342145
l an 342118
utili zed</w> 342107
per sistent</w> 342031
clos ed</w> 342024
E p 342003
angi ogenesis</w> 341718
vari ance</w> 341673
con sensus</w> 341644
pre operative</w> 341640
paren ts</w> 341636
C u</w> 341621
ir ation</w> 341490
con genital</w> 341453
sp or 341337
Ch ang 341244
fav or 341194
suscepti ble</w> 341124
inter leukin</w> 340986
phosph ati 340960
frame work</w> 340840
si ties</w> 340813
sol ute</w> 340729
vel ocity</w> 340609
establ ish 340574
D M 340556
in ning</w> 340487
ill ness</w> 340461
ol ds</w> 340281
disrup tion</w> 340237
incorpor ation</w> 340178
sol vent</w> 340131
en se</w> 340127
del ay</w> 340004
paren tal</w> 339884
NS CLC</w> 339683
w estern</w> 339488
S H 339470
coun t</w> 339381
d ar 339372
ME M</w> 339347
f re 339333
B cl</w> 339327
resol ved</w> 339298
glut athione</w> 339198
exc re 339056
o id 338885
coll ection</w> 338758
ser a</w> 338662
bur den</w> 338656
qu estions</w> 338632
u red</w> 338451
im plantation</w> 338411
b ran 338343
air way</w> 338177
h am 338133
prob es</w> 337680
ch amb 337624
co efficient</w> 337611
I D 337539
occ up 337426
advant age</w> 337107
CA M</w> 336983
i od 336976
R as</w> 336897
B s</w> 336878
per form</w> 336774
A g</w> 336757
ro se</w> 336697
compl ication</w> 336640
lys ine</w> 336593
cytom etry</w> 336449
lys ates</w> 336394
normal ized</w> 336380
suppor ting</w> 336322
sil encing</w> 336263
follow s</w> 336228
I L 336168
opoi etic</w> 336167
ten ts</w> 336026
TH E</w> 335987
f ig 335747
bl otting</w> 335711
eth yl</w> 335622
r it 335422
electro nic</w> 335406
T otal</w> 335387
ob ese</w> 335356
cardi omy 335335
radi otherapy</w> 335330
t i</w> 335329
el ong 335317
end ocrine</w> 335122
in os 335065
es ter</w> 334959
µ g</w> 334941
IC 5</w> 334765
veh icle</w> 334606
wor kers</w> 334581
gu e</w> 334386
L abor 334301
distribu ted</w> 334297
m os 334268
Fig ures</w> 334026
dep th</w> 333761
dr in 333670
tumo urs</w> 333659
NO S</w> 333652
cy s 333478
C M</w> 333456
sat ur 333436
consis ted</w> 333365
ero bic</w> 333332
pregn ant</w> 333295
U p 333228
view s</w> 333223
e asi 332979
nan o 332758
pro ved</w> 332700
po t 332613
sub types</w> 332236
AC T 332192
pers on 332152
c ulation</w> 332090
F 3</w> 332084
dilu tion</w> 332063
Ger many</w> 332063
d ox 332042
am mon 331828
Cd c 331745
1 D</w> 331730
ad es</w> 331556
ro tic</w> 331449
v ance</w> 331325
p ene 331319
otrop ic</w> 331313
p um 331289
ac e 331084
N R 330990
hippocamp al</w> 330976
cur ves</w> 330971
attribu ted</w> 330945
hospit als</w> 330908
norm ally</w> 330737
ori entation</w> 330727
activ ates</w> 330627
fron tal</w> 330562
exis tence</w> 330542
sc at 330402
cor ne 330356
h ment</w> 330280
htt p</w> 330202
P V 329965
evol ution 329783
inter acting</w> 329576
acchar ide</w> 329466
P har 329461
esti mates</w> 329347
c entr 329077
minim um</w> 328905
tre ating</w> 328767
modul ate</w> 328747
lim b</w> 328746
seg ments</w> 328729
D .</w> 328721
gl omer 328685
def ine</w> 328658
he imer</w> 328459
per sis 328415
arch i 328339
syn erg 328262
Al z 328252
cl asses</w> 328236
i ther</w> 328128
a p</w> 328124
respon si 328077
mo stly</w> 327879
id ation</w> 327848
insig hts</w> 327808
inten sive</w> 327670
as tic</w> 327664
in clusion</w> 327613
Ar ab 327402
man ip 327391
under go</w> 327328
behavi our</w> 327322
pharmac o 327148
mo bility</w> 327147
ex clu 327088
H sp 327075
ca re 327022
bl ast</w> 326803
c oc 326791
is ons</w> 326746
shor ter</w> 326741
reg ard</w> 326671
E GF</w> 326623
P P</w> 326564
in ts</w> 326485
Con sistent</w> 326474
transpor ter</w> 326448
phosph o 326406
dat as 326278
integr in</w> 326123
AK T</w> 326116
upreg ulated</w> 325993
assi s 325804
val ve</w> 325786
pro s 325641
eu kary 325623
var ying</w> 325529
serv ice</w> 325503
al izing</w> 325397
sim ulation</w> 325286
ron ic</w> 325275
dis per 325243
hund red</w> 325173
di ol</w> 325140
identi fying</w> 324877
qual it 324751
R R</w> 324663
G E 324633
s ome 324623
demonstr ating</w> 324413
an ded</w> 324395
MATERI ALS</w> 324341
he avy</w> 324090
ti no 324077
Al so</w> 324066
µ M</w> 324005
dev ices</w> 323972
Import antly</w> 323943
phenomen on</w> 323708
isi tion</w> 323577
hydro lysis</w> 323549
moti fs</w> 323503
harv ested</w> 323382
st o 323300
mam m 323030
path o 322972
go al</w> 322958
out put</w> 322949
A 4</w> 322907
oper atively</w> 322831
A V 322766
ste re 322683
uter ine</w> 322647
In f 322542
differenti ally</w> 322393
ne ur 322320
Alz heimer</w> 322306
trans membrane</w> 322260
in sec 322257
M il 322235
om al 322175
prog ress</w> 322152
investig ations</w> 322085
h is</w> 322007
correc t</w> 321974
dilu ted</w> 321929
assi um</w> 321910
bi as</w> 321875
vi s 321811
op a 321603
p as 321558
ath s</w> 321262
HP V</w> 321214
Ch ar 321209
P e 321168
ant a</w> 321110
acet ylation</w> 321039
tum orig 321034
SN P</w> 321002
Qu anti 320981
Supplem ental</w> 320803
V ari 320550
correl ations</w> 320467
ac in</w> 320400
dis charge</w> 320359
hom ology</w> 320323
bo x</w> 320292
impro ving</w> 320171
th ers</w> 320123
no des</w> 319935
vacc ination</w> 319906
olig onucle 319723
g i</w> 319669
ph ases</w> 319626
li ve</w> 319591
HB V</w> 319552
ove red</w> 319419
Elec tro 319238
poten cy</w> 319177
ra ys</w> 319169
d g 319000
protoc ols</w> 318856
fix ation</w> 318762
ser ious</w> 318627
no ise</w> 318578
mit otic</w> 318459
gi ve</w> 318362
icro bial</w> 318307
Sur g 318297
H ep 318276
au re 318266
h ing</w> 318198
macroph age</w> 318072
am ph 318016
path ogens</w> 317937
argin ine</w> 317888
a wa 317859
immun ore 317700
enti a</w> 317611
at omic</w> 317555
fr acti 317534
cri p 317434
or i</w> 317354
low est</w> 317353
st art</w> 317143
U l 317115
sh ip</w> 317037
dim en 316935
E valu 316636
h abil 316615
J .</w> 316345
Jan uary</w> 316333
t 1</w> 316182
adenocarcin oma</w> 316164
M s</w> 315958
De velop 315934
w er</w> 315851
elec tric</w> 315805
dis sociation</w> 315723
libr ary</w> 315648
adap tive</w> 315638
E E 315636
se as 315611
nur ses</w> 315583
aden osine</w> 315581
in form 315571
v acu 315487
at ly</w> 315487
G s</w> 315477
m apping</w> 315127
rec overed</w> 315102
T A</w> 315097
tem plate</w> 314956
initi ated</w> 314874
worl d</w> 314863
Ch em 314848
pl ying</w> 314714
path ogen</w> 314681
s s 314496
multi variate</w> 314480
interfe ron</w> 314384
CR C</w> 314297
om ycin</w> 314093
el ic 313884
m ented</w> 313758
W nt</w> 313741
ar d 313422
som atic</w> 313391
func tioning</w> 313363
ta in 313237
el ds</w> 313234
sil ic 313107
ste ady</w> 313025
sum mary</w> 313007
ill ance</w> 312861
Immun o 312849
repres ented</w> 312817
gre atly</w> 312725
spe ed</w> 312723
Sign ific 312719
pl ay 312712
par as 312703
A no 312652
m RNAs</w> 312514
de position</w> 312464
ris ks</w> 312358
implem entation</w> 312344
si es</w> 312211
comp ut 312185
recor ds</w> 312126
micro bial</w> 312051
set tings</w> 312007
ver th 311995
evid ent</w> 311842
advant ages</w> 311837
verth eless</w> 311813
con sequence</w> 311778
E 3</w> 311728
P H 311659
pres um 311611
o x</w> 311553
T e 311518
C V 311453
sel ectivity</w> 311445
no t 311374
par asi 311347
classi cal</w> 311238
e de 311227
def ective</w> 311158
am ous</w> 311095
on ate</w> 310955
cere b 310873
n ar 310859
op sis</w> 310801
stand ardi 310710
enti ally</w> 310667
ou ter</w> 310617
rhe um 310582
induc ible</w> 310522
amylo id</w> 310502
eff orts</w> 310452
consider able</w> 310435
m u 310296
ow el</w> 310123
co don</w> 309926
emb ol 309912
me g 309879
T 4</w> 309819
b ular</w> 309667
W e 309650
Lif e</w> 309624
ur ia</w> 309603
o side</w> 309516
i k 309469
immun ob 309385
es sel</w> 309374
U K</w> 309240
con comit 309236
pers ons</w> 309127
secre ted</w> 309045
b yp 308888
ir ing</w> 308864
N C</w> 308834
wor k 308823
T ype</w> 308725
ro t 308567
at um</w> 308477
od ynamic</w> 308425
valid ation</w> 308238
enric hment</w> 308199
lip ids</w> 307918
le p 307909
lim iting</w> 307899
sol ved</w> 307897
expl an 307802
direc tion</w> 307778
P artic 307666
gram s</w> 307650
k ly</w> 307626
l a</w> 307625
predic tors</w> 307578
t ac 307440
u itary</w> 307333
in active</w> 307312
c ut 307280
reg ular</w> 307241
D ep 307063
M K 307057
od er 307051
chrom osomal</w> 307029
ag e 307012
over l 306877
N on 306726
cl ar 306711
pur ification</w> 306624
R adi 306544
A K</w> 306471
dr ich</w> 306342
H PLC</w> 306340
e in</w> 306311
insig ht</w> 306243
ta king</w> 306222
C o</w> 306157
pot assium</w> 305821
mutagen esis</w> 305749
acr yl 305405
ni b</w> 305174
n oc 305155
l in</w> 305084
O 1</w> 305035
lin king</w> 304960
acqu isition</w> 304940
ex ogenous</w> 304939
Di ag 304933
U se</w> 304893
es te 304843
H is 304808
auto immune</w> 304805
X 1</w> 304741
ev oked</w> 304735
im e</w> 304722
ne ither</w> 304627
phen otypic</w> 304464
ha pl 304381
si c 304344
In stitute</w> 304327
lim itations</w> 304200
reproduc tive</w> 304079
b ands</w> 304030
gli al</w> 303972
chec k 303804
D D 303782
ep igen 303759
mo tility</w> 303723
duc t</w> 303718
ch im 303567
T M 303374
S K</w> 303307
res h</w> 303211
de generative</w> 302955
be ta 302891
cytos k 302801
C K</w> 302777
favor able</w> 302715
T F 302665
U D 302518
h is 302482
l ost</w> 302472
ish er</w> 302419
proteas ome</w> 302273
compar ative</w> 302030
aim s</w> 301967
preven ting</w> 301561
schizophren ia</w> 301519
pl ex 301516
polym er</w> 301507
in direct</w> 301360
sper m</w> 301210
Jap an</w> 301149
hyper troph 301077
re modeling</w> 301046
Al drich</w> 301011
rele vance</w> 300988
coun ts</w> 300974
cytos olic</w> 300960
G ene</w> 300943
PK C</w> 300919
exc it 300809
dr y</w> 300773
Me an</w> 300706
dendri tic</w> 300649
elec trical</w> 300608
F unc 300570
b ic 300540
func tion 300524
wh e 300441
clin ic</w> 300383
suppor ts</w> 300356
sp read</w> 300325
in put</w> 300179
pres ents</w> 300126
B L 300042
star ting</w> 299997
v ated</w> 299957
adap tation</w> 299901
HD AC 299837
we ak 299815
mi RNAs</w> 299608
sc an</w> 299418
plas ty</w> 299369
c ut</w> 299256
abs ent</w> 298998
C F</w> 298977
inte resting</w> 298858
pro phyl 298750
fr u 298706
sus pen 298658
arteri es</w> 298606
rec tomy</w> 298498
assis ted</w> 298437
et ric</w> 298423
l is 298384
colon y</w> 298335
conc ep 298250
aure us</w> 298213
regul ators</w> 298198
E L 298093
My c</w> 297941
immunoprecip itation</w> 297904
S Y 297852
p ing</w> 297793
t te</w> 297648
st anding</w> 297615
intr a</w> 297615
R ab 297606
exclud ed</w> 297571
Col l 297525
al ve 297500
habil itation</w> 297338
n ational</w> 297253
ten ing</w> 297232
i onic</w> 297209
m ol 297149
har b 297093
oug ht</w> 297020
S W 296915
I P 296889
health care</w> 296883
combin ations</w> 296705
HI F</w> 296643
loc ations</w> 296623
potenti als</w> 296609
olog ists</w> 296602
stero id</w> 296536
centrifug ation</w> 296365
Sci entific</w> 296177
integr ity</w> 296159
perc eived</w> 295979
prec ise</w> 295886
don ors</w> 295862
practi ces</w> 295846
sub type</w> 295715
s chem 295555
end s</w> 295491
dor sal</w> 295255
quanti fication</w> 295091
C H</w> 295080
log istic</w> 295045
ic k</w> 295003
a er 294821
e IF 294794
cis platin</w> 294792
P ur 294781
traff icking</w> 294772
spl een</w> 294744
mam mary</w> 294552
AD P</w> 294519
N o 294374
recommend ations</w> 294357
en tero 294241
descri bes</w> 294192
bu ff 294186
at ories</w> 294179
ge al</w> 294159
bec ame</w> 294061
. 2</w> 294011
G H</w> 293839
m arg 293799
Pri mary</w> 293651
myel oid</w> 293561
mi RNA</w> 293483
wh om</w> 293420
v essel</w> 293366
pro st 293281
1 β</w> 293257
carri ers</w> 293128
se m 293126
hyperten sive</w> 293090
ca vity</w> 293066
cryst all 292951
por tion</w> 292890
yiel ded</w> 292807
e as 292715
le y</w> 292654
agg ressive</w> 292550
Compar ison</w> 292518
cre ated</w> 292472
su g 292463
upreg ulation</w> 292461
re mark 292377
S anta</w> 292373
be y 292302
Phy si 292270
Afr ican</w> 292220
An im 292205
promo ters</w> 292199
pers onal</w> 292157
dem ographic</w> 292087
spec ial</w> 292085
fi elds</w> 292076
neutr al</w> 291808
intro duction</w> 291698
us ers</w> 291589
m ell 291566
ogra ft</w> 291405
S equ 291383
B ar 291379
n ers</w> 291229
R 3</w> 291180
sel ectively</w> 291091
S cale</w> 290760
stabil ization</w> 290722
ot omy</w> 290682
do x</w> 290672
il ls</w> 290621
al ities</w> 290570
t ance</w> 290517
av oid 290517
le uc 290437
el et 290423
ten sin</w> 290278
iso form</w> 290136
long itudinal</w> 290105
Ser um</w> 290076
ol ed</w> 290019
B A</w> 289982
it ory</w> 289813
bey ond</w> 289595
n one</w> 289555
perme ability</w> 289540
chrom osomes</w> 289475
correl ate</w> 289438
temper atures</w> 289412
her in</w> 289271
S F 289177
he ight</w> 289163
respon d</w> 289092
ten sion</w> 289051
de aths</w> 288864
st ored</w> 288852
nas al</w> 288821
az ol 288794
he aring</w> 288760
theore tical</w> 288752
ede ma</w> 288747
supernat ant</w> 288730
1 c</w> 288720
per itoneal</w> 288638
Au str 288578
g els</w> 288543
pit uitary</w> 288537
re arrang 288460
re pression</w> 288408
z en</w> 288356
instruc tions</w> 288266
SC C</w> 288187
prepar ations</w> 287969
equili brium</w> 287839
fem oral</w> 287781
eti ology</w> 287766
C enter</w> 287694
substanti ally</w> 287621
pro min 287442
ch e 287267
tr ue</w> 287250
al ways</w> 287148
ul c 287105
per tur 286984
nutri tion</w> 286978
S M</w> 286908
ad mission</w> 286720
yn geal</w> 286626
cr y 286564
cop per</w> 286524
traum atic</w> 286497
h er</w> 286491
parame ter</w> 286447
T i 286427
L a 286078
en al</w> 286024
G re 285886
dem entia</w> 285487
l ined</w> 285479
correc tion</w> 285471
m e</w> 285425
b a 285197
carcin omas</w> 285171
consi sts</w> 284895
F isher</w> 284854
utili zation</w> 284747
cl im 284713
hippocamp us</w> 284672
d ates</w> 284624
di alysis</w> 284604
simult aneous</w> 284574
medi al</w> 284449
represent ative</w> 284378
extrem ely</w> 284362
ot or</w> 284340
EC s</w> 284236
AM L</w> 284194
m m 284188
T C</w> 284105
virul ence</w> 283950
gl ass</w> 283603
r hyth 283598
D MS 283538
T B</w> 283535
compu ter</w> 283439
in stead</w> 283340
bon ds</w> 283240
H 4</w> 283163
youn ger</w> 283140
di ly</w> 283109
cy te</w> 283096
cir culation</w> 283087
resour ces</w> 283029
I C</w> 282977
nic o 282816
St atis 282813
r y</w> 282726
ch on 282698
adhe rence</w> 282691
re generation</w> 282610
recei ve</w> 282593
scre ened</w> 282588
rec i 282585
correl ates</w> 282540
Y 1</w> 282366
vi c</w> 282304
lymph ocyte</w> 282232
i res</w> 282226
1 R</w> 282084
rever sed</w> 282072
anes thesia</w> 282019
phosph o</w> 281984
ari ties</w> 281926
reve als</w> 281864
bel ie 281817
i asis</w> 281794
ecti ves</w> 281768
N P 281762
col or</w> 281680
S ampl 281622
T um 281532
amin o 281446
po ol</w> 281300
antim icrobial</w> 281256
influ ences</w> 281189
squ amous</w> 281023
abund ant</w> 280992
C TION</w> 280971
interpre tation</w> 280969
O x 280957
op io 280810
assess ing</w> 280770
C L</w> 280747
RA F</w> 280674
enh ances</w> 280656
pro per</w> 280654
opath ic</w> 280654
er b 280466
ens ure</w> 280273
mesen chymal</w> 280254
line age</w> 280245
a emia</w> 280224
th in</w> 280208
bel ong 280154
fr ame</w> 280140
im mobil 280105
ati nib</w> 280012
expl o 279940
T O 279881
pre lim 279752
s ought</w> 279622
G R 279611
surg e 279611
im plant</w> 279435
car til 279328
f resh</w> 279169
m t 279156
E P 279148
g et 279043
volun te 278972
Z n</w> 278779
le aves</w> 278751
sy st 278708
ap er 278664
agon ists</w> 278622
archi tec 278566
fund am 278544
de part 278505
i or</w> 278455
b owel</w> 278408
Austr al 278372
stimul ate</w> 278370
decre asing</w> 278233
Ac ti 278196
GT P</w> 278132
d ents</w> 278097
N S</w> 278064
fil ms</w> 278003
S truc 277858
pos es</w> 277810
D F 277763
os c 277692
G R</w> 277647
anti viral</w> 277596
B SA</w> 277504
st res 277473
em bed 277454
muc osal</w> 277385
lo g</w> 277242
ren e</w> 277180
5 C</w> 277113
p .</w> 277111
r un 277085
STAT 3</w> 277063
elev ation</w> 277022
satisfac tion</w> 276926
lay ers</w> 276886
im id 276791
easi ly</w> 276750
ici ans</w> 276612
T NF 276541
inn ate</w> 276537
L H</w> 276510
tu ally</w> 276469
an o 276464
op es</w> 276450
ap plic 276431
epigen etic</w> 276375
Fi ve</w> 276333
conf ig 276302
symp tom</w> 276291
l angu 276288
epider mal</w> 276281
compl icated</w> 276244
caro tid</w> 276083
h e</w> 276037
st ment</w> 276011
acc o</w> 276008
HER 2</w> 275785
en able</w> 275757
thorac ic</w> 275756
tra its</w> 275708
c am 275506
homo zygous</w> 275399
is es</w> 275384
leth al</w> 275329
cen tro 275178
fl ic 275163
ec h</w> 275158
pig s</w> 275143
main taining</w> 275136
replac ed</w> 275068
DMS O</w> 275006
defic its</w> 274988
adv ances</w> 274939
F GF 274912
tub ulin</w> 274709
al li 274704
disco vered</w> 274683
H u 274644
P oly 274547
nucle otides</w> 274475
oc clusion</w> 274457
ste nosis</w> 274330
id opsis</w> 274294
ogra m</w> 274270
kin son</w> 274161
nit ric</w> 274131
bloc ks</w> 274083
C ul 274050
reg imen</w> 274045
hist opath 273949
mar k</w> 273921
iz ations</w> 273839
te e</w> 273832
Gol gi</w> 273792
dist urb 273778
N K 273758
su med</w> 273740
V ir 273626
mell itus</w> 273614
m id</w> 273608
men ing 273603
gli a</w> 273597
a id</w> 273580
st ay</w> 273551
symptom atic</w> 273394
an k 273362
b is 273329
B P1</w> 273315
cre atin 273285
Z e 273251
emerg ing</w> 273005
valid ity</w> 272995
ic ans</w> 272839
Arab idopsis</w> 272816
consi der</w> 272769
vi sc 272745
T ogether</w> 272742
fil ter</w> 272673
intro duc 272618
w . 272494
deple ted</w> 272491
cle a 272447
no te</w> 272349
F 4</w> 272343
Evalu ation</w> 272304
Sr c</w> 272284
byp ass</w> 272203
ag ain</w> 272129
K 5</w> 272090
att achment</w> 272090
S ET 272017
d in 272007
ga p</w> 271968
C p 271795
see m</w> 271758
mo un 271602
im mediate</w> 271536
hetero zygous</w> 271447
L V</w> 271441
av oid</w> 271312
epilep sy</w> 271223
hemat opoietic</w> 271119
Sy stem</w> 271094
plat form</w> 271073
neuro n</w> 270979
in stability</w> 270964
muc osa</w> 270858
S 6</w> 270838
T RI 270597
C ru 270566
invol ve</w> 270480
immun oglob 270453
T o 270443
anal ge 270378
cad herin</w> 270366
In v 270265
ma p</w> 270227
susp ected</w> 270208
cere visi 270187
Blo od</w> 270183
re dox</w> 270140
er ical</w> 270045
li pos 269990
AP P</w> 269879
C are</w> 269847
S A 269825
mo thers</w> 269776
sp ind 269710
on as</w> 269691
K ey 269602
abl ation</w> 269600
en abl 269597
dy e</w> 269511
heterogene ous</w> 269506
ul ating</w> 269420
M HC</w> 269384
micro g</w> 269381
Chil d 269380
cerevisi ae</w> 269343
A ut 269340
u tility</w> 269300
prelim inary</w> 269277
achi ev 269225
N Ps</w> 269116
H F</w> 268995
ab solute</w> 268946
ac ter</w> 268923
simil arly</w> 268854
me t</w> 268696
eff lu 268638
ol e 268548
ul monary</w> 268546
hypo thalam 268504
erro rs</w> 268376
inj ections</w> 268348
G ra 268333
Phar mac 268326
immunos up 268163
un able</w> 268101
no unc 268086
TI NG</w> 268057
ant um</w> 268047
reli ability</w> 268011
sol ub 267907
relax ation</w> 267835
sequenc ed</w> 267735
perox idase</w> 267691
ar b 267676
relap se</w> 267665
surro unding</w> 267619
v ic 267618
ww w. 267558
C ardi 267524
Bri efly</w> 267506
categ ories</w> 267465
g ir 267464
ay er</w> 267427
ch ro 267317
M c 267249
curren ts</w> 267227
phyl oc 267149
k ade</w> 267049
enco des</w> 267031
g old</w> 267028
ch est</w> 267026
M C</w> 266917
subst ance</w> 266851
junc tion</w> 266850
chamb er</w> 266830
adsor ption</w> 266829
gener ating</w> 266806
In tern 266658
re tino 266648
ra ised</w> 266574
ne ed 266521
ure a</w> 266486
Ne vertheless</w> 266475
fe wer</w> 266338
orig in 266298
H T 266290
no ver</w> 266249
compar isons</w> 266233
op ic</w> 266216
res ear 266160
sp ine</w> 266103
al in</w> 266090
d yst 266067
S F</w> 266002
ri le</w> 265900
antagon ists</w> 265634
U L 265570
H a 265268
S tre 265223
l ess 265211
re habilitation</w> 265193
S outh</w> 265181
clos ure</w> 265178
l amin 265049
rea dily</w> 264991
As sess 264956
evalu ating</w> 264947
I K 264729
on ical</w> 264248
Y 2</w> 264139
g ated</w> 264111
pl anning</w> 264093
struc tive</w> 264072
stimul ating</w> 264009
require ment</w> 263953
or b 263948
Un der</w> 263864
reas ons</w> 263834
ec al</w> 263770
Ab s</w> 263723
spectr al</w> 263696
μ L</w> 263507
j ust</w> 263503
phil ic</w> 263375
f et 263359
METHO D</w> 263293
struc tured</w> 263283
sens or</w> 263266
s ac 263242
ga ve</w> 263219
f ever</w> 263191
tryp sin</w> 263120
D MEM</w> 263010
trac he 262937
en erg 262916
cys tic</w> 262824
e x</w> 262778
el ici 262756
syst olic</w> 262739
vi able</w> 262611
inf ant</w> 262516
E arly</w> 262458
m enti 262448
an omal 262331
AI DS</w> 262281
G al 262219
oxid ase</w> 262086
K it</w> 262078
epit ope</w> 262046
P PAR 261898
h and 261885
Ano ther</w> 261856
dar k</w> 261823
pl ement</w> 261703
RO DU 261679
Cru z</w> 261645
3 T</w> 261609
cover age</w> 261514
gly col 261498
3 -</w> 261465
t RNA</w> 261409
lim its</w> 261367
hydr ate</w> 261345
pl an</w> 261297
it on</w> 261266
str ati 261241
Key words</w> 261069
physici an</w> 261057
evolution ary</w> 260955
ubiquitin ation</w> 260842
func tionally</w> 260771
f ile</w> 260604
out side</w> 260566
valu able</w> 260560
abol ished</w> 260557
res em 260471
lipo protein</w> 260466
ti co 260460
RNA i</w> 260407
c is</w> 260319
Me as 260173
alve olar</w> 260104
pre treatment</w> 260037
recip ients</w> 260007
T ra 259989
surve illance</w> 259989
C re</w> 259869
As sociation</w> 259862
emo tional</w> 259813
s ent</w> 259688
cont amin 259557
PT EN</w> 259534
osc ill 259465
o ts</w> 259358
elet on</w> 259248
ma kes</w> 259239
o ther 259225
K 4</w> 259205
l ist</w> 259184
F BS</w> 259100
p 4</w> 259031
nounc ed</w> 258980
sp ring</w> 258955
gu t</w> 258751
su ic 258678
c os 258629
N CT 258525
qualit ative</w> 258411
supplem ental</w> 258273
arr hyth 258229
S ing 258224
sh ared</w> 258109
ch os 258088
pla que</w> 258063
ptom atic</w> 258051
cen ters</w> 257949
concomit ant</w> 257930
calcul ations</w> 257927
tur nover</w> 257909
embry o</w> 257894
f 2</w> 257872
Th en</w> 257864
repor ting</w> 257818
micro array</w> 257774
phosphati dyl 257690
inter ference</w> 257685
microtub ule</w> 257651
emph asi 257620
ap ical</w> 257589
me d 257466
ow s</w> 257431
ad renal</w> 257396
ock et</w> 257362
es ter 257328
roug h</w> 257274
RODU CTION</w> 257230
mon ol 257168
stra diol</w> 257077
acidi c</w> 257069
2 H</w> 257035
6 B</w> 256968
gu ide</w> 256939
b at 256890
I denti 256868
ex act</w> 256835
consis tently</w> 256755
concer ning</w> 256734
excre tion</w> 256716
X 2</w> 256687
ex ists</w> 256668
vi ri 256554
s 1</w> 256517
er o</w> 256511
erc ial</w> 256479
g 1</w> 256462
comm ercial</w> 256404
require ments</w> 256311
C as 256290
J NK</w> 256208
blin d</w> 256147
re tained</w> 256138
p yl 256125
ox idi 256125
at tit 256036
os in 255964
re ach</w> 255884
nam ely</w> 255872
M V</w> 255856
ic als</w> 255752
re frac 255690
ol ys 255625
can onical</w> 255334
as ingly</w> 255286
me ta 255231
dig estion</w> 255039
langu age</w> 255001
ex ac 254996
ucle ar</w> 254933
c ess 254882
cor tis 254852
N ext</w> 254725
si zes</w> 254664
INT RODUCTION</w> 254652
a e 254633
ud es</w> 254558
v a</w> 254487
in her 254469
intr am 254447
deli vered</w> 254253
Contro l</w> 254193
analy tical</w> 254066
T ab 253957
ogen icity</w> 253946
hi bits</w> 253901
H2 O2</w> 253864
R R 253820
re tri 253748
un ifor 253724
te st 253705
CM V</w> 253637
H I</w> 253464
I .</w> 253189
r ural</w> 253154
ethyl ene</w> 253132
M it 252993
P B 252975
with draw 252943
perc eption</w> 252901
le g 252865
ver ified</w> 252862
re agent</w> 252854
AM PK</w> 252852
Partic ip 252850
ne igh 252786
der ing</w> 252776
compar tment</w> 252737
crip t</w> 252710
micro grams</w> 252632
qu ad 252473
supplem entation</w> 252337
f 1</w> 252297
ech ocardi 252245
glyco protein</w> 252214
re in 252181
in ter</w> 252073
vi sible</w> 252057
neph ro 251989
auth or</w> 251928
urb an</w> 251908
immuno fluorescence</w> 251866
sal iv 251811
R 4</w> 251778
gen omes</w> 251753
cathe ter</w> 251680
T M</w> 251675
este rone</w> 251628
cartil age</w> 251603
FL AG</w> 251592
com posite</w> 251480
n c 251362
promo ted</w> 251271
gene tically</w> 251196
N s</w> 251151
sp ac 251140
p ure</w> 251130
il ateral</w> 250879
electro de</w> 250808
substitu ted</w> 250796
ta g</w> 250676
Bios ci 250608
smo kers</w> 250601
sh am</w> 250574
d wide</w> 250455
di vision</w> 250356
ig ible</w> 250333
align ment</w> 250316
he ad 250256
cir cu 250235
Thir ty</w> 250066
complem entary</w> 250051
compar t 249920
alph a 249914
lin kage</w> 249774
de m</w> 249745
dimin ished</w> 249737
colon ies</w> 249695
inos itol</w> 249549
D Cs</w> 249521
pro nounced</w> 249496
S w 249452
thromb in</w> 249406
lact ate</w> 249367
om at 249350
complex ity</w> 249336
dis h</w> 249323
satur ated</w> 249121
str anded</w> 249100
Intern ational</w> 249006
dis ability</w> 248991
V I 248965
bloc kade</w> 248961
Ph osph 248892
oper ating</w> 248862
2 b</w> 248829
yp ical</w> 248688
wa vel 248669
practi cal</w> 248428
aggreg ates</w> 248358
T K 248341
e ting</w> 248326
incre asingly</w> 248176
glut amine</w> 248133
d s 247995
speci al 247965
suppres s</w> 247638
AI M</w> 247599
pi g</w> 247514
R B 247499
com pati 247458
P ath 247408
sp in</w> 247391
promin ent</w> 247327
trigg ered</w> 247323
endoscop ic</w> 247322
g ate</w> 247287
umb ar</w> 247220
adi pose</w> 246962
diff use</w> 246891
o ffer</w> 246890
Multi ple</w> 246889
C 4</w> 246787
experi ences</w> 246751
M at 246747
T G 246701
Co A</w> 246595
M et</w> 246511
Techn ologies</w> 246471
R I</w> 246444
ch ape 246431
u n</w> 246423
strom al</w> 246408
p ended</w> 246334
unc er 246313
W ith 246185
menti oned</w> 246181
en coun 246141
un usual</w> 246130
devi ation</w> 246041
b rom 246019
tr ic 245967
neutroph ils</w> 245858
Ac ute</w> 245796
sero ton 245753
termin ation</w> 245746
fundam ental</w> 245726
ad a</w> 245700
protec ted</w> 245700
ag ne 245654
cir rho 245638
acryl amide</w> 245607
H SP 245487
standardi zed</w> 245388
del ta</w> 245378
is ot 245357
nat al</w> 245311
dec i 245153
exc itation</w> 245146
fil tration</w> 245107
an atom 245079
NCT 0</w> 245076
venti lation</w> 245063
atic s</w> 245001
log ic</w> 244993
prop ag 244962
predic tor</w> 244923
E GFP</w> 244910
fro zen</w> 244859
S D 244812
contrac tion</w> 244780
polic y</w> 244759
suc rose</w> 244739
R .</w> 244655
requ iring</w> 244595
poly clonal</w> 244515
The ir</w> 244494
op tic</w> 244465
Dis ease</w> 244455
tob acco</w> 244400
e y</w> 244372
M M</w> 244325
f ur 244232
S ep 244224
fal se</w> 244223
phen ol</w> 244211
angi ography</w> 244132
op tions</w> 244112
ha ir</w> 244015
hepat ocytes</w> 243952
conj unc 243927
R ho 243914
MC F</w> 243479
af f</w> 243437
atom s</w> 243437
hormon es</w> 243331
N r 243325
wom an</w> 243301
resus pended</w> 243232
repres enting</w> 243182
re perfusion</w> 243042
de pri 243039
V al 243016
sh RNA</w> 242962
reduc tase</w> 242907
sing ly</w> 242885
pl er</w> 242838
op posite</w> 242805
cul ti 242789
p ren 242775
ex hibits</w> 242668
thrombo sis</w> 242632
pres sed</w> 242631
c ade</w> 242455
cellul ose</w> 242421
progenit or</w> 242393
es es</w> 242369
or dered</w> 242259
mil lion</w> 242242
high light</w> 242124
ob struction</w> 242094
O ut 241892
worl dwide</w> 241773
br ation</w> 241702
dim ers</w> 241500
volum es</w> 241449
tumorig en 241447
diff ic 241402
mit tee</w> 241373
arti ficial</w> 241371
M g</w> 241267
G ly 241194
pro ton</w> 241188
n al</w> 241110
ad mitted</w> 241080
vacc ines</w> 241075
le af</w> 241043
Bi o</w> 241021
embed ded</w> 241012
Jap anese</w> 240935
sh are</w> 240917
de pressive</w> 240915
techn ical</w> 240909
PC s</w> 240848
on line</w> 240813
0 A</w> 240794
c 1</w> 240747
immunohisto chemistry</w> 240574
e th</w> 240442
plate lets</w> 240397
4 E</w> 240396
vascul ar 240280
gli oma</w> 240147
chang ing</w> 240093
p ocket</w> 240077
method ology</w> 240066
D G</w> 240036
ST UD 239987
re d 239892
princ ip 239857
particip ate</w> 239790
environ ments</w> 239727
STUD Y</w> 239725
plas ticity</w> 239718
umin escence</w> 239701
obser ve</w> 239663
ul t</w> 239485
L D</w> 239416
GAB A</w> 239260
pos sess 239244
ma tely</w> 239239
par a 239229
incorpor ated</w> 239201
deriv ative</w> 239168
ac etic</w> 239155
enhanc ing</w> 239092
sci entific</w> 239088
elucid ate</w> 239031
coag ulation</w> 238842
0 s</w> 238803
refrac tory</w> 238803
resc ue</w> 238769
1 -</w> 238735
fol ded</w> 238654
hemorrh age</w> 238585
dram atically</w> 238579
chon dro 238505
guid ed</w> 238504
exc e 238421
y le</w> 238408
paras ite</w> 238370
rest ored</w> 238308
sk ills</w> 238251
x 1</w> 238249
con focal</w> 238199
predic ting</w> 238058
biop sies</w> 238033
v an 238007
rab bits</w> 237985
ox y</w> 237975
c ation</w> 237951
volunte ers</w> 237873
H em 237832
competi tive</w> 237831
manifest ations</w> 237828
il ed</w> 237796
G M</w> 237784
AP 1</w> 237777
ul ative</w> 237728
r RNA</w> 237726
his ti 237721
cap illary</w> 237702
chol in 237689
overexpres sed</w> 237619
AR T</w> 237537
carri er</w> 237495
oc ellular</w> 237451
t os 237368
c at</w> 237327
P sy 237215
dec om 237187
Tr iton</w> 237181
H ence</w> 236941
y ces</w> 236862
Accor ding</w> 236849
f ab 236842
contro ver 236723
cont acts</w> 236619
esc ent</w> 236563
con stra 236487
D op 236472
perc ep 236472
malign ancies</w> 236355
secre tory</w> 236340
bro ad 236314
hep arin</w> 236311
4 a</w> 236262
compl i 236232
mal aria</w> 236203
id osis</w> 236134
str ation</w> 236050
bra fish</w> 236042
per spective</w> 236034
seiz ures</w> 235982
ECTI ON</w> 235980
mo vements</w> 235868
HE K2</w> 235864
infil tration</w> 235858
cal i 235818
ir radi 235809
professi onal</w> 235744
z er</w> 235663
st aff</w> 235653
F ox 235646
de mic</w> 235487
B I 235485
di ast 235455
ell ed</w> 235445
e stradiol</w> 235393
B R</w> 235371
la p</w> 235352
test osterone</w> 235329
visu alized</w> 235269
d ingly</w> 235202
nov o</w> 235183
ch ers</w> 235032
drin king</w> 235003
isol ate</w> 234856
metabol ite</w> 234771
Ther mo</w> 234519
com or 234350
pea ks</w> 234348
op s</w> 234228
me ter</w> 234112
sc ales</w> 234070
E 2 234057
G 4</w> 234027
prog esterone</w> 234011
monit or</w> 233942
d less</w> 233929
ve get 233855
P seud 233816
th io 233679
inser ted</w> 233675
chem ically</w> 233573
pro ven</w> 233502
determin ants</w> 233499
astro cytes</w> 233453
as h 233429
glyc ine</w> 233408
ti le</w> 233351
S 5</w> 233330
s n 233306
Heal th 233290
bit al</w> 233289
impro vements</w> 233195
M al 233186
laparo scopic</w> 233135
ine a</w> 233038
o ocytes</w> 232973
fas ter</w> 232918
ud g 232830
N M</w> 232825
- 4</w> 232797
Dec ember</w> 232774
Ar g</w> 232677
ati gue</w> 232562
onc ogen 232504
Not ably</w> 232401
FO X 232340
elim ination</w> 232280
wh y</w> 232267
ass ayed</w> 232233
over come</w> 232177
F l 232166
datab ases</w> 232155
un changed</w> 232136
regar dless</w> 232135
Tab le 232124
con flic 232029
tren ds</w> 231996
ab use</w> 231973
D 5</w> 231967
optim ized</w> 231877
asi bility</w> 231857
fo ur 231738
arom atic</w> 231716
r p 231641
sequ ential</w> 231596
con tents</w> 231555
dele tions</w> 231548
L ong</w> 231526
Ch IP</w> 231525
con sum 231481
AP C</w> 231433
mon ocytes</w> 231357
detec ting</w> 231302
8 A</w> 231241
l ane</w> 231210
bri ef</w> 231204
alter ation</w> 231136
F E 231003
syn chron 230998
5 a</w> 230969
an ch 230938
av ing</w> 230905
AC S</w> 230846
p ent 230832
co he 230786
ru n</w> 230775
malign ancy</w> 230720
cas cade</w> 230692
f ine</w> 230615
estim ation</w> 230573
v ary</w> 230559
en sis</w> 230551
F if 230495
E MT</w> 230486
V I</w> 230483
S ev 230386
responsi veness</w> 230272
HS V</w> 230257
in side</w> 230149
l ens</w> 230126
G O</w> 230062
substitu tions</w> 230047
P M</w> 229949
n ose</w> 229896
correc ted</w> 229805
G y</w> 229799
K a 229750
lun gs</w> 229690
v oc 229680
de tail</w> 229669
intes tine</w> 229661
ocor tico 229504
brea k 229487
equ ip 229464
A NO 229459
eli hood</w> 229320
diff ered</w> 229304
R och 229299
ER K1</w> 229142
retro spectively</w> 229122
PK A</w> 229105
tas ks</w> 229101
un affected</w> 229071
disc ipl 228864
swit ch</w> 228705
all ergic</w> 228686
syn the 228675
infil tr 228660
chos en</w> 228615
disc re 228606
Chang es</w> 228578
fibro blast</w> 228574
R i 228549
O A</w> 228525
E u 228444
I CA 228347
T U 228341
tur ally</w> 228330
hem oglobin</w> 228309
candi dates</w> 228274
rheum at 228240
pos s 228207
check point</w> 228173
pre d 228104
onucle ar</w> 228069
elici ted</w> 228004
other wise</w> 227985
i er</w> 227953
m ess 227927
protec t</w> 227919
zym e</w> 227894
cre ate</w> 227882
stron ger</w> 227855
e res</w> 227792
trans mit 227766
foc i</w> 227645
m ent 227616
beg inning</w> 227601
qu antum</w> 227579
asym ptomatic</w> 227424
p unc 227413
dep end</w> 227388
P G</w> 227384
D I</w> 227320
P ost 227211
tox ic 227162
lo x 227158
nutri ent</w> 227148
biomar ker</w> 227140
epis odes</w> 227107
go at</w> 227101
re mission</w> 227078
F o 227040
ar rays</w> 227000
ion ine</w> 226987
Pati ent</w> 226972
RE S</w> 226928
la g</w> 226879
hab it 226867
v ae</w> 226856
challeng ing</w> 226738
sin us</w> 226709
ly sed</w> 226523
co vered</w> 226510
preval ent</w> 226476
sch ed 226429
CR P</w> 226307
n um 226306
quanti fy</w> 226301
tur ned</w> 226255
mac hin 226128
ev ent 226064
G o 225993
HD L</w> 225910
Ther ap 225786
on ally</w> 225708
c e 225671
angio tensin</w> 225636
trigg er</w> 225568
reas on</w> 225528
Or g 225488
equ ation</w> 225341
cap ture</w> 225333
W a 225269
yiel ds</w> 225242
techn ologies</w> 225191
exten sively</w> 225138
B RAF</w> 225135
spind le</w> 225134
andro gen</w> 225065
P res 225015
exclu sively</w> 224998
fo ot</w> 224844
Particip ants</w> 224823
wavel eng 224785
Par kinson</w> 224781
dis ulf 224773
M or 224729
pl ated</w> 224708
I s 224701
p ine</w> 224660
ax ial</w> 224651
oper ated</w> 224643
contribu ting</w> 224635
R ap 224621
e ded</w> 224534
tri glycer 224378
u ed</w> 224358
ou thern</w> 224311
N E</w> 224237
A v 224224
pre mature</w> 224171
E vid 224125
produc es</w> 224105
pre ad</w> 224085
ol in</w> 223932
emerg ed</w> 223915
micro scopic</w> 223906
otyp ing</w> 223870
M i 223838
J o 223775
on going</w> 223774
Child ren</w> 223768
PA TI 223746
vi r</w> 223742
proj ect</w> 223717
lab el</w> 223651
pow er 223573
G A 223457
com promis 223457
M ac 223407
am s</w> 223389
s ati 223382
sc en 223279
e ds</w> 223200
fo und 223198
indic es</w> 223086
Re gi 223018
experim entally</w> 222867
opa usal</w> 222808
lik elihood</w> 222590
pneumon ia</w> 222473
PA R</w> 222428
opio id</w> 222374
v in 222360
particip ation</w> 222314
down regulation</w> 222303
V 2</w> 222283
sen sing</w> 222276
as h</w> 222269
be am</w> 222174
tan dem</w> 222163
larg est</w> 222086
tri ple</w> 222014
I ts</w> 221979
Gen etic</w> 221957
N ot</w> 221934
medi ating</w> 221912
pyl ori</w> 221859
pre dominant</w> 221786
immunoglob ulin</w> 221722
T RP 221647
elong ation</w> 221635
conn ected</w> 221600
dis section</w> 221551
Char acteri 221480
Develop ment</w> 221429
adju stment</w> 221402
- 5</w> 221324
le x</w> 221308
dos age</w> 221299
ten d 221257
den at 221232
exci sion</w> 221175
R ad 221131
fracti on 221101
c ann 221078
acet yl</w> 221066
ph rine</w> 221000
detail s</w> 220905
ten ded</w> 220890
E s</w> 220803
bri dge</w> 220785
trunc ated</w> 220771
tim ing</w> 220747
on yl</w> 220737
bl ack</w> 220693
brea ks</w> 220626
v .</w> 220586
om onas</w> 220563
ad ding</w> 220559
pen icillin</w> 220530
form aldehyde</w> 220474
pol l 220473
blas toma</w> 220453
ro tation</w> 220442
di arr 220425
remo ve</w> 220380
R E</w> 220341
aberr ant</w> 220318
comput ational</w> 220099
CO X</w> 220066
pre vents</w> 220036
impro ves</w> 220027
ub icin</w> 219988
es pread</w> 219920
cap sul 219915
mod ulated</w> 219897
add ressed</w> 219886
organis m</w> 219874
nutri tional</w> 219847
repe ats</w> 219720
bo und 219676
c ally</w> 219660
bl ing</w> 219603
s a</w> 219522
seg reg 219371
s es 219332
eas y</w> 219310
reg imens</w> 219249
contribu ted</w> 219243
diast olic</w> 219204
f f</w> 219201
overexpres sing</w> 219143
D 4</w> 219108
ubiqu it 219090
olog ous</w> 219059
ar t 219036
se ed</w> 219026
PATI EN 218972
brea k</w> 218942
part ners</w> 218909
pati onal</w> 218887
onc ogenic</w> 218725
ram s</w> 218719
op tion</w> 218660
T G</w> 218607
c ephal 218587
haz ard</w> 218576
me an 218569
review s</w> 218538
is s</w> 218536
lu tin 218462
fl uc 218385
subst ances</w> 218345
paren tly</w> 218338
p in</w> 218303
alk aline</w> 218215
man di 218184
sep sis</w> 218128
c ine</w> 218114
du od 218103
g el 218012
Com bin 217967
ze brafish</w> 217920
clea ved</w> 217878
infer ior</w> 217873
R H</w> 217773
implem ented</w> 217723
in osa</w> 217631
Incre ased</w> 217603
antic ancer</w> 217369
commun ities</w> 217311
poss ess</w> 217280
p es 217277
m V</w> 217240
R a 217238
O L</w> 217080
In hibi 217080
aud itory</w> 217077
indic ator</w> 217015
att ached</w> 217012
fe a 217010
corne al</w> 216993
P 5</w> 216943
TC R</w> 216942
Statis tical</w> 216867
A E</w> 216806
pre ference</w> 216749
sur vi 216637
ag arose</w> 216617
I M 216563
mamm als</w> 216540
col le 216510
tr a</w> 216494
L ys 216477
y stems</w> 216471
cataly zed</w> 216457
ran k</w> 216449
adi g 216407
ul atory</w> 216338
7 BL</w> 216310
amin es</w> 216285
In stitu 216252
transpor ters</w> 216128
C ase</w> 216083
mat ch</w> 216080
L ow</w> 215976
c d 215934
A I</w> 215855
di c</w> 215853
ann ed</w> 215804
situ ation</w> 215657
architec ture</w> 215650
weigh ted</w> 215646
t ative</w> 215617
SE M</w> 215607
Evid ence</w> 215600
an emia</w> 215484
need le</w> 215445
S ix</w> 215314
h aps</w> 215301
distribu tions</w> 215230
sim ulated</w> 215154
over lap</w> 215153
lo be</w> 215109
s low 215090
scri bed</w> 215062
ide a</w> 215056
hydrox y</w> 214912
mo ther</w> 214900
for ces</w> 214859
cat al 214817
pum p</w> 214565
N ov 214529
anti tumor</w> 214475
inf ra 214466
el eg 214457
see ded</w> 214259
in st 214242
R is 214235
B B</w> 214228
vi de 214204
ro ute</w> 214191
famil ial</w> 214191
dig ital</w> 214178
3 b</w> 214116
G SH</w> 214098
ther mo 214040
m Ab</w> 213845
barri ers</w> 213842
Cur rent</w> 213838
us cular</w> 213798
engine ering</w> 213745
otox in</w> 213690
mul tic 213668
p 7</w> 213653
hem e</w> 213619
lar vae</w> 213594
os ity</w> 213551
vag inal</w> 213545
N on</w> 213529
ron s</w> 213494
tre e</w> 213462
men opausal</w> 213418
C ys</w> 213380
on in</w> 213275
Experim ental</w> 213267
descri p 213250
S ol 213227
J un 213200
te eth</w> 213148
cl oning</w> 213148
dec ades</w> 213103
meth anol</w> 213088
K s</w> 213062
indic ations</w> 212934
fe asibility</w> 212931
U S 212860
meth ylated</w> 212853
P i 212836
4 D</w> 212818
profil ing</w> 212816
retro viral</w> 212799
r ice</w> 212766
w ing</w> 212649
oc cal</w> 212561
ta kes</w> 212559
neoplas tic</w> 212547
Sampl es</w> 212527
I A</w> 212478
M ice</w> 212448
off ers</w> 212409
to ph 212401
resid ents</w> 212312
Assess ment</w> 212280
Hy per 212215
ic les</w> 212212
D 6</w> 212187
machin ery</w> 212120
wid espread</w> 212063
ol ab 211998
B ra 211850
q PCR</w> 211836
im plants</w> 211826
tec tion</w> 211798
trac tion</w> 211742
sper mat 211712
l umbar</w> 211535
fig ure</w> 211517
Ch ronic</w> 211456
constitu tive</w> 211344
perform ing</w> 211250
bel i 211240
mic ro</w> 211223
at om</w> 211218
wid th</w> 211077
medic ations</w> 211044
SET TING</w> 211025
fluc tu 210983
B raz 210939
f atigue</w> 210918
as ked</w> 210839
ren ess</w> 210827
pri singly</w> 210826
ap o 210780
athero sclerosis</w> 210758
C G</w> 210750
retin a</w> 210750
pa thetic</w> 210748
ag ar</w> 210723
su peroxide</w> 210588
dis m</w> 210538
f ar 210459
toler ated</w> 210450
cere bro 210428
lan es</w> 210327
L i</w> 210300
as tom 210288
par adig 210268
explan ation</w> 210211
ex in</w> 210119
pancre as</w> 210108
BR CA1</w> 210072
ana es 210071
i ae</w> 209999
aer ug 209963
pel vic</w> 209900
coord ination</w> 209889
K 3</w> 209812
gang li 209764
occ u 209751
F c</w> 209721
ne ver</w> 209592
G G</w> 209556
indic ators</w> 209546
Sur ve 209462
categ or 209459
N TS</w> 209417
ul l 209331
suspen sion</w> 209315
Spec ific 209304
In formation</w> 209293
as ter</w> 209279
stud ying</w> 209130
post natal</w> 209096
ti zed</w> 209036
G P 209021
In iti 208933
ser ved</w> 208905
sub group</w> 208878
P ES</w> 208820
ol og</w> 208782
mo des</w> 208780
ti ary</w> 208778
eukary otic</w> 208758
am p</w> 208730
bi a</w> 208665
contr acti 208618
aerug inosa</w> 208618
fit ness</w> 208534
fi st 208505
ur y</w> 208413
D ue</w> 208372
P 2 208292
tumorigen esis</w> 208256
read s</w> 208235
ran e</w> 208227
ot a</w> 208167
ap e</w> 208158
AC h 208145
Sec ond</w> 208000
Roch e</w> 207959
P RO 207918
lin ker</w> 207900
ester ase</w> 207843
neutroph il</w> 207719
met allo 207661
ANO VA</w> 207568
sub cellular</w> 207494
CX CR 207370
gen ce</w> 207234
E F</w> 207194
PE G</w> 207071
anatom ical</w> 207065
agg lutin 207008
E le 206987
bec omes</w> 206818
Z n 206802
under taken</w> 206734
ell es</w> 206727
adren ergic</w> 206664
hel ical</w> 206640
cryst als</w> 206610
EE G</w> 206606
po x 206564
H P</w> 206555
K n 206511
to o</w> 206461
ful ness</w> 206453
T GF 206433
C u 206414
aneurys m</w> 206390
I GF 206374
se ve 206371
po oled</w> 206323
scen ari 206281
centrifug ed</w> 206254
l otting</w> 206207
expan ded</w> 206143
fl an 205929
compri sed</w> 205833
L in 205820
vas t 205804
os tero 205782
pl ane</w> 205680
scat tering</w> 205612
ag land 205571
I tal 205486
ap ol 205398
az ine</w> 205344
U TR</w> 205314
sub cutaneous</w> 205262
Plas ma</w> 205218
irradi ated</w> 205174
O P</w> 205154
epti des</w> 205145
at rophy</w> 205100
Flu o 205085
gu an 204935
adap ted</w> 204928
6 C</w> 204890
L y 204841
phyl ogenetic</w> 204811
tec tomy</w> 204758
dis solved</w> 204741
Sci ence</w> 204646
ipl es</w> 204619
ma x 204566
she ep</w> 204534
effici ents</w> 204520
low ering</w> 204498
retic ulum</w> 204446
b al</w> 204436
ob vious</w> 204397
m olar</w> 204309
dig ested</w> 204208
fea sible</w> 204130
T F</w> 204088
rib osomal</w> 204086
roug h 204080
polym erization</w> 204032
te le 204021
immuno deficiency</w> 204002
fibr in 203989
instrum ent</w> 203841
g ri 203799
differenti ate</w> 203776
Sign aling</w> 203662
shap ed</w> 203608
stand ards</w> 203586
clus tering</w> 203580
sti s</w> 203501
mon ella</w> 203453
compli ance</w> 203448
sup ply</w> 203436
st ret 203364
through put</w> 203347
neuro degenerative</w> 203343
star ted</w> 203316
yl ic</w> 203292
R o 203278
concer ns</w> 203243
vul ner 203234
B ur 203199
lig ase</w> 203198
C N</w> 203090
if t</w> 203088
oblas ts</w> 203062
consider ing</w> 203025
seve rely</w> 202898
B 3</w> 202861
precurs ors</w> 202807
fing er</w> 202736
peri odon 202684
inde ed</w> 202618
v entral</w> 202597
venti ve</w> 202595
C 6</w> 202548
th eses</w> 202489
def ense</w> 202398
CL 1</w> 202378
micro environment</w> 202374
Al ex 202368
os es</w> 202303
agne tic</w> 202303
sci ence</w> 202232
conver ted</w> 202206
concer n</w> 202141
constitu tively</w> 202096
at ypical</w> 202003
squ are</w> 201987
oscop y</w> 201925
in suff 201889
My co 201888
fl ap</w> 201815
m osph 201716
examin ations</w> 201651
l ands</w> 201563
e osin 201459
T yr</w> 201425
beli eved</w> 201380
vi sed</w> 201257
lys osomal</w> 201234
dimen sions</w> 201229
ug ht</w> 201190
M od 201181
Dr ug</w> 201164
resear chers</w> 201162
gen esis</w> 201135
S ac 201124
distingu ish</w> 201054
un related</w> 201043
my osin</w> 201015
gen us</w> 201009
overl apping</w> 200985
ap parently</w> 200940
s tent</w> 200776
hi on</w> 200749
inter sti 200715
Signific ant</w> 200660
cont amination</w> 200629
N i</w> 200525
gon ad 200516
ulti es</w> 200468
co efficients</w> 200459
R G 200453
xim ab</w> 200447
duc ts</w> 200444
hypertroph y</w> 200402
professi on 200399
ra rely</w> 200342
fas ting</w> 200333
h n</w> 200316
c DN 200295
assemb led</w> 200258
descri ption</w> 200171
engine ered</w> 200111
M B 199986
conser vation</w> 199960
Inhibi tion</w> 199869
disulf ide</w> 199865
chem icals</w> 199647
L ys</w> 199643
flu ence</w> 199598
ammon ium</w> 199589
p g</w> 199585
N V</w> 199550
t uring</w> 199529
depart ment</w> 199508
sc ans</w> 199448
immunohisto chemical</w> 199442
e j 199399
sug ar</w> 199372
concentr ated</w> 199369
exampl es</w> 199281
inoc ulated</w> 199210
M ech 199204
ite ms</w> 199034
Soci ety</w> 199021
s light</w> 198991
ab ine</w> 198984
rap amycin</w> 198961
pre ferred</w> 198930
preferen tially</w> 198919
hepat ocellular</w> 198887
Mg Cl2</w> 198887
doc king</w> 198861
li th 198816
B u 198737
rs 1</w> 198726
An ti</w> 198705
th ing</w> 198691
immun ization</w> 198672
di l 198600
mT OR 198565
autom ated</w> 198487
attemp t</w> 198478
sen escence</w> 198421
as one</w> 198419
K Cl</w> 198236
form ations</w> 198197
plic ate</w> 198173
acc es 198078
M U 197956
mix tures</w> 197915
gest ation</w> 197908
efflu x</w> 197905
behavi o 197899
C CR 197872
modul ating</w> 197849
gu inea</w> 197836
I S 197770
per for 197746
cy an 197700
ger m</w> 197678
lep tin</w> 197623
princip al</w> 197610
For ty</w> 197594
intr aper 197591
T E</w> 197565
Sal monella</w> 197534
se d 197522
ex ons</w> 197495
on om 197424
roph ic</w> 197414
pat ch</w> 197342
mm Hg</w> 197323
accor dance</w> 197286
accur ately</w> 197283
RN ase</w> 197232
gl ands</w> 197210
prog res 197189
su res</w> 197179
ac tual</w> 197169
com es</w> 197156
P S 197111
Al tern 197095
vel ope</w> 197055
is ch 196985
O ver</w> 196944
N AD</w> 196885
vi ously</w> 196810
fill ed</w> 196743
v ac 196725
tic ular</w> 196712
exac erb 196682
res in</w> 196627
U . 196566
dri ve</w> 196546
AI MS</w> 196511
col oc 196424
term ed</w> 196422
m is</w> 196374
dist ress</w> 196295
. 3</w> 196268
rheumat oid</w> 196260
polyp eptide</w> 196077
ab in 196062
power ful</w> 196026
flex ible</w> 195810
distingu ish 195746
PATIEN TS</w> 195733
K ore 195678
tra ined</w> 195675
part ner</w> 195671
accum ulated</w> 195651
con sul 195589
qu i 195538
grea test</w> 195535
C RE 195483
f all</w> 195483
Bio technology</w> 195409
re fer 195361
el ing</w> 195349
carbo hydrate</w> 195339
coag ul 195329
nat ur 195265
recogn ize</w> 195197
F S</w> 195192
ra dic 195131
Su per 195107
educ ational</w> 194969
tran scribed</w> 194952
K .</w> 194933
pil ot</w> 194925
man us 194922
ph age</w> 194844
dri ving</w> 194786
p ip 194722
Sta phyloc 194696
phen e</w> 194692
R ac 194642
H igh 194614
S tr 194592
consider ably</w> 194587
w an 194536
Fig s</w> 194465
per son</w> 194440
Con versely</w> 194431
pro mp 194391
ber g</w> 194382
ri um</w> 194381
ME A 194361
consider ation</w> 194320
or ption</w> 194232
N MDA</w> 194164
down regulated</w> 194163
reduc tions</w> 194142
creatin ine</w> 194077
partic i 194003
as al</w> 193981
op ening</w> 193961
C V</w> 193928
en velope</w> 193920
endomet rial</w> 193891
i at 193882
ox if 193872
exp on 193862
glycos ylation</w> 193805
ker atin 193790
st ac 193673
eg g</w> 193626
abol ic</w> 193625
troph ic</w> 193470
epidemi ological</w> 193458
lig ation</w> 193412
filam ents</w> 193368
val ence</w> 193297
A X</w> 193295
tetr am 193232
combin ing</w> 193179
prec ision</w> 193116
col labor 193114
ru vate</w> 193103
t ab 193086
Func tional</w> 193052
per man 193029
pre clinical</w> 193027
lo t</w> 193023
ax ons</w> 193015
resour ce</w> 193012
qu ite</w> 192946
cortis ol</w> 192913
stabil ized</w> 192886
ag o</w> 192844
meth ionine</w> 192831
withdraw al</w> 192755
eff ort</w> 192719
os por 192655
RP 1</w> 192640
or ial</w> 192639
dim erization</w> 192613
ogen e 192611
en o 192592
my co 192586
discrimin ation</w> 192557
IT C</w> 192473
eleg ans</w> 192456
M SCs</w> 192412
F T</w> 192336
un t</w> 192325
Si x 192309
practi tion 192276
ex clusion</w> 192263
gra fts</w> 192260
F GF</w> 192239
P V</w> 192164
or ubicin</w> 192148
R am 192128
ca dian</w> 192087
Ig M</w> 191975
to ok</w> 191875
MEA SU 191831
h old</w> 191766
l d</w> 191689
glycol y 191657
s p</w> 191654
Th 1</w> 191654
ne gl 191653
particip ated</w> 191587
M AP</w> 191580
vit al</w> 191488
cirrho sis</w> 191469
P t 191467
competi tion</w> 191446
par am 191387
Sing le</w> 191354
inter views</w> 191311
cytos ol</w> 191302
mo iety</w> 191249
lu te 191222
asp ir 191206
mo bile</w> 191111
intern ational</w> 191063
si al</w> 190998
medi ators</w> 190985
mechanis tic</w> 190959
dis semin 190947
meg a</w> 190822
accep table</w> 190761
AC E</w> 190750
su m</w> 190746
P L</w> 190686
Dop pler</w> 190666
U N 190653
CO PD</w> 190502
un g</w> 190499
b und 190490
H ow</w> 190487
ann ual</w> 190451
ter tiary</w> 190413
An aly 190386
at mosph 190351
const ants</w> 189991
om a 189883
ulti mately</w> 189859
j udg 189838
ho use 189797
α 1</w> 189788
gest ational</w> 189715
a uc 189677
in come</w> 189667
clin icians</w> 189661
ocy an 189655
Ris k</w> 189654
ab ro 189643
seroton in</w> 189557
cop ies</w> 189504
BD NF</w> 189474
princ iples</w> 189392
dec ay</w> 189335
- 6</w> 189323
compart ments</w> 189299
E M</w> 189237
id in</w> 189196
Di rec 189188
recor ding</w> 189171
design ated</w> 189167
bil i 189141
condi tioned</w> 189104
h ence</w> 189095
z umab</w> 189034
G AP 189027
per ic 188960
Tum or</w> 188950
ig are 188906
s b 188878
presum ably</w> 188831
discus sion</w> 188817
elu ted</w> 188796
loc al 188769
E P</w> 188747
morph ine</w> 188723
min ute</w> 188702
G e 188666
IC U</w> 188659
com pression</w> 188625
new born</w> 188578
Nor th</w> 188555
illu str 188503
Not ch</w> 188495
st atin</w> 188470
el ective</w> 188440
ca us 188365
ol ym 188347
Cy cl 188321
AL L</w> 188305
gluc ocortico 188294
exc essive</w> 188285
Ig E</w> 188285
ero us</w> 188279
g em 188191
ob acteri 188186
b ud 188184
CYP 2 188184
an ion</w> 187984
Th r</w> 187969
ti p</w> 187939
epit opes</w> 187848
i ve</w> 187823
Ph ot 187690
man n</w> 187678
con den 187650
en ables</w> 187640
P ro</w> 187600
G n 187586
pr in 187544
acceler ated</w> 187529
gra f 187396
deci sions</w> 187394
repe ti 187355
expres sions</w> 187324
ec topic</w> 187308
N an 187230
min eral</w> 187185
scaff old</w> 187174
micro bi 187145
la tency</w> 187110
bio tic</w> 187043
ess entially</w> 186994
H e</w> 186971
Medic ine</w> 186966
n em 186929
L 3</w> 186798
Re si 186779
oste oc 186777
re constitu 186727
F our 186718
R D</w> 186716
chic ken</w> 186716
Afr ica</w> 186633
shif ts</w> 186598
A x 186539
re jection</w> 186533
fre e 186510
Biosci ences</w> 186507
bul k</w> 186496
confir ming</w> 186491
Z h 186457
on ine</w> 186423
syndrom es</w> 186379
buff ered</w> 186334
poly acrylamide</w> 186213
B re 186203
1 Δ</w> 186200
s ar 186173
sp .</w> 186147
profession als</w> 186144
ul y</w> 186141
ur a</w> 186059
synerg istic</w> 186056
K RAS</w> 186055
tom ycin</w> 186011
ob structive</w> 185929
contribu tions</w> 185928
condi tioning</w> 185901
G BM</w> 185859
i dism</w> 185789
port al</w> 185776
L oc 185650
emp ir 185633
se q</w> 185576
V er 185496
soci o 185454
ne a</w> 185364
F c 185297
F L</w> 185295
k 2</w> 185199
ogly c 185175
Res pon 185152
bot tom</w> 185129
t s 185065
V 3</w> 185050
fas hion</w> 185050
5 D</w> 185008
Quanti tative</w> 185006
l enti 184964
S an</w> 184961
pro line</w> 184941
s arcoma</w> 184911
6 S</w> 184861
uni ver 184855
ate ll 184852
infra red</w> 184773
manus cript</w> 184749
Surg ical</w> 184728
With in</w> 184721
perc utaneous</w> 184617
S o 184615
diffic ulties</w> 184607
con stric 184515
AI N</w> 184514
tis m</w> 184473
V 6</w> 184465
micro glia</w> 184420
PA RP</w> 184404
forc ed</w> 184399
m apped</w> 184360
attit udes</w> 184292
en ough</w> 184284
fibrill ation</w> 184253
o es</w> 184213
prost agland 184091
ar ach 184078
amin ergic</w> 184070
dram atic</w> 184049
eu tical</w> 183952
Al a</w> 183938
intersti tial</w> 183883
form er</w> 183832
G T</w> 183760
n mol</w> 183756
adolesc ent</w> 183742
cytosk eleton</w> 183732
C AT 183718
end ocytosis</w> 183710
equ ally</w> 183684
ca regi 183652
K L 183592
ur ity</w> 183538
E S 183521
O s 183518
di methyl 183439
Dep ar 183414
stimul ates</w> 183365
col itis</w> 183360
eng er</w> 183298
M G</w> 183296
pro pi 183269
ER T</w> 183260
awa reness</w> 183253
cr yp 183252
cum ulative</w> 183188
SP R</w> 183187
Specific ally</w> 183186
path ologic</w> 183175
Staphyloc occus</w> 183153
S ECTION</w> 183109
A ff 183080
oph thal 183037
ep tive</w> 183032
x yl 183031
CA R</w> 182957
in formed</w> 182935
trans fusion</w> 182927
O C</w> 182916
P ol</w> 182915
i e</w> 182884
4 -</w> 182841
eth asone</w> 182805
hospit alization</w> 182786
provid ers</w> 182771
F C</w> 182721
prophyl axis</w> 182690
exc eption</w> 182667
spe ech</w> 182594
oplas mic</w> 182583
ha ir 182556
mit osis</w> 182551
proper ty</w> 182512
refl ected</w> 182510
ol es</w> 182502
coh orts</w> 182455
ensi ti 182422
un likely</w> 182362
TI ONS</w> 182317
el low</w> 182308
si um</w> 182304
occu pational</w> 182222
ynam ics</w> 182195
po f 182152
st ably</w> 182124
intrac ranial</w> 182122
my o 182113
propor tional</w> 182105
bra ins</w> 182099
Q 1</w> 181992
T s</w> 181976
cri tically</w> 181932
u ous</w> 181871
dri ed</w> 181846
un ilateral</w> 181800
compri sing</w> 181769
ser ial</w> 181759
y ment</w> 181708
P BM 181684
a way</w> 181646
wor se</w> 181646
enh ancer</w> 181643
separ ately</w> 181616
lab elled</w> 181609
r ule</w> 181570
surviv ors</w> 181553
ath yro 181529
an astom 181514
st op</w> 181419
optim ization</w> 181384
sign ature</w> 181361
re agents</w> 181318
ol ine</w> 181311
ro ots</w> 181282
g p1</w> 181245
T ime</w> 181213
intro n</w> 181194
monom er</w> 181120
in activated</w> 181108
or g</w> 181100
Depar tment</w> 181077
R ad</w> 181030
bil ities</w> 181023
sub groups</w> 181013
vis its</w> 181010
Q i 180980
m 1</w> 180968
l en 180942
ap tic</w> 180934
lymph oid</w> 180908
ec ological</w> 180894
transl ated</w> 180861
absor b 180835
Co x</w> 180786
a a</w> 180784
Ap plied</w> 180694
per m 180650
L ac 180603
pertur b 180485
al d 180434
ili ary</w> 180431
r action</w> 180327
mod est</w> 180304
contin ue</w> 180193
elucid ated</w> 180179
oc ca 180129
fer tili 180124
gener alized</w> 180103
phosphor yl 180094
M n</w> 180089
pas sive</w> 180075
fi es</w> 180040
per haps</w> 180005
parasi tes</w> 179966
ob last</w> 179957
edi atric</w> 179936
angi ogenic</w> 179921
par ti 179907
H ear 179901
f ate</w> 179891
Diag nos 179883
compati ble</w> 179876
G MP</w> 179870
st ain</w> 179835
disrup ted</w> 179828
enco ur 179822
es in</w> 179806
fluor ide</w> 179793
CA D</w> 179755
m ers</w> 179752
G 3</w> 179750
D F</w> 179655
dec ade</w> 179644
pl ies</w> 179520
I T</w> 179467
err y</w> 179404
py ruvate</w> 179367
ine phrine</w> 179274
p an</w> 179251
os ens 179205
om otor</w> 179078
H A 179070
defini tion</w> 178876
e a</w> 178847
form ulation</w> 178844
accep ted</w> 178821
remark able</w> 178792
Health care</w> 178768
ar is</w> 178734
ex ec 178696
lis ted</w> 178683
Identi fication</w> 178678
pre term</w> 178625
dist ant</w> 178534
T 7</w> 178505
b 1</w> 178428
oxy gen 178423
sat uration</w> 178423
as cular</w> 178376
U C</w> 178316
exer t</w> 178300
ocy to 178298
trans duc 178293
ER α</w> 178282
min er 178279
back bone</w> 178200
analog ues</w> 178185
sem i</w> 178175
idi opathic</w> 178160
di al</w> 178113
im planted</w> 178018
con sent</w> 178003
e m</w> 177972
ch el 177968
f atal</w> 177918
pp m</w> 177882
NAD PH</w> 177863
H2 O</w> 177779
te am</w> 177726
S we 177696
gir ls</w> 177660
di ets</w> 177479
in sufficient</w> 177411
config uration</w> 177373
Com mittee</w> 177351
my c</w> 177332
valid ate</w> 177324
br ate</w> 177241
f os 177220
vascular ization</w> 177216
adi c</w> 177126
stom ach</w> 177096
U V 177078
ac yl</w> 177077
syste m 177066
hel ic 177056
z ol 177041
as part 177007
N .</w> 176990
gl auc 176982
Y FP</w> 176893
co de</w> 176893
og rams</w> 176844
SI R 176839
IF N 176806
com b 176805
EB V</w> 176761
bon ding</w> 176750
tig h 176637
M V 176571
c a</w> 176509
B a 176502
natur ally</w> 176493
dis placement</w> 176483
te trac 176475
L T</w> 176471
µ l</w> 176470
P T</w> 176414
observ ational</w> 176405
immunore activity</w> 176367
Anim al</w> 176357
d ness</w> 176342
ome ter</w> 176329
cir cadian</w> 176296
ax onal</w> 176287
protein ase</w> 176268
fac tory</w> 176263
ca tech 176230
vesi cle</w> 176224
ed ge</w> 176213
onucle ase</w> 176213
microtub ules</w> 176212
Con si 176188
de press 176044
I sol 176025
subj ective</w> 176006
splic e</w> 175991
ME Fs</w> 175971
conser v 175964
ess es</w> 175943
ogra fts</w> 175928
anal og</w> 175865
mt DNA</w> 175847
enc ap 175824
AT M</w> 175818
off spring</w> 175784
aor ta</w> 175722
9 A</w> 175690
p us</w> 175645
predic tions</w> 175639
AU C</w> 175633
sl ices</w> 175613
all er 175569
indic ation</w> 175319
a erobic</w> 175264
statis tics</w> 175252
Sm ad 175197
extr a</w> 175162
exam ining</w> 175160
M ic 175151
ing i 175127
bili ary</w> 175117
patho physiology</w> 175115
emergen ce</w> 175082
EC M</w> 175077
dele ted</w> 175021
E th 175002
he ar 174960
view ed</w> 174846
HE PES</w> 174759
ar sen 174606
leuc ine</w> 174510
3 β</w> 174500
defic it</w> 174450
IN G</w> 174434
v inc 174381
was hing</w> 174381
par tly</w> 174369
S ym 174361
se c</w> 174345
or a</w> 174274
nam ed</w> 174230
trans gene</w> 174222
oblas toma</w> 174218
utili zing</w> 174209
I r 174194
oxidi zed</w> 174138
Rh o</w> 174136
F uture</w> 174109
lif e 174091
DT T</w> 174057
N one</w> 174051
oper ations</w> 174045
par atus</w> 174007
E ven</w> 173981
app a</w> 173919
ger m 173885
en larg 173844
for d</w> 173833
highligh ts</w> 173716
Cp G</w> 173633
categ ory</w> 173622
F U</w> 173506
Wh at</w> 173477
en op 173460
asym metric</w> 173364
wee kly</w> 173311
me io 173309
c igare 173297
insuff iciency</w> 173246
immun otherapy</w> 173243
dis c</w> 173223
depri vation</w> 173220
b ol 173204
t us</w> 173183
m om 173170
In tr 173162
F 5</w> 173119
C d</w> 173080
C s 173065
es ting</w> 173018
Gl u</w> 173005
reas on 172991
Pseud omonas</w> 172983
prote olytic</w> 172956
L S</w> 172940
h all 172908
ti ters</w> 172890
accoun ted</w> 172876
oci al</w> 172868
sel ves</w> 172830
evol ved</w> 172815
el in</w> 172799
F 7</w> 172797
e gg 172792
ero x 172767
ur i 172697
Jun e</w> 172678
p sor 172630
cortic ostero 172582
Dr .</w> 172530
Car l 172475
junc tions</w> 172464
n urse</w> 172437
pl oid</w> 172426
over view</w> 172419
clar ify</w> 172411
acchar ides</w> 172395
O 3</w> 172296
a 1</w> 172286
ep ing</w> 172239
D E</w> 172197
hypox ic</w> 172095
L u 172092
er arch 172054
cros s 171944
te aching</w> 171930
Techn ology</w> 171924
recor dings</w> 171918
H ar 171880
as sumed</w> 171876
per in 171804
phospholip id</w> 171800
aut osomal</w> 171783
intern alization</w> 171751
Up on</w> 171735
immun ological</w> 171709
transi ently</w> 171683
er ci 171665
g all 171656
SL E</w> 171656
war ran 171600
attr active</w> 171599
gal ac 171581
inter mediates</w> 171440
fr am 171333
degrad ed</w> 171332
l up 171316
ac k 171236
carr y</w> 171220
exp ect 171170
respon ded</w> 171163
ti um</w> 171159
acces sible</w> 171131
W om 171128
endoth elium</w> 171064
cereb ellar</w> 170952
ro l</w> 170947
om orph 170876
ax el</w> 170847
B in 170797
R F</w> 170741
t ome</w> 170699
atell ite</w> 170681
z ero</w> 170674
struc turally</w> 170671
datas et</w> 170627
PK C 170619
anc h</w> 170614
f if 170603
ff e 170571
suff ering</w> 170523
C er 170493
L R</w> 170304
dam aged</w> 170286
p ub 170218
M 3</w> 170180
i ii</w> 170101
Gl c 170075
sym pathetic</w> 170072
m aps</w> 170041
R SV</w> 169991
lig am 169949
co ver</w> 169891
g overn 169881
anes the 169794
tra it</w> 169784
As s 169782
In c 169715
Re view</w> 169692
d 1</w> 169603
tec h</w> 169580
oste opo 169572
lys ate</w> 169514
hem is 169504
physi ologic</w> 169501
mon onuclear</w> 169417
in ess</w> 169413
P SA</w> 169393
coc aine</w> 169362
diagnos es</w> 169318
ren tly</w> 169298
immobil ized</w> 169283
y o 169243
Sub j 169234
co ur 169213
foc using</w> 169158
Labor atory</w> 169158
oxy genase</w> 169138
ar ise</w> 169080
k ept</w> 169013
prote ases</w> 168984
gro up 168972
waveleng th</w> 168928
pro spectively</w> 168892
t um</w> 168865
In dia</w> 168820
r ite</w> 168787
construc tion</w> 168782
ste in</w> 168763
im ide</w> 168708
ide al</w> 168705
no tion</w> 168701
G .</w> 168688
B 4</w> 168671
G CT 168647
gro w</w> 168631
ph thal 168622
sc oring</w> 168604
sco red</w> 168584
strep tomycin</w> 168553
o res</w> 168539
supernat ants</w> 168492
ro und</w> 168405
E 6</w> 168373
Hy dro 168364
T g</w> 168338
H o 168294
mar ks</w> 168282
K in 168197
De tection</w> 168194
es tive</w> 168191
p s 168178
p ep 168118
hist ology</w> 168012
cat tle</w> 168006
neuro pathy</w> 167955
coun sel 167925
ap paratus</w> 167899
oste o 167896
frag mentation</w> 167822
per f 167819
X R</w> 167773
carcin ogenesis</w> 167721
le g</w> 167717
am y 167713
rop e</w> 167704
adip ocytes</w> 167694
sul ph 167682
r ag 167671
es cap 167669
verte bral</w> 167542
assess ments</w> 167430
sur fac 167422
imp acts</w> 167422
Con sequently</w> 167398
R an 167372
Can di 167370
si onal</w> 167367
otox icity</w> 167303
on it 167279
bi polar</w> 167276
hist ologic</w> 167255
M AIN</w> 167244
P y 167167
gen cy</w> 167147
se di 167139
uc h 167138
som at 167124
lo ops</w> 167112
hyper plasia</w> 167082
ac ade 167040
investig ating</w> 167036
H b 167026
ol amine</w> 167026
SI S</w> 167023
seiz ure</w> 167008
B AL 166997
BC R</w> 166975
H ere 166922
s lower</w> 166917
C r</w> 166887
S a 166866
inten se</w> 166828
O 4</w> 166807
H3 K 166794
suic ide</w> 166783
Mut ations</w> 166761
G I</w> 166741
grad ually</w> 166719
Org an 166715
dos ing</w> 166676
avi an</w> 166674
facilit ates</w> 166638
sel ect</w> 166634
CA T</w> 166634
mis sense</w> 166543
neutr alizing</w> 166498
T en</w> 166484
Pro mega</w> 166471
ophil ic</w> 166469
Un der 166425
in verse</w> 166415
in complete</w> 166349
h n 166322
or adi 166322
coord in 166154
S k 166118
Can ada</w> 166098
dis soci 166034
ar ched</w> 166015
in stance</w> 165924
w k</w> 165923
Wom en</w> 165915
glomer ular</w> 165910
CF TR</w> 165900
e ating</w> 165863
ul ates</w> 165863
ulc er</w> 165855
ation ally</w> 165822
C U 165719
met als</w> 165710
os arcoma</w> 165693
clin ic 165637
ow ing</w> 165635
exten d</w> 165632
discipl inary</w> 165631
Stud ent</w> 165569
sti ff 165542
sh a 165541
in ic</w> 165527
fol ate</w> 165523
therapeu tics</w> 165516
ch arom 165514
addi tive</w> 165511
Ph ase</w> 165443
synap ses</w> 165438
nor mo 165362
Be tween</w> 165336
toc occus</w> 165314
di hydro 165274
PC 1</w> 165253
f lies</w> 165210
bri dg 165198
P N 165182
guid ance</w> 165167
th o 165141
them selves</w> 165134
ur g 165052
st ock</w> 165006
H er 164988
coun ted</w> 164957
fung i</w> 164905
K i</w> 164879
diff raction</w> 164867
refl ects</w> 164836
por cine</w> 164800
mis sing</w> 164747
as sum 164696
or ally</w> 164620
lit axel</w> 164571
con stitute</w> 164568
ir al</w> 164549
acc id 164548
cy st</w> 164514
out patient</w> 164436
plac ental</w> 164344
li e</w> 164334
de posi 164300
moder n</w> 164256
ach e</w> 164246
bre eding</w> 164240
dro p</w> 164235
rup ture</w> 164214
immunob lotting</w> 164148
tub ular</w> 164118
establish ment</w> 164007
T arg 163989
im mature</w> 163980
res ted</w> 163972
G P</w> 163961
NI H</w> 163827
hypo the 163808
As p</w> 163638
B ank</w> 163637
7 B</w> 163624
G ram</w> 163594
Eu rope</w> 163535
Sub sequently</w> 163471
ke ys</w> 163469
be an</w> 163461
L o 163448
ser ves</w> 163307
cryst alli 163274
hor iz 163269
sub sets</w> 163258
four th</w> 163249
Inde x</w> 163244
qu it 163218
Qi agen</w> 163183
2 α</w> 163148
de teri 163120
ver tical</w> 163107
SO D</w> 163095
pneumon iae</w> 163087
perman ent</w> 163065
Pre dic 163050
S l 163044
asp ect</w> 163033
AT A</w> 163030
on ds</w> 162946
charom yces</w> 162908
se arched</w> 162827
E d 162810
Ar g 162802
desi red</w> 162745
Syn thesis</w> 162688
gal act 162675
odi alysis</w> 162663
pap ill 162642
ox in</w> 162621
opportun ity</w> 162602
ac ous 162548
man aged</w> 162507
thre onine</w> 162495
er t</w> 162376
if ying</w> 162376
ograph s</w> 162367
ex port</w> 162335
Le u</w> 162298
F V 162283
T N 162200
nucle ic</w> 162198
A c</w> 162167
calcul ate</w> 162160
ri p 162151
i ple</w> 162088
ultras on 162082
hist amine</w> 162080
L eu 162015
D H 161948
L V 161894
n 1</w> 161821
cl amp</w> 161814
diarr he 161791
iz umab</w> 161752
sequ ent</w> 161751
Labor atories</w> 161661
paradig m</w> 161660
end oplasmic</w> 161595
S tro 161589
form in</w> 161572
loc ally</w> 161572
bio film</w> 161563
5 -</w> 161546
ham s 161529
st al 161511
tail ed</w> 161486
satisfac tory</w> 161470
trans duced</w> 161432
anti sense</w> 161412
b ab 161410
plas mic</w> 161399
r ing 161384
rec ycl 161365
ag ic</w> 161344
ay ers</w> 161343
C CT 161248
fru it</w> 161167
con current</w> 161150
electro des</w> 161143
G ene 161113
analog ue</w> 161102
N ur 161095
ses sions</w> 161089
G AG 161084
controver sial</w> 161076
F am 161047
ab sc 161032
ner ves</w> 161014
tra j 161004
im pe 161001
tac hy 160937
BM P</w> 160911
te ll 160872
oligonucle otide</w> 160824
os us</w> 160797
algorith ms</w> 160792
lin ks</w> 160701
r ace</w> 160690
β 2</w> 160670
leuk ocyte</w> 160649
kn ock</w> 160594
ger min 160590
ho use</w> 160589
s we 160364
L P</w> 160347
am ethasone</w> 160299
A N</w> 160263
w ri 160201
histi dine</w> 160107
t one</w> 160071
kill ing</w> 160065
2 R</w> 159954
radi al</w> 159936
th rea 159878
analy zing</w> 159864
ca th 159798
filam ent</w> 159781
verte bra 159759
summar ized</w> 159642
3 p</w> 159613
tryp toph 159608
T ur 159605
whe at</w> 159536
comor bi 159528
p i</w> 159512
sil ica</w> 159491
G W 159489
B I</w> 159479
Tran scrip 159444
C K 159437
hear ts</w> 159432
Ig A</w> 159400
part um</w> 159373
g ating</w> 159288
Rec om 159273
Di ab 159190
nico tine</w> 159190
ace ae</w> 159185
analog s</w> 159149
il e 159146
L M 159132
incid ent</w> 159110
situ ations</w> 159079
con e</w> 159070
ap plying</w> 159060
can ine</w> 159059
applic able</w> 159029
pla ques</w> 159020
P or 159018
V .</w> 159015
inj ured</w> 159013
pro ne</w> 158972
acc ess 158907
cen ding</w> 158906
respon dents</w> 158904
mit ral</w> 158890
oxif en</w> 158826
om ing</w> 158800
ob acter</w> 158794
ten ed</w> 158787
hydro ly 158769
hormon al</w> 158763
mis sions</w> 158754
N i 158749
mim ic</w> 158596
p es</w> 158558
no vi 158558
Austral ia</w> 158516
mac h 158494
preser ved</w> 158445
au di 158405
pac k 158386
phy to 158349
less er</w> 158346
r ated</w> 158340
acade mic</w> 158321
grad u 158314
bronch ial</w> 158284
rele asing</w> 158273
Per i 158174
Accor dingly</w> 158168
in ti 158105
PM C</w> 158100
zy go 158098
conduc tance</w> 158081
ul der</w> 158080
to oth</w> 158035
dox orubicin</w> 158034
x 2</w> 158012
g one</w> 158007
aspart ate</w> 157956
alk al 157936
benz o 157917
f el 157901
C ro 157888
electro ly 157874
fe ed</w> 157844
1 E</w> 157806
R b</w> 157772
T T</w> 157765
ca ud 157736
lup us</w> 157714
eth nic</w> 157703
app reci 157676
echocardi ography</w> 157648
in age</w> 157617
an at 157599
tempor ary</w> 157557
sl ides</w> 157531
antic ip 157520
coun try</w> 157480
A sian</w> 157447
micro som 157445
D AP 157406
B ax</w> 157373
do g</w> 157358
princ iple</w> 157355
viol et</w> 157353
hist or 157329
tim ate</w> 157320
in ability</w> 157223
br anch</w> 157184
am id 157140
c ran 157106
telom ere</w> 157047
cy sts</w> 157035
der mat 156985
aut ologous</w> 156976
harb oring</w> 156968
par athyro 156874
k el</w> 156848
d i</w> 156841
hemis ph 156773
qu en 156725
all os 156721
Meas ure 156712
b ases</w> 156660
F F 156657
in o</w> 156607
mod alities</w> 156602
em ul 156572
questionna ires</w> 156562
l ity</w> 156553
b is</w> 156538
den se</w> 156456
os mo 156412
ron ectin</w> 156396
M el 156340
con tex 156320
D D</w> 156246
we a 156236
re turn</w> 156211
E pi 156210
Ad min 156210
play ing</w> 156159
b ate</w> 156143
polar ized</w> 156112
kidne ys</w> 156093
si dase</w> 156006
atin um</w> 155906
bor ne</w> 155863
de t 155845
PF S</w> 155841
inf u 155812
w s</w> 155802
wal king</w> 155769
schem e</w> 155698
m ast</w> 155673
ax on</w> 155642
initi ate</w> 155614
pharmaco kinetic</w> 155612
in directly</w> 155588
am eli 155564
mus cular</w> 155521
psych os 155483
chim eric</w> 155483
Acti vation</w> 155384
Differen t</w> 155369
res sing</w> 155357
mar ine</w> 155339
Se ph 155337
oph ar 155241
et a</w> 155232
ycl ine</w> 155221
N -</w> 155216
P os 155210
g yr 155196
T H</w> 155187
cardi a</w> 155147
t onic</w> 155129
a u</w> 155109
od ec 155096
oblas tic</w> 155055
ath le 155033
spor adic</w> 154982
st op 154978
difficul ty</w> 154970
intra operative</w> 154928
weigh ts</w> 154901
sh ar 154762
cap si 154737
hin d</w> 154669
F 6</w> 154659
trans planted</w> 154578
pre ventive</w> 154571
pl ete</w> 154569
Ch rom 154567
I S</w> 154557
persis tence</w> 154495
hydr ation</w> 154482
Re tro 154445
oligonucle otides</w> 154427
c ies</w> 154389
ME K</w> 154325
random ised</w> 154317
datas ets</w> 154272
St and 154263
c in</w> 154259
system atically</w> 154199
enco de</w> 154186
D N</w> 154164
accep tor</w> 154113
egg s</w> 154091
5 b</w> 154077
Gen ome</w> 154041
gran ules</w> 154027
li p</w> 154025
Mil li 153996
dex tr 153955
indu stry</w> 153936
inter f 153932
CH O</w> 153884
pass age</w> 153884
tend ency</w> 153862
B acteri 153842
immunoprecip itated</w> 153835
on ia</w> 153816
Qu ality</w> 153811
hel p 153750
simil arities</w> 153676
ju ven 153610
Nr f2</w> 153574
ref lex</w> 153517
Coll ectively</w> 153506
inher ited</w> 153505
model ling</w> 153482
S pr 153474
MI C</w> 153471
unifor m</w> 153440
resp iration</w> 153395
star vation</w> 153395
ol ol</w> 153374
re turned</w> 153363
resc ued</w> 153349
d ent</w> 153330
te m</w> 153328
stero ids</w> 153306
j us 153301
el astic</w> 153272
ep i 153267
attemp ts</w> 153242
lu tion</w> 153213
mod ality</w> 153208
V T</w> 153201
TP 5</w> 153168
In divid 153159
L C3</w> 153151
flex ibility</w> 153070
sup plement</w> 153067
rest oration</w> 153062
W here 153055
d al 153049
o tes</w> 153039
interf ere</w> 153019
spont aneously</w> 153016
k appa</w> 152983
bo ys</w> 152955
re l</w> 152927
conn ection</w> 152913
Sy ste 152907
Differen ces</w> 152856
log y</w> 152848
obj ect</w> 152827
C B</w> 152785
saliv ary</w> 152737
AB C</w> 152733
ex tra 152728
fu r</w> 152690
foll icular</w> 152638
F .</w> 152612
pren atal</w> 152582
pu ts</w> 152480
id ed</w> 152428
hom olog</w> 152428
rel ations</w> 152421
C ap 152368
T er 152352
A sp 152310
2 p</w> 152200
us age</w> 152193
re pressor</w> 152156
anti depress 152136
opportun ities</w> 152122
H RP</w> 152107
c asse 152103
G ly</w> 152078
S . 152073
at aly 152063
on ym 152052
dem and</w> 152032
cu es</w> 151993
influ encing</w> 151991
modi fy</w> 151936
Fif ty</w> 151912
R ole</w> 151887
buil ding</w> 151864
arb ox 151808
bl ed</w> 151803
conform ations</w> 151781
o k 151745
comple tion</w> 151735
dra inage</w> 151718
r as</w> 151650
contr al 151565
inten sities</w> 151556
par aff 151550
A AT 151544
stiff ness</w> 151544
Where as</w> 151500
embol ism</w> 151414
M emb 151406
visi t</w> 151372
fu sions</w> 151370
3 T3</w> 151353
an thro 151325
encoun tered</w> 151319
F AK</w> 151271
bir ds</w> 151201
c ats</w> 151192
v is</w> 151129
li pop 151088
n a</w> 151069
A Z 151060
gene tics</w> 151042
co valent</w> 151034
M arch</w> 151023
Bios ystems</w> 151023
ar ising</w> 151018
germ line</w> 150991
Ad v 150989
help ful</w> 150949
ot ted</w> 150939
A V</w> 150904
biom ass</w> 150848
ten sive</w> 150827
sh ell</w> 150825
recip ient</w> 150824
el igible</w> 150789
de struction</w> 150772
accum ulate</w> 150742
CR I 150717
determin ant</w> 150705
gi ves</w> 150701
pancre atitis</w> 150696
associ ate</w> 150692
transi tions</w> 150681
ten don</w> 150680
glauc oma</w> 150672
neigh b 150662
B er 150625
program me</w> 150584
man ual</w> 150576
s s</w> 150560
ure th 150559
op y 150494
recor d</w> 150476
attenu ation</w> 150470
artic ular</w> 150448
ro d</w> 150431
h es</w> 150423
suppres ses</w> 150387
M n 150333
Cas 9</w> 150306
pan ic</w> 150304
cr ude</w> 150302
modul ates</w> 150298
ep tor</w> 150270
s atellite</w> 150249
cap ability</w> 150203
x ed</w> 150154
pac litaxel</w> 150131
C am 150115
erythro cytes</w> 150063
elim inated</w> 150028
comm erci 149999
St ate</w> 149923
pro inflammatory</w> 149895
T est</w> 149873
allel ic</w> 149844
re aching</w> 149842
Fluo resc 149714
ion ization</w> 149713
surge ons</w> 149713
myel oma</w> 149711
RN P</w> 149705
M ay</w> 149702
- 7</w> 149691
inoc ulation</w> 149679
el ve</w> 149676
or bital</w> 149637
top ical</w> 149611
highligh ted</w> 149606
py ro 149588
o ro 149559
Psy ch 149541
con sci 149498
inte ll 149481
ca usal</w> 149476
polym ers</w> 149449
dys plasia</w> 149439
Stre p 149413
calc ulation</w> 149412
ventr icle</w> 149381
verte brate</w> 149344
ho sts</w> 149325
. 4</w> 149311
program ming</w> 149293
empir ical</w> 149272
st one</w> 149262
E m 149208
an ical</w> 149201
lim itation</w> 149200
pal mit 149122
m ill 149049
ti ce</w> 149011
g est</w> 148981
col onic</w> 148959
event ually</w> 148886
acous tic</w> 148880
cir cular</w> 148875
fer tility</w> 148863
N 3</w> 148857
Me di 148827
oncogen e</w> 148810
m on</w> 148794
pres sures</w> 148788
lum inal</w> 148752
ver ify</w> 148739
electro chemical</w> 148713
Milli pore</w> 148698
mandi bular</w> 148688
some times</w> 148646
d ur 148637
A ge</w> 148626
homogen eous</w> 148607
AL K</w> 148571
hel ices</w> 148541
β 4</w> 148537
est yle</w> 148537
hi erarch 148519
enabl ed</w> 148514
om al</w> 148502
mod ule</w> 148463
nod ules</w> 148436
sh ear</w> 148431
lipos omes</w> 148382
T yr 148377
dex amethasone</w> 148370
trigg ers</w> 148369
q 2</w> 148364
am bi 148311
S il 148297
mTOR C1</w> 148279
de pressed</w> 148237
sc av 148218
e ter</w> 148209
evid enced</w> 148170
precip itation</w> 148095
cycl ing</w> 148079
sor ting</w> 148073
l ing 148066
I mp 148049
manip ulation</w> 148022
ac compl 147977
interpre ted</w> 147959
ang er</w> 147938
olog ist</w> 147919
repres entation</w> 147904
NA c</w> 147891
- -</w> 147871
k ap 147869
L ym 147850
co il</w> 147841
stabil ize</w> 147802
C ri 147758
con duction</w> 147751
r 1</w> 147714
ca m</w> 147711
individu ally</w> 147700
fil tered</w> 147682
R ed</w> 147678
tryptoph an</w> 147675
Wor ld</w> 147620
d ent 147520
pregn ancies</w> 147500
ov ary</w> 147431
l er</w> 147406
f low 147397
e an</w> 147391
tri gu 147349
T L</w> 147344
T n 147340
Ma terials</w> 147337
AS D</w> 147306
progenit ors</w> 147298
trans mitted</w> 147296
le ak 147287
ur ac 147282
s or</w> 147279
continu ously</w> 147276
life time</w> 147258
over weight</w> 147229
n ig 147196
percep tions</w> 147173
tigh tly</w> 147152
0 S</w> 147109
rec essive</w> 147108
G SK 147092
acti vely</w> 147077
stabil izing</w> 147042
hel d</w> 147015
W HO</w> 147001
influ x</w> 147001
5 p</w> 146993
s en</w> 146983
re new 146977
a i</w> 146967
su d 146901
s lip 146864
pro l 146858
expos ures</w> 146837
sim pl 146823
facil ities</w> 146823
C he 146820
cit rate</w> 146818
ana erobic</w> 146813
I 1</w> 146776
ell um</w> 146742
dop aminergic</w> 146736
ta ins</w> 146734
r y 146731
pro ve</w> 146635
discre te</w> 146635
C ys 146618
der mal</w> 146577
activ ators</w> 146576
en ium</w> 146453
proxim ity</w> 146392
r ings</w> 146356
c c 146213
concep ts</w> 146212
T ox 146161
st rial</w> 146143
ac yl 146102
6 a</w> 146079
spo t</w> 146075
en anti 146068
D en 146054
tin c 146012
G GT 145989
con ven 145979
polym er 145922
pri l</w> 145881
C EN 145873
c ro 145852
Un like</w> 145816
fin ally</w> 145769
p in 145734
u ximab</w> 145718
- 8</w> 145680
radi ographic</w> 145637
coord inated</w> 145585
shif ted</w> 145522
uncer tain 145510
cardiomy opathy</w> 145475
do w</w> 145433
rou tin 145413
mat ching</w> 145316
N H 145281
leuk ocytes</w> 145218
ar ms</w> 145211
perme abil 145208
ol factory</w> 145132
Av ail 145104
la tent</w> 145061
M Hz</w> 145018
slow ly</w> 145015
L ip 145009
vast atin</w> 144912
chape rone</w> 144908
acu ity</w> 144818
lum en</w> 144771
Im aging</w> 144736
spo ts</w> 144733
Ph e</w> 144728
un published</w> 144707
tub es</w> 144675
U. S.</w> 144666
vide o</w> 144661
at osis</w> 144649
dec lined</w> 144619
J uly</w> 144612
S 1 144598
belie ve</w> 144577
red und 144543
x in</w> 144527
b if 144507
medi ator</w> 144503
cho ol</w> 144498
conn ectivity</w> 144491
P erc 144476
w ards</w> 144438
MY C</w> 144435
L s</w> 144390
reg istered</w> 144389
facilit ated</w> 144388
chemo kine</w> 144369
cap tured</w> 144298
T P</w> 144295
contral ateral</w> 144183
ent ations</w> 144116
G N 144100
v ol</w> 144085
ery them 144070
ho t</w> 144066
vas o 144009
fl ur 143922
S n 143762
otox ic</w> 143754
non specific</w> 143746
opath ological</w> 143689
t ability</w> 143670
un stable</w> 143659
C entral</w> 143639
pal li 143634
k le</w> 143608
pur poses</w> 143606
lac ks</w> 143598
F lag</w> 143583
dom es 143545
posi tioning</w> 143540
Be sides</w> 143529
pene tr 143480
I ll 143450
Bac illus</w> 143426
prescri bed</w> 143397
speci alized</w> 143375
k y</w> 143365
az ep 143357
Gro w 143351
Alex a</w> 143350
P N</w> 143286
quantit atively</w> 143263
t ose</w> 143231
W al 143221
ul cer 143202
conserv ative</w> 143200
de form 143196
hem odynamic</w> 143170
st aging</w> 143157
pharmaco kinetics</w> 143132
neoplas ms</w> 143101
G AL 143081
moder ately</w> 143079
ej un 143061
is ter</w> 143029
M AL 143026
2 E</w> 142949
ost atic</w> 142930
under gone</w> 142895
te dly</w> 142867
urac il</w> 142836
in he 142820
ocom pati 142799
promo tion</w> 142798
os s</w> 142785
direc tional</w> 142744
L ou 142729
illustr ated</w> 142703
Bin ding</w> 142703
emp ty</w> 142698
trans forming</w> 142692
tran sc 142636
bio tin</w> 142625
institu tion</w> 142602
tig ht</w> 142579
anat omy</w> 142562
conf er</w> 142545
pre treated</w> 142519
C AC 142517
ge ometry</w> 142516
ag ue</w> 142510
GAP DH</w> 142505
ang les</w> 142466
bi ogenesis</w> 142433
I U</w> 142423
H ol 142388
C x 142376
mit ogen</w> 142362
kap pa 142347
te stis</w> 142339
resid ent</w> 142322
edi ting</w> 142283
f resh 142275
Er b 142270
c ows</w> 142244
poly s 142237
ocy top 142171
Admin istration</w> 142165
5 S</w> 142123
in ver 142106
origin ally</w> 142093
W he 142036
fi er</w> 141975
cat ar 141969
xen ograft</w> 141967
U r 141955
A ug 141938
transp os 141938
win dow</w> 141937
sur ance</w> 141913
O T</w> 141902
Surve y</w> 141885
Pro gram</w> 141879
E V 141866
S even</w> 141859
T issue</w> 141826
B as 141826
dr al</w> 141815
X enop 141813
but able</w> 141807
I g</w> 141804
L 4</w> 141802
ple ural</w> 141775
E 4</w> 141688
E c 141685
cholin ergic</w> 141675
organ ized</w> 141667
Nor thern</w> 141661
d itary</w> 141655
Mech anis 141614
sw elling</w> 141610
fer ing</w> 141592
bro w 141587
acetyl choline</w> 141541
T op 141531
extrem e</w> 141513
pro found</w> 141497
Hear t</w> 141421
line ages</w> 141397
prostagland in</w> 141331
pic ture</w> 141317
chem ot 141310
i P 141307
magne sium</w> 141289
Sac charomyces</w> 141279
SO D1</w> 141167
te mb 141144
al og 141136
den sities</w> 141108
ensi tivity</w> 141029
hi z 141028
diarrhe a</w> 140973
immuno assay</w> 140971
S 7</w> 140968
odi c</w> 140943
at onin</w> 140939
GT Pase</w> 140934
t ations</w> 140903
clim ate</w> 140871
disturb ances</w> 140857
Xenop us</w> 140853
aver aged</w> 140831
Rac 1</w> 140819
ther m 140813
se ed 140788
form ula</w> 140758
DI SC 140754
ac ks</w> 140745
sil ver</w> 140706
n ight</w> 140688
rati on 140670
Sur viv 140663
ri s</w> 140654
l ic 140618
G SE 140609
W I</w> 140599
Ul tras 140585
attri butable</w> 140551
Grow th</w> 140537
alb icans</w> 140533
ther mia</w> 140430
en ib</w> 140376
escap e</w> 140342
BM D</w> 140327
rib osome</w> 140305
E CT</w> 140304
tes ticular</w> 140300
pul ses</w> 140268
tr ics</w> 140243
N at 140176
AT CC</w> 140160
O UT 140155
V it 140119
me 3</w> 140089
graph y</w> 140074
pl atinum</w> 140038
ultras truc 140000
mi x</w> 139980
radi ological</w> 139955
psychos ocial</w> 139865
un like</w> 139847
N D 139777
P RE 139745
effec tors</w> 139738
M N</w> 139609
o zo 139608
us h</w> 139590
ori ented</w> 139588
libr aries</w> 139534
fo ods</w> 139508
or im 139500
os ing</w> 139489
CRE B</w> 139453
adjus ting</w> 139384
respon ders</w> 139379
fin anc 139368
m ir 139337
belong ing</w> 139336
se arch 139332
see ds</w> 139321
trac e</w> 139299
conjug ate</w> 139298
per fused</w> 139295
n om 139264
conjunc tion</w> 139242
am o 139237
olys accharide</w> 139216
eng agement</w> 139140
tam oxifen</w> 139116
insec t</w> 139114
K m</w> 139107
detec tor</w> 139101
mut ational</w> 139091
D at 139050
de man 139047
indic ative</w> 139035
pol arity</w> 139022
es ters</w> 139011
por ation</w> 139003
ti ter</w> 138994
Al l 138985
can al</w> 138979
kin d</w> 138950
centr e</w> 138942
rang es</w> 138923
um ina</w> 138921
d odec 138887
E ight</w> 138865
phot on</w> 138865
d l</w> 138823
S TI 138783
H N 138759
EC G</w> 138727
con clusions</w> 138697
dist ances</w> 138694
stri atum</w> 138677
j ejun 138666
id ae</w> 138602
no tic 138598
electro static</w> 138583
gi ving</w> 138570
ul tra 138563
y ellow</w> 138521
ent a</w> 138518
s ession</w> 138515
di ties</w> 138512
rit ten</w> 138499
ac tor</w> 138495
v 1</w> 138471
stric t</w> 138456
cul tural</w> 138407
sy novi 138398
Inte gr 138398
trac king</w> 138379
inter fering</w> 138362
adop ted</w> 138352
ph one</w> 138276
person ality</w> 138244
OUT CO 138240
L Y2</w> 138178
R 5</w> 138167
she et</w> 138148
pharmac eutical</w> 138128
H s</w> 138123
N ucle 138098
w aves</w> 138064
mus cul 138012
fib ronectin</w> 137956
Inv estig 137956
flan king</w> 137949
anomal ies</w> 137907
hypothalam ic</w> 137879
Candi da</w> 137856
B 6</w> 137845
visu alization</w> 137845
omat ous</w> 137826
imid azole</w> 137816
rhyth m</w> 137791
venti l 137769
assi st</w> 137764
T em 137717
w ells</w> 137713
A pril</w> 137666
glomer ul 137659
aff eren 137577
practition ers</w> 137571
in hal 137561
com ing</w> 137561
SI ON</w> 137537
fist ula</w> 137530
und ed</w> 137509
Mo del</w> 137499
ull ary</w> 137480
preser vation</w> 137464
FRE T</w> 137451
M ex 137439
conjug ates</w> 137383
sho ulder</w> 137347
P en 137305
ME T</w> 137236
en or 137229
R em 137186
yn aptic</w> 137151
F IN 137094
brea thing</w> 137090
Myco bacterium</w> 137087
anis h</w> 137078
H od 137061
align ed</w> 137054
mi um</w> 137040
att ack</w> 137023
M us 137016
s ation</w> 137014
S ER 136993
py r 136958
swit ching</w> 136947
L ab 136933
a dic 136850
dis s 136825
W ang</w> 136817
Spec ific</w> 136806
cor ro 136772
ph o 136724
mas sive</w> 136716
spl en 136688
T ol 136682
A ST</w> 136681
head ache</w> 136678
Sel f</w> 136657
re flux</w> 136651
pl uri 136596
op ulmonary</w> 136546
D em 136541
sampl ed</w> 136525
respon ding</w> 136488
excit atory</w> 136477
us er</w> 136436
ch i 136343
E A</w> 136336
an not 136311
ra ine</w> 136278
P an 136269
val id</w> 136266
ob ut 136231
L B</w> 136229
commerci ally</w> 136190
Man agement</w> 136182
trache al</w> 136160
post operatively</w> 136141
tox ins</w> 136125
PPAR γ</w> 136122
Gn RH</w> 136070
4 b</w> 136058
f ly</w> 136046
D 8</w> 136032
non linear</w> 136020
run ning</w> 136020
c s</w> 136019
β 3</w> 136009
e str 136002
co ch 135988
Rho A</w> 135974
S tra 135970
id ing</w> 135940
consider ations</w> 135900
sc al 135888
CD K 135762
F ITC</w> 135748
spec imen</w> 135744
S L</w> 135700
mix ing</w> 135700
ag ues</w> 135640
off ered</w> 135632
neu rom 135615
IC D</w> 135594
solub ility</w> 135575
H V</w> 135560
num erical</w> 135481
rest ore</w> 135478
hydrox yl</w> 135473
wor ks</w> 135437
mo od</w> 135431
teri ous</w> 135402
de ter 135392
osteopo rosis</w> 135380
ati cal</w> 135345
J A 135332
En h 135319
os y 135309
emph asis</w> 135300
minim ize</w> 135260
dis plays</w> 135250
am bul 135198
attemp ted</w> 135176
os yl 135168
tr ically</w> 135162
k now</w> 135138
alle vi 135133
ogene ic</w> 135132
ot ub 135121
glyc ogen</w> 135034
las ting</w> 135024
INT ER 134985
Se q</w> 134956
f l</w> 134904
ne y</w> 134900
ameli or 134884
Hsp 9</w> 134869
Sur prisingly</w> 134853
cess ation</w> 134848
stri king</w> 134817
mos quit 134804
l nc 134791
Avail able</w> 134788
en comp 134762
super ficial</w> 134732
Pr P</w> 134703
Com po 134702
radic als</w> 134626
cataly st</w> 134604
bal anced</w> 134604
ol ing</w> 134570
R ob 134526
sur pri 134463
D ic 134443
refl ecting</w> 134418
strati fied</w> 134401
contamin ated</w> 134384
vi g 134362
ch olec 134343
un common</w> 134325
AC C</w> 134285
reason able</w> 134263
on tal</w> 134237
As soci 134229
RP E</w> 134221
sc inti 134140
ite m</w> 134130
thresh olds</w> 134086
Fr ance</w> 134086
vari es</w> 134055
com for 134049
integr al</w> 134017
ubl ic</w> 134014
an ne 134012
ep s</w> 134006
transmit ter</w> 134006
rib onucle 133996
Gra ph 133950
CT 1</w> 133937
lif estyle</w> 133924
W est</w> 133902
kin in</w> 133856
H 1 133790
epidemi ology</w> 133771
bal lo 133730
noc ic 133724
illu strate</w> 133718
ish man 133713
ti de</w> 133703
nit rate</w> 133691
lim us</w> 133671
compe tent</w> 133656
Gen er 133637
g ingi 133623
challeng ed</w> 133613
B T</w> 133598
pene tration</w> 133567
T 2 133563
C TL 133515
leng ths</w> 133501
fe ar</w> 133462
hy d 133454
H b</w> 133442
f ri 133429
tor ial</w> 133381
neon ates</w> 133380
se a</w> 133356
g yn 133341
Compar ative</w> 133335
d L</w> 133305
pel let</w> 133295
indu strial</w> 133292
colle agues</w> 133260
l ings</w> 133257
V E</w> 133245
propag ation</w> 133242
v ill 133235
Cy to 133196
dele terious</w> 133182
Hod g 133148
con sequently</w> 133136
TL R4</w> 133128
use fulness</w> 133117
immunosup pressive</w> 133086
clu sive</w> 133065
A AG 133038
Qu estionna 133029
En gl 133024
Br d 133006
IN E</w> 133002
temb er</w> 132986
ad dic 132924
hapl otype</w> 132905
Bra in</w> 132898
it ance</w> 132893
MT T</w> 132888
Braz il</w> 132878
der m 132866
deposi ted</w> 132818
sec onds</w> 132815
exhibi ting</w> 132815
mon keys</w> 132808
anti genic</w> 132801
ir y</w> 132786
aff or 132754
S s</w> 132657
flav on 132639
E t 132638
PA P</w> 132634
A pp 132581
c il 132574
Sep tember</w> 132573
Here in</w> 132566
iton e 132554
stri atal</w> 132524
oun ding</w> 132523
un expected</w> 132499
pro to 132481
seas on</w> 132479
ograph ical</w> 132476
R B</w> 132472
Me dian</w> 132460
quanti ty</w> 132457
del ine 132392
CL 2</w> 132383
contin ence</w> 132363
mit tent</w> 132345
elim inate</w> 132302
a ter 132292
direc tions</w> 132290
BC L</w> 132243
E igh 132212
Gen eral</w> 132202
syn ucle 132198
ur ic</w> 132176
St .</w> 132114
predic ts</w> 132107
chemo therapeutic</w> 132099
per g 132020
v il 132017
contracti le</w> 131986
trans l</w> 131971
condi tional</w> 131960
suc cin 131939
coun ting</w> 131931
hospit alized</w> 131929
surve ys</w> 131901
P f 131899
exclud e</w> 131880
ke wise</w> 131817
7 C</w> 131802
tob er</w> 131760
sp ectives</w> 131722
A . 131667
si fication</w> 131650
a to</w> 131646
AT 1</w> 131637
pi v 131634
aspir in</w> 131631
alter ing</w> 131618
absorb ance</w> 131600
c 2</w> 131587
prop yl</w> 131543
E co 131496
compromis ed</w> 131469
S e</w> 131462
sl ope</w> 131449
H om 131436
te no 131385
rh od 131374
an al</w> 131371
immun ized</w> 131356
u ron 131355
Com mun 131318
Oc tober</w> 131301
B one</w> 131296
rever sal</w> 131205
S outhern</w> 131197
CM L</w> 131180
labor atories</w> 131177
CV D</w> 131141
solub il 131140
Cal ifor 131139
pat h</w> 131129
i. v.</w> 131079
emplo ying</w> 131070
F T 131033
CA P</w> 131032
cle ft</w> 131008
eth n 130994
oplas ty</w> 130976
otyp ed</w> 130954
ak er</w> 130954
mon ocyte</w> 130952
bi ologically</w> 130939
susp ended</w> 130938
achiev ing</w> 130862
s c</w> 130857
gang lion</w> 130841
SIR T1</w> 130784
recycl ing</w> 130774
O D</w> 130765
TRA IL</w> 130744
lox acin</w> 130738
Fac tors</w> 130732
paraff in</w> 130730
SP 1</w> 130677
ma them 130654
routin ely</w> 130654
colon ization</w> 130617
CXCR 4</w> 130591
counter parts</w> 130558
P F</w> 130550
consis tency</w> 130488
fl ag 130447
optim um</w> 130367
ot e</w> 130366
aden ine</w> 130348
disrup t</w> 130262
F DG</w> 130258
od end 130221
dim eric</w> 130211
P b</w> 130208
Characteri zation</w> 130201
gli oblastoma</w> 130191
PC NA</w> 130188
x es</w> 130138
helic ase</w> 130116
aneurys ms</w> 130098
Sci ences</w> 130087
bi ased</w> 130080
refer ral</w> 130069
i ana</w> 130068
ra w</w> 130065
id a</w> 130064
io di 130055
establish ing</w> 130015
el ed</w> 129976
asp iration</w> 129964
anti bacterial</w> 129955
segreg ation</w> 129939
M u 129869
disper sion</w> 129834
c ock 129801
ic o</w> 129789
scle rotic</w> 129767
mid ine</w> 129745
R CC</w> 129734
te re 129710
H el 129670
S 6 129627
Ca uc 129619
lith ium</w> 129616
Engl ish</w> 129533
P 6</w> 129522
glob ulin</w> 129522
PD B</w> 129504
C KD</w> 129494
y a</w> 129490
Hep G2</w> 129452
bl es</w> 129441
N H</w> 129384
Subj ects</w> 129370
amph i 129336
Califor nia</w> 129332
trans form</w> 129329
pl et</w> 129309
retri ev 129201
surge on</w> 129184
D IN 129175
Immuno histo 129173
c . 129150
Prote ins</w> 129132
P osi 129126
tern ary</w> 129100
at trac 129087
Struc tural</w> 129007
D er 128989
F re 128947
Ab cam</w> 128933
inter rup 128924
- induced</w> 128921
casse tte</w> 128861
I BD</w> 128853
cycl ase</w> 128836
CA 2</w> 128825
diff ers</w> 128801
eth ical</w> 128781
benz ene</w> 128768
correc tly</w> 128747
modi fying</w> 128726
histopath ological</w> 128714
instrum ents</w> 128710
AD HD</w> 128705
minim ally</w> 128693
cam era</w> 128685
form ulations</w> 128655
draw n</w> 128590
omy el 128589
con tra 128558
os an</w> 128550
Be havi 128469
le t 128465
Hodg kin</w> 128453
sens ors</w> 128433
est ro 128411
Th rough</w> 128399
r ub 128390
RP MI</w> 128376
En do 128369
onym ous</w> 128368
thym idine</w> 128346
moun ted</w> 128332
Gre en</w> 128274
aden ovirus</w> 128271
II I 128247
x y 128246
oligom ers</w> 128229
q RT</w> 128226
s ound</w> 128184
qu ic 128153
ex ual</w> 128131
sub mitted</w> 128058
introduc e</w> 128046
M K</w> 128038
e tin</w> 127961
P B</w> 127961
enti n</w> 127930
c itation</w> 127928
ot ri 127928
du plication</w> 127914
af enib</w> 127875
periodon tal</w> 127849
Ca MK 127833
L ev 127829
allos teric</w> 127794
Tre g</w> 127782
Altern atively</w> 127762
P at 127760
bec oming</w> 127757
v or 127756
P ases</w> 127730
Surg ery</w> 127720
occ i</w> 127710
ug h 127687
m asses</w> 127647
M G 127628
T y 127611
ec es</w> 127604
pac kage</w> 127589
th ood</w> 127579
de ad</w> 127562
iod ine</w> 127560
ren in</w> 127502
yn g 127496
F SH</w> 127495
transcrip tase</w> 127482
ish ing</w> 127464
telom erase</w> 127449
onit rile</w> 127399
le a 127375
E F 127373
3 G</w> 127372
haem at 127312
PD GF</w> 127307
keratin ocytes</w> 127302
go als</w> 127267
phot osyn 127237
go es</w> 127207
fa il</w> 127198
ost atin</w> 127197
promis e</w> 127194
am ni 127190
cataly sis</w> 127162
as par 127161
n es 127138
rearrang ements</w> 127134
immuno staining</w> 127099
E D 127057
vas odi 127036
ligam ent</w> 127015
repres sed</w> 126975
charg es</w> 126942
psycho tic</w> 126941
Im pro 126939
L as 126915
ec tor</w> 126913
V e 126882
defini tive</w> 126875
hetero log 126874
S cre 126858
Sy stems</w> 126838
du plex</w> 126827
correspon ds</w> 126819
reser vo 126800
lam p 126762
R α</w> 126711
app ly</w> 126702
CI PA 126691
go v</w> 126674
exp ec 126673
v ice</w> 126668
me et</w> 126642
me al</w> 126622
gen otyping</w> 126610
expon ential</w> 126608
spl it</w> 126539
pred n 126515
fore ign</w> 126502
si RNAs</w> 126488
ou pl 126469
rp m</w> 126468
C hi 126443
Cdc 4</w> 126442
i. p.</w> 126385
horiz ontal</w> 126374
Cur rently</w> 126362
pur ity</w> 126351
AR E</w> 126346
leak age</w> 126305
ga ined</w> 126298
fab ric 126259
Ram an</w> 126232
bur n</w> 126230
TE M</w> 126224
nar row</w> 126195
was te</w> 126194
ga it</w> 126172
micro organisms</w> 126166
bio availability</w> 126134
X 4</w> 126132
ri es</w> 126132
H B</w> 126123
classi c</w> 126112
univer sal</w> 126101
Mo use</w> 126075
prescri ption</w> 126061
H or 126042
in versely</w> 126021
mi as</w> 126020
il ical</w> 125996
monom eric</w> 125970
met formin</w> 125933
N CE</w> 125932
sim ply</w> 125929
at ax 125908
flu ids</w> 125846
E 7</w> 125777
F as</w> 125769
j our 125767
B T 125763
buil t</w> 125719
igh t 125705
ph asic</w> 125694
Trans f 125693
ox al 125678
alcoh olic</w> 125677
si zed</w> 125673
import antly</w> 125672
kappa B</w> 125638
sh e</w> 125603
- dependent</w> 125534
e -</w> 125514
duod enal</w> 125383
pos ing</w> 125315
c row 125296
posi tivity</w> 125287
threa tening</w> 125286
phenomen a</w> 125281
Cauc asi 125261
anesthe tized</w> 125257
Whe ther</w> 125237
some what</w> 125155
po l</w> 125125
L N 125114
com mod 125103
pre -</w> 125102
P ac 125084
ure tic</w> 124991
sud den</w> 124990
tic a</w> 124975
prim ing</w> 124858
BAL B</w> 124847
ha m</w> 124833
po rous</w> 124829
cal f</w> 124784
ish es</w> 124778
h u 124763
ome dical</w> 124759
C ross</w> 124733
7 D</w> 124703
rearrang ement</w> 124700
En gland</w> 124664
fr uc 124615
T SH</w> 124599
L im 124599
S uc 124586
L arg 124570
sph ing 124531
es are 124525
initi ating</w> 124508
F DA</w> 124481
Pro g 124474
R C</w> 124471
ec tom 124468
fac ility</w> 124410
R V</w> 124408
isom erase</w> 124344
A l</w> 124333
pol e</w> 124329
fin ement</w> 124319
J un</w> 124305
aug mented</w> 124296
scaff olds</w> 124264
Bac k 124255
TNF α</w> 124235
see king</w> 124227
vertebra tes</w> 124221
gra phene</w> 124210
Chem ical</w> 124203
M ei 124120
exp ensive</w> 124110
equ ations</w> 124109
ar ate</w> 124078
super family</w> 124075
ation ary</w> 124073
fro nt</w> 124061
hem odialysis</w> 124061
feren ces</w> 124037
C och 124003
B am 123995
ogen es</w> 123966
disp ens 123962
I HC</w> 123949
fal ls</w> 123904
warran ted</w> 123885
PT H</w> 123859
c ure</w> 123795
ac tually</w> 123788
3 E</w> 123766
caus ative</w> 123751
DIN GS</w> 123737
epide mic</w> 123729
N GF</w> 123725
pati ng</w> 123721
pub er 123720
S em 123671
St at 123664
glucocortico id</w> 123617
I Q 123612
v esti 123609
Con clusion</w> 123603
monom ers</w> 123587
galac to 123533
h ard</w> 123524
analge sia</w> 123502
Sec ondary</w> 123499
c ef 123488
nico tin 123482
Under standing</w> 123479
g h 123381
Experim ents</w> 123375
O ve 123369
spec ified</w> 123324
sul fur</w> 123321
an ing</w> 123263
CF U</w> 123260
lam y 123241
ank le</w> 123229
FIN DINGS</w> 123208
m ating</w> 123207
ist ar</w> 123203
B O 123178
Col le 123176
A d</w> 123143
reli ef</w> 123128
brom ide</w> 123113
ther mod 123110
cereb ellum</w> 123075
m es</w> 123061
expl oration</w> 123057
stres ses</w> 123036
An n 122986
prote olysis</w> 122982
esare an</w> 122956
H i 122932
w ritten</w> 122929
a ren 122920
Ap proxim 122892
OR F</w> 122886
B E 122883
Lou is</w> 122874
hy dra 122842
De f 122840
capsul e</w> 122815
lab or</w> 122798
immunore active</w> 122774
fibri ls</w> 122757
in sp 122751
sub til 122734
fir ing</w> 122733
Vari ous</w> 122730
C ir 122707
LE D</w> 122700
myocardi um</w> 122672
cl on 122622
sp ray</w> 122613
p A</w> 122557
C HI 122513
al ters</w> 122481
criteri on</w> 122473
glyco l</w> 122425
Ph en 122406
perox idation</w> 122403
k a</w> 122388
cali bration</w> 122376
Amer ica</w> 122340
ke eping</w> 122328
reci proc 122309
p mol</w> 122303
CRI SPR</w> 122296
AA A</w> 122295
def ining</w> 122248
con cor 122194
et c</w> 122181
F er 122173
α 2</w> 122169
re stra 122165
ten d</w> 122158
3 R</w> 122081
ore r</w> 122079
post synaptic</w> 122069
q 1</w> 122062
gi ant</w> 122060
reproduc ible</w> 122047
Q o 122037
N either</w> 122036
an sw 122017
co ating</w> 121985
tub ation</w> 121956
transcrip tome</w> 121955
inter view</w> 121928
Direc t</w> 121921
id el 121900
fill ing</w> 121828
v an</w> 121807
Six ty</w> 121795
juven ile</w> 121768
arthro plasty</w> 121728
uni versity</w> 121672
regar ded</w> 121644
di s</w> 121630
y outh</w> 121621
Ove rex 121615
Ob j 121608
peri operative</w> 121606
ti tis</w> 121604
acc ession</w> 121601
co factor</w> 121580
p ass</w> 121578
DS B</w> 121558
ï ve</w> 121555
a ero 121514
Com pu 121484
cyclo hex 121444
D u 121426
pro tot 121417
vid in</w> 121417
erythro cyte</w> 121386
B el 121380
cum in</w> 121380
synucle in</w> 121310
accoun ts</w> 121309
ici ently</w> 121293
pri vate</w> 121274
k cal</w> 121255
scho ols</w> 121249
rough ly</w> 121241
5 I</w> 121211
fluctu ations</w> 121180
AA V</w> 121163
clin ics</w> 121150
W istar</w> 121138
intraper itoneal</w> 121123
op in 121117
br ated</w> 121111
b red</w> 121110
R os 121108
ret ard 121095
socio economic</w> 121075
as ts</w> 121063
ere bral</w> 121057
neutr alization</w> 121055
fit ting</w> 121038
se mi 121016
hydro l 121013
energ ies</w> 121012
facilit ating</w> 121009
tail s</w> 120981
mo ving</w> 120973
µ m</w> 120953
ec lamp 120949
elic it</w> 120930
. org</w> 120918
L A 120902
fit ted</w> 120870
op sy</w> 120855
f um 120854
s me 120853
sph eres</w> 120840
Sequ ence</w> 120840
bin ary</w> 120827
TL R</w> 120807
Pre viously</w> 120750
autophag ic</w> 120740
graf ting</w> 120740
c ranial</w> 120736
aw are</w> 120728
program med</w> 120709
n in</w> 120707
ve ter 120689
pol lution</w> 120672
de bri 120669
ste rile</w> 120651
Sm all</w> 120642
bloc kers</w> 120622
Rad 5</w> 120608
mach ine</w> 120607
c us 120596
blo ts</w> 120563
X 3</w> 120560
pro ton 120557
c t 120548
Consi dering</w> 120494
sc ar 120488
M orph 120479
publ ication</w> 120472
Ta i 120437
P ost</w> 120406
pre disp 120366
capsi d</w> 120362
Diag nosis</w> 120298
g lu 120280
ati onic</w> 120277
pro bed</w> 120264
ly so 120263
sac rif 120262
en demic</w> 120228
G D</w> 120223
descri bing</w> 120199
Q OL</w> 120187
opath ies</w> 120127
en di 120117
li um</w> 120071
monol ayer</w> 120000
anthro p 119987
ap o</w> 119962
distingu ished</w> 119958
[...]
