t i 278188134
t h 243253041
i n 219900666
a n 217691322
r e 210476714
e n 172652038
e r 165613587
e d</w> 144413979
o f</w> 136414062
th e</w> 133581460
o n 130270978
o n</w> 124545307
r o 115272062
an d</w> 107616579
a ti 106435235
i n</w> 105361810
a t 104514969
i t 95710914
a l</w> 94809696
a r 93308588
o r 89914619
- @</w> 89911468
@ -@</w> 89911468
s t 85512002
a l 85449824
e s</w> 83169901
s i 82642450
d i 77495185
a s 70200899
a c 69946731
e c 69156952
e l 64270743
i c 63954561
in g</w> 61155464
e r</w> 60159497
t o</w> 56897392
o r</w> 55395271
o m 55230866
u l 53654652
o l 51150636
u r 50520567
ati on</w> 49905272
a s</w> 48651011
t s</w> 46290812
e s 45615469
re s 41879688
p ro 41401561
o s 41210654
en t</w> 38422244
t r 38242098
d e 37511895
u n 37420370
T h 36897269
it h</w> 36696191
w ith</w> 36157315
i s</w> 36110213
v e</w> 35670018
l y</w> 34618480
c on 33706841
a t</w> 33229473
p l 33219220
ti on</w> 32712685
a p 32216672
a n</w> 32001789
c h 30968123
a m 30813367
i l 30559726
i m 30556714
u c 30370661
er e</w> 29994281
e m 29895405
i s 29234655
t er 28932190
a g 28224089
e x 28149898
e n</w> 27600905
i d 27571452
u s 27532734
at ed</w> 27411703
f or</w> 27313133
p h 27139288
a b 27096001
i c</w> 26956583
o c 26892172
w as</w> 26375178
c om 25353311
f f 25256234
Th e</w> 24915701
e t 24740336
it y</w> 24607714
p er 24547162
o u 24327899
w ere</w> 23968853
c e</w> 23888625
on s</w> 23630042
e v 23515528
en ts</w> 23146351
c l 22634933
o g 22332963
o t 22320746
s u 22040327
i g 21342742
q u 20659795
o p 20351829
a d 20236705
at e</w> 19966328
th at</w> 19730306
b y</w> 19520856
m e 19197214
p ati 18278238
o w 18199327
st r 17629420
a r</w> 17622443
l e</w> 17317800
v i 17236280
as e</w> 16973145
i f 16831172
w h 16704395
re n 16612556
u m 16266136
p res 16262615
t ed</w> 16205814
si s</w> 16203449
u d 15658975
d uc 15558977
s e 15415618
in e</w> 15256925
n e 15254461
ar e</w> 14966232
l e 14647922
re d</w> 14619295
s p 14568860
ti n 14503781
c el 14439499
si on</w> 14265861
t e 13920835
ic al</w> 13884316
re c 13833523
h a 13766480
f or 13653829
pati ents</w> 13648554
m o 13639347
i b 13553292
ro m</w> 13491319
ac ti 13266514
f rom</w> 13108751
n o 12972808
g en 12736367
c o 12707755
m ent</w> 12696960
ti c</w> 12626430
l o 12612904
s h 12460526
p a 12264374
e p 12115205
an t</w> 11907913
i r 11828734
ur e</w> 11703522
p o 11625983
m a 11508191
s y 11495879
p re 11488140
v er 11363288
0 . 11267871
p ar 11219891
u t 11200085
e en</w> 11198287
g n 11036833
th e 11020796
e ff 10853705
ro u 10748342
b e</w> 10720169
as s 10633531
en ce</w> 10580539
ti ve</w> 10570978
i z 10562927
r a 10507518
en t 10465879
p or 10436144
ati ons</w> 10409054
u s</w> 10242137
h e 10207004
r i 10202778
ti c 10111920
ig h 10039545
c re 9980159
m on 9801684
re l 9733247
en ti 9685276
v el 9684360
al ly</w> 9660802
si gn 9574154
t er</w> 9392895
t re 9355053
ti m 9306345
u m</w> 9296038
ol og 9238764
h y 9225360
t ro 9213313
o b 9105134
l s</w> 9051013
ar y</w> 9006853
ag e</w> 8809022
on al</w> 8801160
s c 8746555
for m 8744365
b et 8738128
ul ar</w> 8723997
tin g</w> 8715796
th er</w> 8675177
a in 8597734
sp ec 8578995
in f 8577990
en d 8524801
s er 8491554
an g 8491273
if ic 8450974
ou s</w> 8416258
l i 8411618
di c 8403939
di ff 8394772
i d</w> 8374086
tr an 8357831
d er 8345898
st ud 8343213
as ed</w> 8343208
res p 8340333
eff ec 8326822
e ren 8313307
th is</w> 8266804
on e</w> 8244674
t h</w> 8204038
es e</w> 8153133
e ar 8105423
f ac 8067741
an c 8054226
o d</w> 8034489
I n</w> 7904413
al y 7832540
i al</w> 7790013
ati ve</w> 7760017
stud y</w> 7743741
es s</w> 7692072
an ce</w> 7691909
re g 7649276
c or 7614217
v ed</w> 7606929
o x 7485745
no t</w> 7482099
m or 7457735
in ter 7437004
or s</w> 7424755
p os 7282311
cel ls</w> 7233640
o d 7152793
i es</w> 7143798
s ur 7141666
th er 7131776
an t 7094497
a f 7072403
g rou 6990462
su b 6946057
m in 6919179
in cre 6900019
y p 6881329
d ing</w> 6849714
acti v 6830987
diff eren 6793232
sign ific 6744806
ab le</w> 6702881
an ti 6669361
pro te 6622139
er s</w> 6587974
ar i 6528449
ic h</w> 6427562
di s 6420996
o un 6419460
or y</w> 6411572
es s 6401253
b i 6308218
w een</w> 6307501
s e</w> 6296616
an aly 6282785
res ul 6238476
v e 6237067
al l</w> 6236855
oc i 6216681
i a</w> 6188156
bet ween</w> 6175385
st e 6172395
wh ich</w> 6111519
ha ve</w> 6096834
m ic 6073737
re s</w> 6046828
c ar 5978683
t ec 5935646
tre at 5934757
os e</w> 5913589
en c 5905328
ap os 5878177
in v 5860380
& apos 5852268
un c 5849146
us e</w> 5843715
f i 5828544
y m 5811610
in g 5782127
p r 5749403
y t 5676181
al u 5671957
l ev 5664317
ti ons</w> 5657140
as es</w> 5607301
at es</w> 5575611
l ow 5564350
i r</w> 5553257
u t</w> 5552248
th an</w> 5548275
y l 5534923
af ter</w> 5507209
cel l</w> 5504555
treat ment</w> 5487740
es t</w> 5468111
l u 5449035
duc ed</w> 5443245
us ed</w> 5406792
t u 5401790
W e</w> 5373183
a y</w> 5366503
i t</w> 5296594
resp on 5282389
ati n 5281057
ass oci 5227381
a y 5196298
en tr 5191948
lo w</w> 5163750
ul ation</w> 5156437
e st 5153922
it s</w> 5118227
el s</w> 5116197
al s</w> 5113355
com pl 5105231
m un 5102648
il ity</w> 5101952
me th 5101666
i th 5084817
tran s 5055411
b e 5050976
r an 5002680
v ari 5000504
t w 4987621
ar g 4976667
us ing</w> 4937942
ro m 4904077
d s</w> 4903048
v id 4881759
d er</w> 4870986
con tro 4867089
ur ing</w> 4855963
0. 0 4833066
pres sion</w> 4820765
o l</w> 4795399
th ese</w> 4785052
& # 4780578
c ur 4777420
i ti 4770057
&# 9 4769010
di se 4735381
ot h</w> 4717786
h ib 4709295
Th is</w> 4700182
h as</w> 4673512
b een</w> 4670408
f unc 4670374
el ec 4666356
c a 4649547
t or</w> 4640617
ou t</w> 4639334
atin g</w> 4631956
O N 4617177
u di 4601295
igh t</w> 4593993
j ec 4587118
sh ow 4585111
w e</w> 4575404
em ent</w> 4572465
s o</w> 4565673
vel y</w> 4564997
b l 4561977
cl in 4558801
b ut</w> 4557157
N A</w> 4553901
f ol 4550912
de vel 4538397
g l 4527370
b in 4526396
ther ap 4491737
st udi 4456493
cl ud 4456394
v er</w> 4419725
re e</w> 4418451
grou p</w> 4414948
r ap 4409804
mor e</w> 4388279
on g</w> 4377284
ac ter 4363149
t a 4349723
os t</w> 4337714
d ec 4334373
c ol 4328780
i p 4321370
resul ts</w> 4298145
as t</w> 4293471
ma y</w> 4285558
I n 4284334
tw o</w> 4270538
m an 4266165
t en 4264823
am in 4261457
oun d</w> 4260654
m at 4251835
str uc 4223779
1 . 4214187
w e 4205108
s t</w> 4200303
ig h</w> 4190482
activ ity</w> 4172306
prote in</w> 4155848
the ir</w> 4144626
per i 4136170
el y</w> 4134475
r u 4122481
p ol 4104396
devel op 4093276
er al</w> 4088382
h igh 4078589
ha d</w> 4076319
i st 4066338
c an</w> 4049686
at a</w> 4031046
vi r 4021885
t ;</w> 4018946
tr ac 3995230
ou r</w> 3984141
a st 3981079
s ec 3980407
og en 3979575
d uring</w> 3971549
iz ed</w> 3944286
al so</w> 3941639
olog ical</w> 3919248
mic ro 3883886
associ ated</w> 3883721
p e 3858832
b oth</w> 3853400
h igh</w> 3853004
m et 3843154
a v 3842858
con c 3841300
me di 3817223
ul d</w> 3816376
ch ang 3813782
t yp 3811775
1 0</w> 3808450
re qu 3806552
f in 3805235
c r 3792016
dise ase</w> 3783305
t ors</w> 3771463
id e</w> 3730940
es ti 3727009
analy sis</w> 3726379
in hib 3716150
m al 3697086
re por 3696905
sy n 3689464
S I 3683902
pro c 3681717
d e</w> 3665840
pa red</w> 3661927
t ain 3657835
r is 3657606
me as 3651983
g h</w> 3645785
ant ly</w> 3643697
g g 3640987
im mun 3636408
em b 3624009
w ith 3615270
e l</w> 3593397
de p 3583767
2 0 3578301
c ul 3576566
ch em 3574494
in clud 3574373
ab ility</w> 3560762
clin ical</w> 3555397
he al 3555155
om e</w> 3548162
w or 3546981
si ve</w> 3532198
ti onal</w> 3515408
h um 3507902
si st 3498256
s uc 3491335
e d 3489919
n or 3478380
R E 3475859
anc er</w> 3473523
iz ation</w> 3470456
g r 3458087
l in 3454796
su gg 3450828
d ata</w> 3416887
k e</w> 3415373
ec h 3414812
pa th 3414082
po si 3400970
o ther</w> 3389673
ear s</w> 3378475
m ul 3372516
pl e</w> 3363906
s am 3358611
ay s</w> 3354014
t om 3352602
t um 3352512
rap h 3346319
un der 3337714
f ic 3335723
ev er</w> 3335537
it e</w> 3335224
f r 3319373
n i 3315944
C L 3310429
de ter 3310428
ac h</w> 3306066
lev els</w> 3298925
incre ased</w> 3296741
tim e</w> 3285805
p ot 3283305
ex pression</w> 3281750
id enti 3279730
T S</w> 3262713
f ir 3256727
signific antly</w> 3254374
an ts</w> 3253144
e t</w> 3249090
l oc 3239306
d om 3234962
duc tion</w> 3234272
ob ser 3232591
ati c</w> 3225409
rel ated</w> 3224308
t ure</w> 3223183
effec ts</w> 3215037
s en 3214393
pres s 3209716
f ound</w> 3209272
ev alu 3201030
b le</w> 3193096
el l 3175356
in s</w> 3172906
therap y</w> 3166710
g ro 3144842
v en 3143230
signific ant</w> 3140442
M E 3136596
0 0</w> 3135188
effec t</w> 3124739
com pared</w> 3118541
di ag 3113169
d ro 3090364
dep end 3087703
e ar</w> 3085893
ent al</w> 3080235
per form 3076326
S U 3073939
studi es</w> 3065075
c ancer</w> 3062561
com p 3058320
e i 3056843
se qu 3054617
ch ar 3051179
o per 3041004
n o</w> 3033929
pl as 3033653
ti vely</w> 3028104
inf ec 3020100
s ev 3007402
m al</w> 3005474
el l</w> 3000752
ac h 2989897
il e</w> 2988622
al l 2987902
ap pro 2984824
ste m</w> 2982777
og raph 2980215
al ity</w> 2974395
&apos ;</w> 2973746
ris k</w> 2965739
p s</w> 2955348
D S</w> 2954109
u al</w> 2951132
ow ever</w> 2947714
m s</w> 2941994
differen t</w> 2941545
hum an</w> 2940771
su p 2935859
meas u 2935663
in dic 2929925
t o 2920949
l t;</w> 2908862
& lt;</w> 2908862
qu ot 2907005
show ed</w> 2901263
& quot 2898986
&quot ;</w> 2898986
y ears</w> 2892973
il l 2892297
esti g 2884443
&apos ; 2878522
r ate</w> 2872093
vi e 2857009
sur g 2853388
b ased</w> 2852065
contro l</w> 2850330
in duced</w> 2849114
s es</w> 2841500
ou t 2841321
m a</w> 2839449
A l 2836675
olog y</w> 2832582
sh o 2829755
mo d 2828700
e re 2825552
por t 2821725
ti s 2818320
C ON 2812540
inv estig 2805669
ac tion</w> 2802836
an is 2799525
at er</w> 2797147
a ff 2793077
ti es</w> 2791108
conc entr 2789273
T H 2781994
pati ent</w> 2769470
U SI 2757067
f e 2755101
CL USI 2753493
k ing</w> 2753386
u ro 2751466
CON CLUSI 2751021
h o 2748525
m ost</w> 2747618
enti al</w> 2746237
pl ic 2744113
fi ed</w> 2739698
on ic</w> 2734058
om a</w> 2730445
&apos; s</w> 2726546
v al 2722241
in to</w> 2717331
k s</w> 2714762
id ence</w> 2710504
k n 2710177
2 . 2705369
f u 2703932
c es</w> 2701491
m il 2700245
SU L 2697847
m ar 2694237
a in</w> 2693081
form ation</w> 2690933
RE SUL 2690905
ac c 2676678
o ph 2667074
b lo 2664599
RESUL TS</w> 2663809
de tec 2658622
if ic</w> 2640246
it ed</w> 2637187
c y 2636398
c h</w> 2634798
u e</w> 2627487
dec re 2616907
cl e</w> 2616136
enc y</w> 2615072
Th ese</w> 2613466
y n 2608472
ra di 2604761
rec ep 2600675
pres ent</w> 2587353
A C 2587328
ut e</w> 2577956
b o 2576015
c yt 2575466
os ph 2572827
tic al</w> 2569770
ur al</w> 2566646
pro vid 2564802
vi v 2558819
c al 2552536
w ell</w> 2552392
s ol 2544602
g re 2537984
m ech 2535911
d es 2532398
char acter 2529105
ol ec 2528116
tr a 2513774
e g 2508789
e tic</w> 2505784
c ases</w> 2490281
grou ps</w> 2488097
u tion</w> 2484664
ch il 2483131
func tion</w> 2478541
um b 2478150
im pro 2476987
gen e</w> 2472300
k in 2470070
spec ific</w> 2468790
T I 2465217
high er</w> 2459400
oc yt 2454941
si ons</w> 2450418
TH O 2449075
on ly</w> 2445128
resp ec 2440483
o ver 2439232
ME THO 2439143
de l</w> 2428914
con tr 2426123
1 9 2413199
uc le 2413088
v alu 2408794
respon se</w> 2408115
an s</w> 2400485
1 ;</w> 2400170
&#9 1;</w> 2400170
en z 2396328
blo od</w> 2395607
typ e</w> 2390436
m ents</w> 2385888
obser ved</w> 2379629
f l 2378944
tis su 2372462
a il 2371036
3 ;</w> 2368840
&#9 3;</w> 2368840
ec ted</w> 2367692
y si 2353029
ti v 2351218
gro w 2347906
ro s 2346162
th ree</w> 2346149
ing s</w> 2344746
com m 2339349
s ti 2338749
gen er 2337989
hy dro 2334443
l if 2328230
reg i 2326639
u p 2324163
er g 2323258
at ory</w> 2318658
m p 2304769
f lu 2304545
im port 2304366
en g 2302204
mo del</w> 2301943
y l</w> 2297324
de mon 2296090
demon str 2295387
a d</w> 2289823
fol low 2280885
v ing</w> 2275489
D NA</w> 2270757
nor mal</w> 2267652
p op 2264333
i um</w> 2262062
METHO DS</w> 2260964
d ru 2260563
suc h</w> 2253999
sy stem</w> 2253616
wh o</w> 2241541
a th 2238321
on g 2228658
s o 2226723
at ure</w> 2220447
ot al</w> 2218454
1 2</w> 2208528
in c 2201533
heal th</w> 2198758
u p</w> 2194512
ro le</w> 2190346
h ist 2190312
N D</w> 2189960
tec h 2188445
s tim 2187275
ren t</w> 2179717
fac tors</w> 2175263
an d 2172908
par tic 2172834
tic s</w> 2169100
depend ent</w> 2161965
wh en</w> 2160939
b r 2157725
c are</w> 2154863
n on</w> 2150838
ph osph 2141090
C h 2140704
ac id</w> 2137518
5 0</w> 2132670
hy per 2130597
mul ti 2120603
f ib 2117950
H owever</w> 2117532
th rou 2115959
m ut 2115703
m y 2115622
e th 2115003
v as 2114450
com bin 2114178
o ver</w> 2112354
I I</w> 2111246
chil d 2111178
fir st</w> 2110395
z ed</w> 2110256
y s 2107293
ic i 2100296
kn ow 2100053
pr im 2099392
at s</w> 2096902
ent ly</w> 2095315
con di 2091964
ac t</w> 2089713
ex amin 2089588
d el 2088973
pro g 2082589
th ose</w> 2079599
it r 2079540
tre ated</w> 2078836
in al</w> 2078476
inv ol 2075891
for e</w> 2074339
chang es</w> 2073335
m olec 2072161
tain ed</w> 2071572
ph ysi 2062309
2 0</w> 2060986
pro duc 2060541
ass ess 2059043
n umb 2055169
mech anis 2054586
R NA</w> 2050869
con t 2050122
ar d</w> 2048996
s ul 2046855
lev el</w> 2043723
di vid 2041010
po st 2036157
g en</w> 2034956
3 . 2033589
R O 2033537
t y</w> 2030074
as s</w> 2029885
t otal</w> 2028508
m is 2028422
er y</w> 2026978
incre ase</w> 2025458
re n</w> 2020651
or t</w> 2017437
per im 2016380
it al</w> 2015813
ab l 2015736
no sis</w> 2011847
T o</w> 2010914
m emb 2006799
r ang 2005712
cl u 2005424
st em 2004890
od y</w> 2004544
si ble</w> 2003047
ad di 2000661
c ular</w> 2000598
m us 1994590
re vie 1992937
l arg 1992596
l ess</w> 1992280
deter min 1990282
x im 1988261
ab ol 1987978
ati onal</w> 1983926
respec tively</w> 1969760
or g 1966917
o re 1966653
car di 1961914
meth od</w> 1961816
develop ment</w> 1959651
tr i 1959335
l im 1950478
u res</w> 1946968
o sis</w> 1946525
ep ti 1944219
pre dic 1937440
f er 1935787
co un 1929094
grow th</w> 1927117
ag es</w> 1926241
is h 1926146
th s</w> 1925617
ne w</w> 1919714
ter n 1915333
b ody</w> 1913977
tum or</w> 1912054
p er</w> 1910406
perform ed</w> 1900960
a re 1888462
ne uro 1882090
ic ally</w> 1874868
m ac 1873932
od s</w> 1873740
acti ve</w> 1864905
am ong</w> 1863746
a i 1863484
pl ac 1861034
out com 1859393
me dic 1858839
9 5</w> 1858629
os p 1858205
co uld</w> 1856077
E C 1853200
pot ential</w> 1851535
w om 1850845
O N</w> 1849959
child ren</w> 1843812
t em 1841016
s elec 1839349
f requ 1837974
sen si 1836535
cr ib 1836414
di rec 1832591
sub jec 1826948
fac tor</w> 1823647
p at 1821729
en ted</w> 1818232
i v 1815160
y ing</w> 1813236
ma in 1812045
m i 1808128
al ph 1805830
0 1</w> 1803024
l am 1802683
low er</w> 1800702
i ed</w> 1799056
me an</w> 1797999
ph en 1797581
an e 1793813
c ap 1788199
k ed</w> 1787145
d ed</w> 1786557
ter s</w> 1784161
f t</w> 1780097
s ity</w> 1779584
con si 1777720
numb er</w> 1776218
1 5</w> 1772554
ri p 1771877
o us 1769019
with in</w> 1768977
si mil 1765147
c in 1761104
import ant</w> 1760133
C on 1759624
m g</w> 1758783
repor ted</w> 1751044
c ase</w> 1748643
ex perim 1744735
sy stem 1744294
reg ul 1742906
h em 1739928
throu gh</w> 1737507
th ou 1734866
recep tor</w> 1732911
includ ing</w> 1732589
b re 1731852
res s</w> 1730545
d ings</w> 1729964
ad e</w> 1727548
ear ly</w> 1727387
om e 1725526
bi o 1722477
u r</w> 1720889
id s</w> 1715751
is ol 1714611
b ra 1713727
bin ding</w> 1711580
di sc 1709878
iti es</w> 1706414
n on 1700903
rel ati 1695904
y c 1693355
4 . 1690029
am ine</w> 1684351
te st 1681538
we e 1681198
ti l 1679630
re ve 1677328
ex pos 1674670
n ucle 1672409
ograph y</w> 1672169
wom en</w> 1671411
v ol 1669641
n ec 1665052
p ec 1664308
e x</w> 1663986
with out</w> 1663083
ON S</w> 1662978
s ed</w> 1662033
posi tive</w> 1660689
y ear</w> 1660076
A n 1656210
3 0</w> 1656065
tissu e</w> 1655221
r ats</w> 1647190
com par 1647028
mon ths</w> 1646456
n os 1643635
I t</w> 1641334
ag ing</w> 1640978
prote ins</w> 1640053
l ym 1638762
enz ym 1633705
di d</w> 1632577
met abol 1632515
t est</w> 1632009
e ther</w> 1630838
ot yp 1630695
u b 1629077
ol d</w> 1628999
A T 1628362
mic e</w> 1628097
identi fied</w> 1627175
ti on 1625784
ap p 1624555
col l 1624288
a si 1622847
v es</w> 1622020
d ays</w> 1621866
ni qu 1618102
m it 1618058
t ly</w> 1616310
des crib 1614928
fac e</w> 1609526
g o 1608169
the sis</w> 1608164
t arg 1607705
ar ter 1607363
alph a</w> 1605895
it er 1605061
ha vi 1601994
e ach</w> 1595786
ch rom 1591857
S t 1589296
d o 1586939
tiv ity</w> 1586851
i red</w> 1586027
C I</w> 1583690
wor k</w> 1578292
d ue</w> 1575401
C D 1573826
ic e</w> 1572032
th ere</w> 1571039
o id</w> 1566815
d ose</w> 1566291
in divid 1566074
e u 1564434
sugg est</w> 1563778
memb ran 1563683
ing le</w> 1563643
ch r 1563515
g u 1561946
tech niqu 1561577
ogen e 1561305
sc op 1561217
c al</w> 1560292
inhib it 1558604
bet a</w> 1557744
pl es</w> 1554962
min i 1553270
ma j 1552172
g h 1551106
diag nosis</w> 1550191
z e</w> 1549559
n ing</w> 1548170
ver y</w> 1546716
hy po 1546109
per c 1544686
CONCLUSI ONS</w> 1544531
w il 1543139
re sist 1540096
tu res</w> 1536486
oper ative</w> 1533505
c at 1532697
ti s</w> 1530654
fin dings</w> 1530552
or der</w> 1529281
s k 1529122
sy mp 1528920
vir us</w> 1526888
thou gh</w> 1525533
oc cur 1519190
et y</w> 1517947
ar di 1516022
infec tion</w> 1513581
inf lu 1513507
on d 1513125
fu l</w> 1512344
acti ons</w> 1511193
ous ly</w> 1510501
fic ation</w> 1507761
i p</w> 1507665
be havi 1503492
sur viv 1497137
al e</w> 1496414
5 . 1496339
pres ence</w> 1486820
or al</w> 1483653
ur ther</w> 1480035
is e</w> 1479091
dru g</w> 1478998
a x 1478845
l l 1477823
in iti 1477474
C om 1477009
bra in</w> 1476549
b ec 1474613
ser um</w> 1474331
f il 1474228
m ot 1473541
ad ul 1473314
it es</w> 1472520
vas cular</w> 1471474
prim ary</w> 1471283
wh ile</w> 1469403
for m</w> 1467042
diag nos 1465212
a sis</w> 1464163
in t 1462609
surg ery</w> 1458965
w ay</w> 1457221
p ri 1457008
ati s 1455067
s ingle</w> 1452084
ex pl 1451098
or e</w> 1447263
re duced</w> 1446310
ox id 1446009
i l</w> 1445863
simil ar</w> 1439984
f em 1438982
l ab 1436922
1 4</w> 1436222
P ro 1435108
en h 1435028
activ ation</w> 1434888
ent ation</w> 1434508
differen ces</w> 1432195
pop ulation</w> 1432057
ex trac 1430230
s ing</w> 1425969
A s</w> 1422887
h osp 1420793
ros s</w> 1419588
al ed</w> 1418804
ad mini 1418746
know n</w> 1416636
ev idence</w> 1414360
r ati 1412030
in tr 1411096
pol y 1410754
ear ch</w> 1408783
d ay</w> 1406878
inf lam 1403434
mor ph 1402367
spec ies</w> 1402167
sup por 1401840
ob tained</w> 1401288
at ely</w> 1400445
P C 1399861
plas ma</w> 1398231
ac y</w> 1396999
l ine</w> 1395722
b acter 1394165
2 5</w> 1393399
a u 1393110
gen es</w> 1391427
6 . 1390849
pre vi 1390197
studi ed</w> 1388025
j u 1387304
f o 1387166
ab out</w> 1386315
revie w</w> 1385398
a ut 1384640
1 1</w> 1384143
f am 1380806
differen ti 1378559
l at 1377758
rec ei 1375114
stim ul 1374906
decre ased</w> 1372738
un der</w> 1372240
en e 1371612
s ome</w> 1370979
d en 1369561
is m</w> 1366595
sy ch 1362055
v is 1359914
measu red</w> 1359453
condi tions</w> 1355926
er i 1352960
ro ph 1352589
p ul 1351531
Th ere</w> 1351389
ish ed</w> 1351097
ne ur 1349160
t al</w> 1348190
K G 1347673
e qu 1347481
g s</w> 1346529
B AC 1344679
l ong</w> 1342430
m ental</w> 1340154
cl es</w> 1338632
1 6</w> 1335840
7 . 1331039
ter m</w> 1330216
symp tom 1328196
RO U 1328098
concentr ation</w> 1326993
follow ing</w> 1326766
2 4</w> 1325764
k ers</w> 1325288
BAC KG 1324689
BACKG ROU 1324532
s el 1323894
comm on</w> 1322996
j ur 1322954
p an 1322876
BACKGROU ND</w> 1322769
p ur 1321974
sho uld</w> 1321451
lym ph 1318242
am e 1318191
ar ti 1318127
li ver</w> 1317485
ec t</w> 1317053
compl et 1316058
addi tion</w> 1315375
concentr ations</w> 1314055
as si 1311843
ac ute</w> 1311497
n er 1310773
v enti 1310186
a z 1309333
m all</w> 1308545
gl uc 1307838
1 8</w> 1307806
I V</w> 1305125
d es</w> 1302507
develop ed</w> 1301519
cel l 1300931
itr o</w> 1297112
tran sc 1293787
ic s</w> 1293720
1 3</w> 1292898
repor t</w> 1289954
l ac 1289720
R es 1289318
reve aled</w> 1289237
rang e</w> 1288534
st ate</w> 1288271
peri od</w> 1287268
im pl 1286361
cor rel 1285497
chem ical</w> 1284330
a di 1283899
re duc 1283497
g e</w> 1283460
in te 1281974
on d</w> 1280159
ex c 1279509
surviv al</w> 1276850
C A 1276827
subjec ts</w> 1276069
ar t</w> 1275881
v ement</w> 1275684
b one</w> 1274768
on sh 1273560
1 0 1269843
f ul 1268221
E x 1268184
elec tr 1267869
the y</w> 1265187
ain s</w> 1259466
P A 1258082
co h 1257718
chang e</w> 1257668
ne g 1257277
an im 1256267
investig ated</w> 1255591
demonstr ated</w> 1254813
di ab 1253087
character is 1252813
d rom 1251109
ch ol 1250505
res sion</w> 1249732
elec tro 1249336
sho w</w> 1246366
c op 1244772
di str 1243273
chr onic</w> 1241589
in jur 1241444
effec tive</w> 1241352
compl ic 1239507
s mall</w> 1237493
ag ement</w> 1237075
proc ed 1235224
ven tion</w> 1235163
v itro</w> 1235119
st ress</w> 1233045
anc ed</w> 1231932
ig n 1231842
f our</w> 1231200
st er 1230508
ocyt es</w> 1228119
m ine</w> 1227255
molec ular</w> 1226941
ei ther</w> 1225408
enc es</w> 1224422
struc ture</w> 1224217
est er 1223597
includ ed</w> 1222650
pr acti 1221961
p sych 1221511
m en 1220148
ad v 1218414
res earch</w> 1218394
we ight</w> 1217452
k e 1216858
es ting</w> 1216614
a c</w> 1215134
press ure</w> 1214444
press ed</w> 1214425
membran e</w> 1208073
sam ples</w> 1206326
larg e</w> 1205899
un d</w> 1205478
CONCLUSI ON</w> 1205468
t ox 1203675
relati onsh 1203113
c er 1201540
yn am 1200116
maj or</w> 1199314
sugg est 1198245
re si 1197942
pa in</w> 1197629
4 0</w> 1194751
r ates</w> 1194703
compl ex</w> 1193549
k g</w> 1191800
examin ed</w> 1191621
func tional</w> 1191578
an y</w> 1190201
O B 1189583
car cin 1187894
sur face</w> 1186605
lo b 1185283
ol e</w> 1184804
w ater</w> 1183292
eff ici 1181410
c ir 1180446
ox y 1179842
ain st</w> 1179403
J EC 1178997
evalu ated</w> 1174786
oc c 1173341
I L</w> 1172361
M e 1169068
em ia</w> 1168911
ab s 1166478
determin ed</w> 1166432
proc ess 1166069
b ility</w> 1166052
W h 1165063
con tin 1164627
meth ods</w> 1164622
pro duction</w> 1164440
8 . 1163886
pro b 1162688
appro ach</w> 1162314
ag ainst</w> 1162169
o f 1161998
i tion</w> 1161423
der s</w> 1160998
g a 1158587
di es</w> 1157453
p u 1154059
se t</w> 1153457
par ti 1153441
O ur</w> 1152256
deter mine</w> 1150547
ph ase</w> 1150394
ren al</w> 1149530
ve l</w> 1148242
TI V 1148052
syn drom 1146743
n ess</w> 1146704
d r 1143059
ant i</w> 1142291
f urther</w> 1140855
1 00</w> 1140571
transc rip 1138134
g ra 1137964
partic ip 1137275
pro per 1136524
el d</w> 1135098
l os 1134282
es tim 1132286
OB JEC 1132116
A c 1131997
l un 1131863
qu ality</w> 1130571
vir on 1130480
po in 1127724
m in</w> 1127707
cur rent</w> 1126872
st and 1126744
us es</w> 1126362
OBJEC TIV 1126309
disc us 1123206
qu anti 1122911
be fore</w> 1122442
ap plic 1119476
s ch 1118498
ar ly</w> 1118055
distr ib 1117984
re le 1117531
valu es</w> 1115154
con duc 1114073
E R 1113351
er c 1111556
mus cle</w> 1110904
ta ke</w> 1110295
g t;</w> 1110084
& gt;</w> 1110084
in formation</w> 1109575
ver se</w> 1108673
sam e</w> 1108250
v s</w> 1105932
1 7</w> 1105380
op ath 1104723
c an 1104134
b as 1103381
r at</w> 1102491
tain ing</w> 1101341
symptom s</w> 1101337
ome tr 1101215
D i 1100888
a e</w> 1099837
gre ater</w> 1097180
ic ity</w> 1096199
si de</w> 1094153
f ree</w> 1093713
heal th 1093429
is t</w> 1092932
lif e</w> 1091176
ain ing</w> 1090490
li ke</w> 1090421
str ation</w> 1090003
h or 1089748
proc ess</w> 1085748
mo di 1082719
posi tion</w> 1082696
wh ether</w> 1079204
f ail 1078099
en ing</w> 1077990
de m 1077874
wil l</w> 1077037
o therapy</w> 1075808
a use</w> 1074118
en viron 1073600
6 0</w> 1073579
contr ib 1073378
vari ous</w> 1073360
provid e</w> 1071747
at us</w> 1069233
spec tive</w> 1068737
show n</w> 1067909
under st 1067256
el ial</w> 1067057
f y</w> 1066484
t ality</w> 1065389
neg ative</w> 1064205
in jec 1062509
ane ous</w> 1062186
as ing</w> 1061914
f oc 1060741
di st 1057029
S C 1055838
f low</w> 1053789
respon ses</w> 1053649
man agement</w> 1051976
av ail 1051254
con sist 1050866
A d 1050665
expos ure</w> 1050581
e al</w> 1049264
ell ular</w> 1049255
ex peri 1049021
im p 1048558
ta in</w> 1048283
si ze</w> 1048210
tic ally</w> 1042495
at eg 1042329
p epti 1041204
fol low</w> 1040334
surg ical</w> 1038463
olog ic</w> 1036576
comp on 1036370
ur ation</w> 1035945
detec ted</w> 1035731
ul es</w> 1035684
de fic 1035522
cyt o 1033419
rati o</w> 1032716
v al</w> 1030410
0.0 5</w> 1027055
h om 1025808
en s</w> 1024514
invol ved</w> 1023832
mechanis ms</w> 1023750
syndrom e</w> 1023550
pres ented</w> 1022990
enzym e</w> 1019490
wh ere 1018006
pos sible</w> 1017391
wee ks</w> 1017203
f eren 1016769
multi ple</w> 1016512
suc c 1015323
sev eral</w> 1015040
om ic</w> 1014576
l ong 1014126
en e</w> 1012056
no vel</w> 1011399
mor tality</w> 1011233
og ni 1010935
proper ties</w> 1008757
rec ur 1006951
ren ce</w> 1006842
tin al</w> 1006348
clu sion</w> 1006320
at or</w> 1005148
m uc 1003710
sel f</w> 1002657
o th 1002353
u k 1001013
outcom es</w> 998239
pro tec 997374
T w 995874
ag ed</w> 993808
at ures</w> 993762
com mun 993608
O n 993511
im aging</w> 992620
b il 991508
lun g</w> 990978
perform ance</w> 989351
differen ce</w> 989338
de fin 988052
ll ed</w> 987839
t ur 984370
resist ance</w> 983690
therap eu 982900
man y</w> 982331
de red</w> 982106
assess ed</w> 979737
measu re 979617
flu o 979316
medic al</w> 978638
li p 978327
t en</w> 977808
A L 975737
regi on</w> 974254
car b 973767
tom y</w> 973620
he art</w> 973493
s cre 972716
n an 972467
associ ation</w> 971706
rec or 971513
n al</w> 971062
re duction</w> 970896
at r 970552
et es</w> 970437
contro ls</w> 968855
str ateg 968717
s al 967244
I N 967050
con fir 965455
los s</w> 964672
mod els</w> 963565
i ly</w> 962167
S T 961981
viv o</w> 959592
mechanis m</w> 959410
immun e</w> 957957
at h</w> 957615
l ight</w> 955956
where as</w> 955933
o ur 955816
c entr 954444
1 9</w> 954144
org an 953705
un d 953632
est abl 953104
d u 953056
y st 951829
en d</w> 950176
sti tu 950151
et al</w> 949838
injur y</w> 949775
par ame 949618
al ized</w> 949588
s ite</w> 949551
ar mac 948695
E n 948267
m ed</w> 947965
de f 947802
le uk 947589
I m 945513
lif er 945442
isol ated</w> 945257
gr ad 945172
h el 945069
pre gn 944840
pos e</w> 944043
ad en 943872
N e 943290
C T</w> 943283
o st 942815
ec tion</w> 941179
typ es</w> 940861
in duc 940540
bo dies</w> 940427
yl ation</w> 938947
ogene sis</w> 938620
e p</w> 938430
sequ ence</w> 937902
mat ory</w> 937555
medi ated</w> 936962
P ati 935493
frequ ency</w> 934395
anc y</w> 933770
ograph ic</w> 931605
p ap 931103
m ag 929999
sev ere</w> 929527
a ro 929462
ang i 927156
oc ardi 926934
anc es</w> 926909
ac et 926122
2 1</w> 925992
C O 924287
G F</w> 923841
in sul 922672
tu b 922538
pro lifer 921739
H e 920621
m ass</w> 920498
y ro 918223
at al</w> 917487
analy zed</w> 917071
bl oc 915730
o ch 915325
em ents</w> 914880
com po 914024
is h</w> 913907
v entr 912057
cy cl 911670
res c 909961
be ing</w> 909541
H IV</w> 909166
am p 908912
A M 906743
sensi tivity</w> 906461
b ac 906208
st age</w> 906129
t ural</w> 904231
evalu ate</w> 903844
ran dom 903507
tran sp 902923
c ere 902412
i e 902189
val ence</w> 901850
techniqu e</w> 901122
us e 900306
a ir 900111
ass ay</w> 899931
contin u 899723
a ver 898562
inhib ition</w> 898342
mon ary</w> 898309
em s</w> 897655
ic es</w> 897647
therapeu tic</w> 896623
su s</w> 896091
cal c 895614
fu sion</w> 895270
reg ulation</w> 895125
suppor t</w> 894451
iz e</w> 894447
s mo 894266
t end 894044
li k 893415
pos ed</w> 892841
valu e</w> 892830
contr ast</w> 891841
are a</w> 891223
y r 890141
characteris tics</w> 890008
relationsh ip</w> 887736
iti s</w> 887728
A n</w> 887253
s us 887065
dise ases</w> 886574
der i 885930
d ys 884805
w a 884551
fam ily</w> 884001
ti n</w> 883488
gen etic</w> 882905
tem per 882156
i an</w> 881288
in ten 881052
i on</w> 880898
vi a</w> 880861
vol um 880694
ag on 879896
Al l</w> 878426
0.0 0 877823
ogen ic</w> 877388
al ization</w> 877157
a m</w> 876389
cl assi 875978
gr am 875914
9 . 875811
pe a 875590
ic ular</w> 875417
sec re 875383
ter min 875106
an n 871367
inflam matory</w> 871185
et er</w> 867137
le ft</w> 866977
w ays</w> 866590
ph ot 865501
hosp ital</w> 865116
gluc ose</w> 863823
parame ters</w> 863473
st atis 863384
decre ase</w> 862562
individ u 862310
8 0</w> 862264
S A</w> 860645
le sions</w> 859081
outcom e</w> 859005
con struc 858515
M S</w> 858234
ec ts</w> 858012
combin ation</w> 857839
met ast 857133
detec tion</w> 857117
Al though</w> 856920
pu bl 856508
de x</w> 856306
al ing</w> 856272
o t</w> 856184
d os 856016
ain ed</w> 855036
erg y</w> 853761
ser v 853399
health y</w> 852802
in ary</w> 852753
ma in</w> 852163
mis sion</w> 851727
re action</w> 851525
ex p 850962
bre ast</w> 850211
inc idence</w> 849934
ic h 849404
oc ial</w> 848621
A I 847621
l og 847537
admini stration</w> 846445
ic ul 846056
pos t</w> 845197
P re 844940
pro f 844784
is on</w> 844473
con taining</w> 844450
cell ular</w> 844325
0.0 01</w> 843838
e ding</w> 843203
me tr 842747
es c 841336
s af 841227
fi ve</w> 840611
U n 840328
trans pl 840060
ist s</w> 839779
A D 839602
indic ate</w> 839010
mal e</w> 838679
system s</w> 837946
re tro 836138
R e 835900
st atus</w> 835729
ca used</w> 834571
ab il 834016
l as 832930
th rom 831668
k er</w> 830320
h owever</w> 830160
ad ing</w> 829858
vi ties</w> 829551
requ ired</w> 829315
it ation</w> 828906
e ph 828760
describ ed</w> 828754
ic acy</w> 828021
ab ly</w> 827432
deri ved</w> 826614
he pati 824803
cardi ac</w> 823764
b ene 823044
ten sion</w> 821883
rele ase</w> 820983
consi dered</w> 819664
ac cur 819656
an ding</w> 819602
ca use</w> 819419
distrib ution</w> 818709
or ig 817911
s ites</w> 817852
n it 817829
test ed</w> 817523
i di 817163
evalu ation</w> 815646
l ig 815530
si m 813933
follow ed</w> 813374
inte gr 812463
or ders</w> 811677
g e 811499
tum ors</w> 811457
per s 809995
op tim 809598
s y</w> 809566
si g 809432
recep tors</w> 809117
or ing</w> 808161
previ ously</w> 806530
o di 805747
high ly</w> 805477
ag g 804467
avail able</w> 803519
the si 803002
spec ific 801619
os om 800938
sec ond</w> 800895
st s</w> 800577
M R 800291
anim als</w> 799233
syn thesis</w> 798909
A f 798434
pro mot 798273
otyp e</w> 798067
ul ts</w> 797276
R ec 796907
carcin oma</w> 796709
ph armac 795996
dis tin 795278
en s 794647
resul t</w> 794487
s oci 793404
A B 793133
9 0</w> 792207
F or</w> 792101
targ et</w> 792080
20 0 791996
I C 791735
i ev 791579
l iter 791479
scop y</w> 790279
in es</w> 790086
identi fy</w> 789495
conduc ted</w> 789279
H ere</w> 788841
th ro 788719
pro duced</w> 788566
correl ation</w> 788552
immun o 787832
A ND</w> 787045
investig ate</w> 787005
insul in</w> 786779
e ts</w> 785800
m RNA</w> 784788
OBJECTIV E</w> 784604
direc t</w> 783832
on ary</w> 783247
el ev 782790
complic ations</w> 782155
if ied</w> 782107
p tion</w> 781908
Pati ents</w> 781815
kin ase</w> 781070
ex hib 780481
l es</w> 780377
ai m</w> 779526
O R</w> 779346
recei ved</w> 779179
experim ental</w> 779009
amin o</w> 778549
ap pl 778156
in ation</w> 777432
bec ause</w> 777143
ra m</w> 776622
del i 776514
tin e</w> 775639
res t</w> 774530
defic i 774297
ul e</w> 774007
Af ter</w> 773170
ma xim 773027
m er 772229
m l</w> 772118
C a 771615
o ste 771364
ass ess</w> 771329
influ ence</w> 771146
dru gs</w> 771082
ex pressed</w> 770852
b ro 770049
o s</w> 769607
all eng 768839
ot ox 768330
P O 768274
co ur 767673
2 2</w> 766944
atr ic</w> 766532
ep ith 765112
imp act</w> 764973
fe atures</w> 764813
gl yc 763889
eff icacy</w> 763479
C R 763234
mat er 761860
anti bodies</w> 761765
op to 760257
de ath</w> 760050
impro ved</w> 759861
diab etes</w> 759301
bet ter</w> 758830
gen eral</w> 758197
assess ment</w> 758084
E ff 757823
r h 757290
tran si 757250
n at 757080
ri al</w> 756976
el ine</w> 756833
u ted</w> 756687
stand ard</w> 756295
t oc 754889
car ri 754762
y s</w> 754550
d ynam 753727
aly sis</w> 753624
stim ulation</w> 753203
ho w</w> 753030
A s 752403
int es 751543
i f</w> 751278
con f 750369
he ter 750057
su ff 749503
pre valence</w> 749478
adul t</w> 749167
in trac 748284
s in 747996
individu als</w> 747448
on es</w> 746810
at ten 746487
c ri 746162
iv en</w> 746156
d am 745985
hydro x 745846
ocyt e</w> 745672
volum e</w> 745444
mon it 745370
d ow 745330
Res ults</w> 745154
str ic 744227
u re 744137
aff ected</w> 743868
m m</w> 742792
fail ure</w> 741903
hor mon 741847
gener ation</w> 741265
path way</w> 740984
ch alleng 740813
le d 740585
7 0</w> 740002
i ally</w> 739099
the tic</w> 738753
fi eld</w> 738578
un i 738202
ap opto 737910
sk in</w> 737313
lik ely</w> 736626
h al 736085
I g 735938
h er 735105
l eng 734763
tim es</w> 733098
k en</w> 732954
im pa 732858
ro sis</w> 731859
e y 731635
si onal</w> 730706
pl o 730662
S E</w> 730235
o ff 730125
H C 729330
sub st 729270
t le</w> 729151
ati n</w> 729010
arter y</w> 728887
ol ic</w> 727592
pol ym 726806
acti vities</w> 725298
physi cal</w> 725022
sam ple</w> 724585
sur ve 724210
ant ation</w> 723479
fr ac 723373
ol y 723294
g am 722342
inv a 722123
cont ent</w> 721728
un ds</w> 721307
anti body</w> 720583
1 , 720408
ul ations</w> 720318
th en</w> 718734
A R 717885
at ors</w> 717835
liter ature</w> 717684
A r 717597
h ep 715962
u til 715918
incre asing</w> 715666
id ity</w> 715010
a im 713730
par t</w> 713426
tissu es</w> 713348
in dependent</w> 712975
D E 712785
pat tern 712551
sensi tive</w> 712484
over all</w> 712252
si mul 712200
fluo resc 712021
w o 711812
indic ated</w> 710559
1 2 710476
trans f 710265
r ing</w> 710100
pul monary</w> 708710
en ergy</w> 708200
ox ide</w> 707892
A P 707561
dis orders</w> 707557
r y 706729
pl at 706160
c ross</w> 705836
b el 704614
pl ay</w> 704492
ev en</w> 704158
rel ative</w> 704147
feren ce</w> 704049
radi ation</w> 703899
individ ual</w> 703692
s l 703195
m en</w> 703085
ad ju 702956
inter action</w> 702578
dom in 702129
inter vention</w> 701298
analy ses</w> 701183
o m</w> 701063
v acc 700459
si x</w> 700224
in dex</w> 699129
ol s</w> 699048
wh ere</w> 698997
neur ons</w> 698937
w ent</w> 698821
o p</w> 695714
y oun 695492
ol ution</w> 694922
1 3 694767
t ation</w> 694467
fem ale</w> 693723
cor related</w> 693631
cal cul 693103
temper ature</w> 692881
of ten</w> 692633
u sion</w> 692496
mal ign 692113
mo use</w> 691598
ter n</w> 691552
sequ ences</w> 691377
den sity</w> 690884
tu red</w> 689597
ne ed</w> 688805
is ed</w> 688673
sig n</w> 688661
led ge</w> 688183
or b 688146
contro lled</w> 686995
character ized</w> 686798
le ast</w> 684293
m ade</w> 683872
proced ure</w> 683440
vir al</w> 683300
complet e</w> 682861
o red</w> 682187
br al</w> 680305
at eral</w> 680256
impro ve</w> 680182
under went</w> 679976
sc ore</w> 679008
o tic</w> 678480
b ri 678159
appro xim 677733
l y 677644
19 9 677556
ver sus</w> 677515
i sion</w> 676860
R N 676680
N o</w> 675913
so ur 675386
i de 674047
iz ing</w> 673970
aver age</w> 673934
particip ants</w> 672904
pat tern</w> 672340
ud e</w> 672196
the re 671714
diagnos tic</w> 671531
am oun 671353
o ti 670335
poin t</w> 670139
1 4 670031
gh t</w> 669608
str ains</w> 668029
ro p 667881
p rec 667230
pattern s</w> 666478
N F</w> 666156
n et 666082
demonstr ate</w> 665584
se par 665210
ke y</w> 665020
bi ological</w> 664524
initi al</w> 664441
enh anced</w> 663968
ste red</w> 663482
cul ture</w> 662834
B M 662558
b or 662185
ob jec 661799
s co 661782
I II</w> 661520
P s</w> 661461
b ur 661422
ven ess</w> 661200
te red</w> 660407
ad he 659772
enc ed</w> 659446
techniqu es</w> 658944
regi ons</w> 658745
ati vely</w> 657974
ir atory</w> 657187
obser v 656728
succ ess 656709
reg ar 656054
P h 655858
E S</w> 653879
occur red</w> 653422
cor ding</w> 652980
g iven</w> 652957
test s</w> 652337
m ight</w> 651984
ag ents</w> 651846
i . 651822
n er</w> 651432
appl ied</w> 651158
phosph or 650961
2 8</w> 650880
om as</w> 649959
abl es</w> 649485
centr al</w> 649166
combin ed</w> 648945
cor onary</w> 648533
S D</w> 648486
P A</w> 648210
an ds</w> 648069
re mo 647883
A t</w> 647342
id ne 647285
pot enti 647209
cl os 647009
r ight</w> 646818
mo der 646808
u ally</w> 646566
adul ts</w> 646493
end oth 646448
ur ther 645665
s ocial</w> 645645
al es</w> 644827
si l 644162
ful ly</w> 644148
urther more</w> 642458
are as</w> 641717
ond ary</w> 641375
ev ents</w> 641221
mi x 640623
al low 640055
tr ial</w> 639980
pa ren 639902
2 3</w> 639892
su m 639719
activ ated</w> 638643
ex erc 638598
ach iev 638499
min im 638045
t ol 638042
pap er</w> 637378
3 5</w> 636679
inhibit or</w> 636580
gre es</w> 636312
leng th</w> 635709
str y</w> 634604
P D</w> 634491
loc al</w> 634328
on t 634280
behavi or</w> 633321
re pe 633220
sign aling</w> 632857
inhib ited</w> 632824
struc tural</w> 632736
e duc 632678
know ledge</w> 632324
process es</w> 632321
th al 632274
gu id 631887
w ide</w> 631847
b ir 629597
Tw o</w> 629549
p H</w> 629210
5 3</w> 628950
se en</w> 628733
PC R</w> 628733
ut es</w> 628558
pepti de</w> 627765
ay ed</w> 627742
coll ected</w> 627742
lim ited</w> 627565
infec ted</w> 627170
qu e</w> 626957
discus sed</w> 626110
de grees</w> 625832
prolifer ation</w> 625680
och ond 625443
spec tr 625431
lin es</w> 624674
struc tures</w> 624098
erg ic</w> 623888
F urthermore</w> 623284
anti gen</w> 623259
ventr icular</w> 623197
the m</w> 623166
ex t</w> 622495
peri ph 622366
un it</w> 622296
w id 621745
s em 621718
spec tro 620714
practi ce</w> 620015
7 5</w> 619995
sign ed</w> 619426
sh ort</w> 619381
di men 619156
in e 618264
rec ent</w> 618193
compo unds</w> 618108
par t 617829
wo uld</w> 617633
compar ison</w> 617276
ch ain</w> 617229
ch arg 616692
l it 616582
G F 616442
ne ed 615779
resul ted</w> 615461
use ful</w> 615388
cor rec 615161
go od</w> 615102
ul tr 614551
inter actions</w> 614450
er ing</w> 614354
th yro 614183
. 0 614050
fol d</w> 613630
reg ression</w> 613393
se g 613385
c ogni 612634
or ption</w> 612120
D is 611719
U sing</w> 611465
re main 611402
plas m 611377
k idne 610033
form s</w> 609328
intes tinal</w> 608894
tr aining</w> 608552
s it 608107
confir med</w> 608012
oph ag 607820
ut ure</w> 607391
revie w 607279
m el 606947
cr iter 606914
suggest ed</w> 606759
tech n 606518
P T 606407
au th 605899
ec tomy</w> 605577
hist ory</w> 605328
- - 605276
mag ne 605216
d uration</w> 604729
c i 604131
m ation</w> 603952
s w 603762
bacter ial</w> 603257
incre ases</w> 603074
defin ed</w> 602275
tri als</w> 601060
0.0 1</w> 601003
m ig 599616
ner ve</w> 599463
de v 599159
mo l</w> 598890
re pres 598832
is tic</w> 597473
o vascular</w> 597411
injec tion</w> 596655
n ur 596389
P E 596075
measu res</w> 596047
su per 595844
medi an</w> 595004
an e</w> 594865
ac ross</w> 594058
ch o 594053
applic ation</w> 593315
st re 593297
l or 593286
underst anding</w> 592790
t op 592721
bas eline</w> 592657
an al 592434
ast ro 592431
a k 592219
ra y</w> 592122
c ou 592067
pan cre 591885
d oc 591766
suggest s</w> 591349
scre ening</w> 591051
calc ium</w> 590511
experim ents</w> 590386
e b 590290
fib r 590139
sco res</w> 590004
selec ted</w> 589955
o in 589776
ur ine</w> 589721
t ow 589355
ul ated</w> 588999
nec ess 588789
al coh 587858
e red</w> 586853
ar ds</w> 586497
establ ished</w> 586495
S ur 586232
l ay 585434
pa ir</w> 585148
t able</w> 585137
ch ed</w> 584385
P ar 583950
re comm 583139
im plic 582848
approxim ately</w> 582845
P L 582701
os cop 582534
ver sity</w> 581773
d ra 581149
0 00</w> 580810
om y</w> 580746
pro posed</w> 580631
metabol ism</w> 580529
C o 580414
str ain</w> 580206
S E 580039
ur s</w> 579988
t ory</w> 579489
dam age</w> 579126
sub sequ 578551
acc um 578291
4 5</w> 577718
P S</w> 577622
previ ous</w> 577132
sub str 576062
sugg esting</w> 575845
Th us</w> 575833
D e 575506
bi om 574968
func tions</w> 574837
consi der 574310
ep t</w> 573505
n u 573220
2 7</w> 572019
pro por 571981
sec ondary</w> 571862
p ow 571697
ter i 571501
nor mal 571497
esti on 571002
On e</w> 570990
emb ry 570335
exerc ise</w> 569870
ga str 569349
mut ations</w> 569348
differenti ation</w> 568618
periph eral</w> 568509
diagnos ed</w> 568175
my ocardi 568154
He al 568153
4 8</w> 567879
gl ut 567836
h ar 567752
st ro 567692
og en</w> 567066
cap ac 566778
sc ale</w> 566713
con clud 565666
id es</w> 565623
dis order</w> 565252
measure ments</w> 564685
ad ap 564601
al tern 564593
examin ation</w> 564514
l l</w> 564280
apopto sis</w> 564249
quanti t 563529
2 6</w> 563038
r im 563018
A P</w> 562880
is chem 562587
1 5 562502
C lin 561760
arti cle</w> 561732
o v 560931
rel ev 560797
pop ulations</w> 559855
form ed</w> 559630
pregn ancy</w> 559554
d o</w> 558662
pro gram 557632
post operative</w> 557369
st able</w> 557332
gl y 557050
C T 556178
vis ual</w> 555919
metabol ic</w> 555301
ac ids</w> 554771
es pec 554766
dom ain</w> 554386
y i 553790
ess ential</w> 553730
espec ially</w> 553242
al one</w> 553119
3 1</w> 552835
Th e 552327
d ou 552305
3 6</w> 551947
p ite</w> 551530
1 6 551452
d on 551399
r are</w> 551331
mit ochond 551223
compon ents</w> 551168
provid es</w> 550704
ai ly</w> 550271
3 2</w> 550051
cri tical</w> 549863
s et 549735
c t</w> 549586
medi ate</w> 548626
infec tions</w> 548483
venti onal</w> 548315
1 8 548219
do es</w> 547603
Wh en</w> 546390
sol ution</w> 544473
de sign</w> 541733
ic ro 541600
t esting</w> 541599
le ad</w> 541529
dic al</w> 541515
th us</w> 541506
T R 541391
se x</w> 540794
enc ing</w> 540742
b u 540537
b asis</w> 540412
bi op 540014
oxy gen</w> 539744
a or 539659
requ i 539657
compl ex 539224
cour se</w> 538405
experi ence</w> 538194
hosp it 537758
c u 537642
lip id</w> 537544
transcrip tion</w> 537532
B i 536946
or i 536842
sti ll</w> 536752
oc y 536611
cogni tive</w> 536496
fr ag 536445
b al 536331
ad s</w> 536201
con ver 536132
ul arly</w> 536048
ac cording</w> 535580
le ar 535575
el ing</w> 535420
r ine</w> 535253
criter ia</w> 534742
ent er</w> 534522
effici ent</w> 534477
fac il 534196
prog ression</w> 533991
tra um 533930
or atory</w> 533042
ho urs</w> 532785
v it 532651
m id 532079
re fl 532078
resist ant</w> 532020
aff ect</w> 531855
sign al</w> 531758
ser ies</w> 531667
sen s 531198
is o 530878
electr on</w> 530124
strateg ies</w> 529931
st ability</w> 529893
Q u 529463
on set</w> 529019
impro vement</w> 528942
wee k</w> 528232
rap id</w> 527353
cl ear</w> 527171
am pl 526935
in tra 526820
rec over 526724
g lob 526660
de g 526418
resi d 526329
cor respon 526254
diff icul 526181
addi tional</w> 526131
th i 526013
estion n 525855
resp iratory</w> 525600
A D</w> 525433
ut aneous</w> 524691
di g 524114
I F 523646
cy cle</w> 523629
m es 523450
meth yl 523360
path ways</w> 522930
sc i 522790
gam ma</w> 522745
appro pri 522702
pro bl 522606
eri or</w> 522604
or ity</w> 522009
ne l</w> 521272
scop ic</w> 521223
em plo 520776
re ma 520704
ol der</w> 520528
cl er 520177
d aily</w> 520153
rema ins</w> 519563
in si 518348
p i 518143
kidne y</w> 518033
coh ort</w> 517884
ve red</w> 517746
up take</w> 517690
inhibit ors</w> 517526
us t</w> 517423
chol ester 517350
S P 517187
M R</w> 516988
M eth 516700
o ple</w> 516483
describ e</w> 516305
f uture</w> 515876
reduc e</w> 514607
t ent</w> 514179
d ri 513912
st ed</w> 513096
tol er 512980
ific ation</w> 512870
abs ence</w> 512613
str ong 512404
gr ade</w> 511968
deli very</w> 511733
chem otherapy</w> 511732
M D 511725
flu id</w> 511193
ten sive</w> 510916
pro mis 510639
commun ity</w> 510355
fo od</w> 509963
rel i 509529
B P</w> 509308
my el 508825
re ver 508676
al though</w> 508617
produc ts</w> 508415
sp inal</w> 508188
molec ules</w> 508007
plac ement</w> 507344
dos es</w> 507335
lin ked</w> 506882
m am 506653
r e</w> 506409
3 7</w> 506208
consist ent</w> 505908
t as 505376
c ost</w> 504910
id ine</w> 504615
3 8</w> 504220
O f</w> 504213
3 4</w> 504205
og n 504204
provid ed</w> 504177
ant agon 504054
ther s</w> 503983
recomm end 503977
ach es</w> 503763
in duction</w> 502976
g i 502735
ac e</w> 502428
W ith</w> 502353
po or</w> 502228
t a</w> 502170
ac coun 502140
random ized</w> 500914
U R 500773
d at 500580
import ance</w> 500468
de grad 500412
6 5</w> 500350
medi um</w> 500007
b ial</w> 499797
loc ation</w> 499651
epith elial</w> 499242
b ar 498619
A T</w> 498466
expos ed</w> 498339
is su 498288
s pl 498082
lin ear</w> 497888
3 3</w> 497882
Heal th</w> 497470
O S</w> 497202
ar ch</w> 496850
inter val</w> 496530
im ens</w> 496494
proced ures</w> 496387
om er 496258
deg ree</w> 496216
2 9</w> 495719
er y 495611
sol u 495514
C s</w> 495406
ol esc 495163
pr e</w> 494977
de pression</w> 494826
admini stered</w> 494821
hyper tension</w> 494808
youn g</w> 494405
ogen ous</w> 494227
s le 493395
v ent</w> 493350
g ran 493095
di et</w> 493024
nucle ar</w> 493021
O n</w> 492391
conc er 492121
th ir 492063
hormon e</w> 491680
am ide</w> 491324
en ting</w> 491048
l ation</w> 490363
l ying</w> 490343
o w</w> 489731
re at 489346
environ ment</w> 489231
og ether</w> 489108
regul ated</w> 488791
resul ting</w> 488413
pri or</w> 488294
plat el 487653
A N 487353
B oth</w> 486523
MR I</w> 486427
en co 486278
Ch in 485972
capac ity</w> 485753
ren g 485588
elev ated</w> 485382
ultr as 485159
condi tion</w> 485116
gro und</w> 485006
physi ological</w> 484917
transp ort</w> 484726
probl ems</w> 484392
di um</w> 484343
mar kers</w> 484221
recover y</w> 483955
compon ent</w> 483743
in tro 483194
ib le</w> 482965
nat ural</w> 482768
o si 481874
pre par 481830
in ity</w> 480715
mech an 479651
e ds</w> 479640
ic an</w> 479184
inflam mation</w> 479016
hep at 478985
n ot 478947
A S</w> 478212
T ran 477347
pe ople</w> 476876
hepati c</w> 476814
1 7 476800
i ting</w> 476800
pos si 476363
il s</w> 476359
C S 476323
c o</w> 475688
Th ere 475342
defici ency</w> 475199
M ore 474807
er ity</w> 474696
achiev ed</w> 474565
trans fer 474540
R T</w> 474372
G en 474220
o z 474181
it on 474177
os ome</w> 473811
ta ken</w> 473612
h ost</w> 473571
C H 473540
arter ial</w> 473227
suff ici 472833
r ation</w> 472743
secre tion</w> 472442
More over</w> 472199
r ib 472159
tox icity</w> 471935
teri or</w> 471214
al ter 471189
a er 470794
p ut</w> 470778
In ter 469657
partic ularly</w> 469360
inva sive</w> 469249
mut ation</w> 469086
cat aly 468795
mon th</w> 468545
p en 468507
ast s</w> 468281
saf ety</w> 467329
op en</w> 467173
pur pose</w> 466883
ne um 466618
magne tic</w> 466452
l ed</w> 466409
cr yst 466351
t e</w> 465934
s om 465860
endoth elial</w> 465281
chrom at 464836
st reng 464689
S er 464389
mar k 464296
fic ial</w> 464111
si a</w> 463576
gastr ic</w> 463323
cardi ovascular</w> 463148
system ic</w> 463092
sup pl 462280
vari ables</w> 462276
o ids</w> 462214
fi x 461959
4 2</w> 461786
tr ig 461730
de n</w> 461708
myocardi al</w> 461686
termin al</w> 461666
necess ary</w> 461554
en ter 461373
modi fied</w> 461099
stro ke</w> 460964
mac roph 460913
stimul ated</w> 460736
val ent</w> 460620
e ight</w> 460334
ad verse</w> 460223
cl ass</w> 460220
c epti 460126
con ventional</w> 459820
ch lor 459764
ip s</w> 459478
anti bio 458806
appropri ate</w> 458723
phosph ate</w> 458363
19 8 458349
polym er 457856
0. 5</w> 457585
cere bral</w> 457317
or ies</w> 457176
mot or</w> 457125
RN As</w> 457080
S H</w> 456992
ex amine</w> 456941
s ex 456755
am in</w> 456637
G rou 456526
e tics</w> 456035
ill ary</w> 455961
coun tr 455602
al g 455577
vie w</w> 455392
need ed</w> 455347
specific ity</w> 455137
statis tically</w> 454906
yc in</w> 454607
pro toc 454511
transf er</w> 454255
transpl antation</w> 454240
ear ance</w> 454218
am eter</w> 453810
f un 453774
b ul 453713
org anis 453680
ol ar</w> 453650
There fore</w> 453441
l ast</w> 453237
su mp 452694
St ud 452519
col i</w> 452035
quantit ative</w> 451799
selec tive</w> 451689
wh ole</w> 451651
et ed</w> 451462
eri als</w> 451376
m em 451122
recor ded</w> 451071
p al 450814
re stric 450781
pl ant</w> 450539
l ate</w> 450237
prog ram</w> 450014
poly morph 449555
M M 449544
lac k</w> 449497
ne w 449496
fib ro 448877
on ucle 448797
ar c 448584
e tion</w> 448084
j unc 447956
ca uses</w> 447942
fluoresc ence</w> 447416
j oin 447285
F in 446887
b enz 446843
cl e 446589
monit oring</w> 446583
at t 446361
mod ul 446343
includ e</w> 446230
ti veness</w> 446220
opath y</w> 446067
throm b 445945
direc tly</w> 445741
ab dom 445712
fe w</w> 445699
fi t</w> 445617
fam il 445199
val id 445033
tem por 444897
vari ation</w> 444745
d ate</w> 444641
og lob 444507
em entation</w> 444491
0. 9 444419
gen ic</w> 444166
eph al 444013
he ad</w> 443848
cholester ol</w> 443832
c m</w> 443831
aim ed</w> 443503
high est</w> 443492
carri ed</w> 442953
ad olesc 442764
4 4</w> 442684
intr av 442593
un its</w> 442510
sev erity</w> 442346
al k 441850
l a 441505
diab etic</w> 441494
venti ons</w> 441120
calcul ated</w> 441005
sus cepti 440733
as p 440568
partic ular</w> 440414
P D 440331
sul f 440228
up on</w> 440006
there fore</w> 439609
TI ON</w> 439463
lat eral</w> 439444
an terior</w> 439317
devel op</w> 439124
bacter ia</w> 438990
ur b 438981
regar ding</w> 438851
ri x</w> 438802
an ning</w> 438547
H R</w> 438414
identi fication</w> 438158
rec ogn 437951
tre m 437593
distin ct</w> 437528
p ig 437283
dou ble</w> 437178
ati c 436948
ac qu 436625
on omic</w> 435452
estim ated</w> 435400
2 , 435348
ic ation</w> 434989
cor por 433072
re pair</w> 433070
sim ple</w> 432860
meas ure</w> 432130
z ation</w> 432006
anim al</w> 431975
ir e</w> 431850
c um 431796
malign ant</w> 431519
ho od</w> 431436
tion ing</w> 431399
inf ants</w> 431292
te x</w> 431254
e .</w> 430603
u ter 430310
ad d 429938
li qu 429882
so dium</w> 429564
res sive</w> 429545
tion ally</w> 429473
Ca 2</w> 429263
under lying</w> 429234
res on 428846
amoun t</w> 428674
m an</w> 428317
or d 427850
otyp es</w> 427710
id al</w> 427559
ter ms</w> 427369
qu estionn 427041
A mon 426673
ro w</w> 426594
S T</w> 426062
sev en</w> 426038
P R 426017
alcoh ol</w> 425323
ro gen</w> 424839
plic ation</w> 424573
t ogether</w> 424459
osom al</w> 424171
relev ant</w> 424141
environ mental</w> 423948
gen s</w> 423915
om y 423353
r ab 423281
in ated</w> 423215
appro aches</w> 423094
treat ments</w> 422998
C N 422968
d op 422849
V E 422777
pl ing</w> 422751
enzym es</w> 422751
f at</w> 422741
H y 422657
ag ent</w> 422641
D uring</w> 422529
as pec 422441
x i 422099
dys function</w> 422012
ar r 421485
ent y</w> 421407
0. 8 421256
ometr ic</w> 421052
str ong</w> 420940
metr y</w> 420913
ne o 420393
oper ation</w> 420351
g li 420091
sle ep</w> 419775
per fusion</w> 419760
se p 419118
ac ts</w> 419014
th ic 418981
rec tal</w> 418885
Amon g</w> 418446
mut ant</w> 418226
M ul 418154
maxim um</w> 418134
rel ation</w> 418132
ha ving</w> 418002
l ec 417948
p neum 417695
f at 417491
lab oratory</w> 417489
4 3</w> 417275
review ed</w> 417216
surve y</w> 417200
arti cles</w> 416502
n g</w> 416362
develop ing</w> 416358
res h 416124
re al</w> 415975
ri tis</w> 415940
relati vely</w> 415920
occ ur</w> 415651
muc h</w> 415528
i. e.</w> 415522
b est</w> 415142
moder ate</w> 414688
i stry</w> 414684
D L</w> 414534
ad ren 414369
ar ch 413771
a qu 413689
E D</w> 413610
intrac ellular</w> 413573
S ev 413030
exhib ited</w> 412949
measure ment</w> 412502
C A</w> 412276
indic ating</w> 412229
pa rent</w> 412074
ip p 412047
accur acy</w> 411722
pre vention</w> 411697
os a</w> 411636
dow n</w> 411603
gen ome</w> 411436
v ical</w> 411008
app ears</w> 410949
Clin ical</w> 410937
process ing</w> 410766
con st 410412
ph yl 410362
de signed</w> 410342
inter ventions</w> 409831
strateg y</w> 409750
5 5</w> 409621
Grou p</w> 409047
c rip 408995
o od</w> 408960
stud ents</w> 408949
cur ren 408799
air e</w> 408763
comp are</w> 408740
le m</w> 408366
le ading</w> 408228
emplo y 408190
mal es</w> 407852
subsequ ent</w> 407747
s atis 407686
adv anced</w> 407560
micro scopy</w> 407426
frequ ently</w> 407283
el i 407229
ab normal 407208
acc ep 407041
altern ative</w> 407023
en sive</w> 406839
bir th</w> 406757
pre ven 406432
sump tion</w> 406407
educ ation</w> 406276
di atric</w> 406260
7 2</w> 406096
pea k</w> 405600
C l 405589
hy bri 405348
U S</w> 404814
ometr y</w> 404612
hal f</w> 404542
m L</w> 404520
re x 403910
invol vement</w> 403874
p ac 403873
an ol</w> 403384
fem ales</w> 403279
inten sity</w> 402899
c y</w> 402799
bac k</w> 402773
in take</w> 402635
t i</w> 402461
vi sion</w> 402421
contrib ute</w> 402420
it ary</w> 402416
dimen sional</w> 402390
vie w 402371
effec tiveness</w> 402309
s pati 402276
v en</w> 402175
tr ation</w> 401844
olog ically</w> 401784
main ly</w> 401731
facil it 401601
a k</w> 401295
n s</w> 401285
rec ently</w> 401269
thesi zed</w> 401132
al ong</w> 401127
P er 401051
sp e 401026
el ed</w> 401021
A b 400659
L A</w> 400454
gener ated</w> 400314
pro spective</w> 400299
mat rix</w> 400278
enc ies</w> 400083
hel p</w> 400030
me ans</w> 399899
accum ulation</w> 399790
lit tle</w> 399712
eb o</w> 399706
on tal</w> 399146
lear ning</w> 398764
impa ir 398652
S S</w> 398395
net work</w> 398107
ex tent</w> 398099
oc k</w> 398014
sh or 397910
ru p 397899
ax is</w> 397893
op o 397820
inhibit ory</w> 397663
sour ce</w> 397431
perc ent 397332
R eg 397280
es ophag 397276
A mer 397208
S ub 397015
der iv 396822
fr action</w> 396669
loc ated</w> 396482
sh if 396056
oti de</w> 395694
SI G 395543
re construc 395470
ne u 395381
s al</w> 395359
tu al</w> 395349
poin ts</w> 395103
ell a</w> 394640
conf idence</w> 394588
vari ate</w> 394187
asi c</w> 394000
to ol</w> 393916
P UR 393707
at tr 393620
e ting</w> 393368
L I 393158
charg e</w> 393109
vari able</w> 392961
carb on</w> 392740
rou s</w> 392660
a de 392637
auth ors</w> 392516
s per 392425
PUR PO 392056
wil d</w> 391286
go ing</w> 391280
ur inary</w> 391225
- 1</w> 390928
mater ial</w> 390926
th em 390596
sh ap 390399
ep tion</w> 390366
mel an 389829
coll ag 389825
A p 389775
objec tive</w> 389746
aff inity</w> 389663
plac ebo</w> 389358
ot rop 389322
2. 5</w> 389202
am e</w> 389128
O R 389039
PURPO SE</w> 389024
im ages</w> 388957
h and</w> 388492
D ata</w> 388333
O 2</w> 387585
b le 387346
subst anti 387340
ol ig 387246
mem ory</w> 387099
thir d</w> 387064
in corpor 387040
selec tion</w> 387002
effici ency</w> 386972
ner v 386711
C a</w> 386433
inc ub 386097
an es 386050
hist o 385550
oph il 385478
3 9</w> 385330
adv ant 384964
og s</w> 384924
A u 384733
as th 384684
prob lem</w> 384659
ab o 384614
per sist 384399
regul atory</w> 384167
re st 384156
gn os 384027
com position</w> 383908
P C</w> 383738
ar b 383727
et ary</w> 383279
sy m 382888
w all</w> 382712
B y</w> 382648
mit ted</w> 382217
no w</w> 381901
thyro id</w> 381797
cor tex</w> 381708
com mon 381621
re tin 381587
hypo thesis</w> 381512
sin ce</w> 381013
v ar 380863
mat ure</w> 380524
e ti 380498
ass ays</w> 380346
ic a</w> 379922
mitochond rial</w> 379664
s qu 379338
show s</w> 379276
t y 378817
res ection</w> 378763
inter nal</w> 378563
4 1</w> 378398
C ol 378374
throu gh 378183
kn ess</w> 377522
cul tures</w> 377509
reson ance</w> 377259
le sion</w> 377054
g astro 376896
or ation</w> 376752
ig n</w> 376672
trac t</w> 376484
phosphor ylation</w> 376401
Stud y</w> 376392
ing ly</w> 376245
repor ts</w> 376144
or ph 375973
pro fil 375649
es tion</w> 375539
A C</w> 375363
isol ates</w> 375313
u tive</w> 375310
ne on 375119
Th ree</w> 375112
f av 374688
ste p</w> 374662
um er 374562
ade qu 374432
liqu id</w> 374394
recur rence</w> 374239
predic ted</w> 373652
fat ty</w> 373612
em ic</w> 373577
re produc 373464
oxid ative</w> 373293
f etal</w> 373140
applic ations</w> 372928
correspon ding</w> 372789
ar ity</w> 372540
meth yl</w> 372526
remain ed</w> 372427
6 7</w> 372208
all el 372164
ou th</w> 372153
k ground</w> 372117
N or 371998
ha em 371772
investig ation</w> 371632
col on 371598
hem at 371306
p yr 371266
l ater</w> 371123
trans mission</w> 371075
tend ed</w> 370866
oc l 370544
dem ic</w> 370539
C or 370515
res olution</w> 370356
L e 369939
se ud 369772
protec tive</w> 369724
optim al</w> 369532
syn ap 369488
mor b 369145
aor tic</w> 368923
ati ves</w> 368780
a ir</w> 368725
re actions</w> 368598
hydrox y 368411
aut o 368366
asi a</w> 368352
mechan ical</w> 368022
organ ic</w> 367728
substr ate</w> 367596
d le</w> 367594
S i 367587
r al</w> 367534
con nec 367330
ar th 367108
em er 366279
sp ont 366214
cat eg 366154
nu tri 366106
ex trem 366037
p h</w> 365773
4 6</w> 365269
st ages</w> 365215
lac t 365159
T r 364801
pro xim 364626
en ous</w> 364576
g el</w> 364444
ch ing</w> 364397
wor l 364080
dat ab 364001
lay er</w> 363932
st er</w> 363886
mi R</w> 363865
ER I 363582
a b</w> 363273
el etal</w> 363273
clin ically</w> 362924
an at 362903
exp ected</w> 362684
prog nosis</w> 362567
uni que</w> 362535
com e</w> 362500
I I 362212
abdom inal</w> 362148
plas tic</w> 362015
pro state</w> 361529
al b 361444
atten tion</w> 360892
ch an 360879
mus t</w> 360679
T reat 360620
vari ety</w> 360513
b ound</w> 360441
es ity</w> 360418
ad der</w> 360352
complex es</w> 360265
4 9</w> 359922
hy th 359722
cer vical</w> 359410
gnos tic</w> 359316
ap pe 359179
de ta 359064
emer gen 358920
chil d</w> 358898
publ ic</w> 358895
un known</w> 358874
smo king</w> 358871
larg er</w> 358693
pl ants</w> 358602
i on 358480
ell ing</w> 358028
pres sive</w> 357802
5 6</w> 357531
ful l</w> 357393
respon sible</w> 357370
S C</w> 357367
G l 357238
induc e</w> 356886
parti al</w> 356748
sch o 356709
der ly</w> 356408
prof ile</w> 356370
y g 356203
tom ography</w> 356084
prof es 355865
streng th</w> 355853
retro spective</w> 355785
ar yn 355719
P V</w> 355676
B ased</w> 355632
spec imens</w> 355550
5 2</w> 355475
b ase</w> 355299
ul in</w> 355275
as ym 355258
vit amin</w> 355158
cor e</w> 354954
biop sy</w> 354750
w ar 354740
fun g 353522
degrad ation</w> 353145
ap pea 353122
M A</w> 353097
ari ly</w> 353029
f ying</w> 352784
appea red</w> 352774
re as 352478
4 7</w> 352275
chromat ography</w> 352163
agg reg 352108
serv ices</w> 351923
perc ent</w> 351720
er ro 351577
dynam ics</w> 351347
cyt otox 351186
platel et</w> 351023
ester n</w> 350960
extrac ellular</w> 350854
um in 350723
li po 350658
ir on</w> 350365
H B 349918
1. 5</w> 349910
abo ve</w> 349810
produc t</w> 349770
strong ly</w> 349743
cul tured</w> 349566
s at 349362
tro ph 349110
or ts</w> 348753
ne ural</w> 348739
oxid ation</w> 348530
l ap 348442
success ful</w> 348228
m entation</w> 348168
st aining</w> 347978
mo tion</w> 347646
S N 347582
re ad 347470
common ly</w> 347242
F or 346929
as c 346831
percent age</w> 346638
propor tion</w> 346462
re ference</w> 346283
maj ority</w> 345974
comp ut 345787
enh anc 345750
under going</w> 345737
recei ving</w> 345649
i ous</w> 345610
tern al</w> 345525
Treat ment</w> 345333
continu ous</w> 345290
SIG N</w> 345179
C I 344706
M AT 344575
con sumption</w> 344006
eth yl 343922
6 4</w> 343843
em o 343818
di sp 343700
Di ff 343558
sign s</w> 343351
countr ies</w> 343214
z ing</w> 343091
resi du 343045
mater nal</w> 342943
signific ance</w> 342860
5 4</w> 342805
in ce</w> 342775
long er</w> 342773
M o 342560
o vari 342480
ven ous</w> 342463
publ ished</w> 342210
or rh 341825
up per</w> 341587
e m</w> 341556
cer tain</w> 341522
produc e</w> 341468
simul t 341304
DE SIGN</w> 341279
s in</w> 341151
OBJECTIV ES</w> 341007
ra ther</w> 340961
on ch 340878
d y 340830
AT P</w> 340674
di tional</w> 340385
las er</w> 339986
em erg 339888
S h 339753
chem istry</w> 339470
mig ration</w> 339392
T NF</w> 339365
dynam ic</w> 339348
f ish</w> 339311
gly co 339214
F urther</w> 339169
20 0</w> 338750
st ained</w> 338589
ex am 338140
pre domin 338124
remo val</w> 338112
t ren 338109
6 2</w> 338008
pl ays</w> 337963
pro st 337683
al tered</w> 337626
ti t 337617
Com par 337565
lymph ocytes</w> 337547
doc um 337432
An alysis</w> 337082
an xi 337008
S im 336912
ide mi 336665
ec ting</w> 336656
E N 336425
k er 336413
Mul ti 336244
t or 336182
divid ed</w> 336155
p on 335696
5 1</w> 335681
mat erials</w> 335354
The y</w> 335228
pl asia</w> 335182
os ine</w> 335120
ob struc 335012
residu es</w> 334938
H g</w> 334901
v ation</w> 334868
st ar 334812
post erior</w> 334565
bas al</w> 334531
met al</w> 334517
ti co 334501
pepti des</w> 334337
Meth ods</w> 334146
atten u 334044
M I 334019
pl ast 333974
satis fac 333942
cor tical</w> 333848
pre pared</w> 333806
hepati tis</w> 333620
chan nel</w> 333480
press ing</w> 333439
O b 333309
ane ously</w> 333203
pow er</w> 333088
bl adder</w> 333086
D es 333011
inf arc 333005
re active</w> 332841
, 000</w> 332808
fibro bl 332793
S pec 332706
S y 332398
M y 331893
neur onal</w> 331765
th or 331762
con trac 331665
0. 1</w> 331514
chrom osome</w> 331330
pl ed</w> 331291
el ium</w> 331204
tempor al</w> 331050
pre vent</w> 330824
occur s</w> 330822
foc us</w> 330759
a w 330365
el derly</w> 330341
man if 330320
neuro log 330111
mar ker</w> 330042
S p 329962
inf usion</w> 329933
pro jec 329882
ogni tion</w> 329855
promot er</w> 329855
morb idity</w> 329848
tas k</w> 329712
rec ip 329709
ex tr 329456
im age</w> 329292
rec ru 329184
om es</w> 329091
collag en</w> 328626
abnormal ities</w> 328329
al lo 328020
pur ified</w> 327798
hum ans</w> 327643
emb er</w> 327562
os yn 327482
ob ic</w> 327465
pancre atic</w> 326761
for ce</w> 326547
C B 326545
tub er 326506
0 0 326492
MAT ERI 326479
mat ched</w> 326170
b en 326157
6 3</w> 325990
s on</w> 325956
0. 7 325841
invol ving</w> 325486
e . 325380
micro M</w> 325214
n ational</w> 324927
C M 324500
cler osis</w> 324440
E R</w> 324113
mil d</w> 324024
op e</w> 323897
gen ase</w> 323863
y et</w> 323773
ol ip 323633
ar cin 323598
ac char 323543
gen ital</w> 323355
fl ex 323037
g er</w> 322968
potenti ally</w> 322861
re combin 322840
ver s</w> 322810
Im mun 322790
phen otype</w> 322778
ag re 322382
ti al</w> 322348
cont act</w> 322340
6 8</w> 322335
t on</w> 322239
pro gnostic</w> 322180
s ph 322012
tem p 321904
k es</w> 321824
membran es</w> 321800
th resh 321692
or ith 321569
gra ft</w> 321521
ap h 321489
fer red</w> 321315
con sec 321287
Wh ile</w> 321120
si vely</w> 320900
plasm ic</w> 320854
path ogenesis</w> 320768
B ac 320724
an th 320603
H D</w> 320586
S O 320515
mix ed</w> 320364
do m</w> 320308
spati al</w> 320259
el ines</w> 320146
AL S</w> 320125
pr inc 320060
5 8</w> 319996
A A</w> 319909
ob esity</w> 319770
man ner</w> 319700
c anc 319480
acet yl 319427
ju g 319385
aspec ts</w> 319302
d enti 319238
ab normal</w> 319236
heter ogene 319193
complet ed</w> 319168
bar ri 318875
n ed</w> 318750
molec ule</w> 318721
n ature</w> 318698
sub stitu 318671
differenti al</w> 318455
system atic</w> 318332
plast y</w> 317901
inter pre 317706
res our 317631
ro w 317454
ve si 317332
ar ing</w> 317062
cor d</w> 317036
it able</w> 316911
ro les</w> 316676
abs orption</w> 316218
v ul 315733
reduc ing</w> 315614
in ser 315351
w ard</w> 315319
F rom</w> 315269
gen der</w> 315090
relationsh ips</w> 314964
join t</w> 314931
g est 314831
til ity</w> 314708
P I 314570
alter ations</w> 314462
fe eding</w> 314422
ach ed</w> 314315
bec ome</w> 314294
5 7</w> 314213
v ements</w> 314168
as al</w> 314000
n ine</w> 313999
V I 313896
ic le</w> 313848
B e 313715
implic ations</w> 313501
mar row</w> 313427
od ynam 313371
frequ ent</w> 313211
ar com 313165
questionn aire</w> 313157
us ually</w> 313112
AM P</w> 312947
te en</w> 312905
arth ritis</w> 312898
di etary</w> 312603
kin etics</w> 312587
nucle us</w> 312541
dis co 312345
S tr 312229
h ere</w> 311885
throm bo 311849
bene fit</w> 311840
suffici ent</w> 311193
N C 311126
ser ved</w> 310982
sec tion</w> 310976
pro long 310915
P G 310722
lo ro 310698
traum a</w> 310597
us al</w> 310509
ass es</w> 310303
appe ar</w> 310250
M T 310232
wh ite</w> 310195
6 6</w> 310186
metast asis</w> 310125
plac e</w> 309982
ey e</w> 309872
5 9</w> 309865
attr ib 309775
M et 309656
alg orith 309591
challeng e</w> 309563
M ost</w> 309467
protoc ol</w> 309378
sp ace</w> 309279
hypo x 309211
curren tly</w> 309207
U C 309034
D M</w> 309025
determin ation</w> 308981
predic tive</w> 308803
tum our</w> 308688
N a</w> 308681
biom ar 308619
chang ed</w> 308592
difficul t</w> 308319
pre h 308245
orig in</w> 308185
con clusion</w> 308165
wid ely</w> 308103
S P</w> 308074
character ization</w> 307921
classi fication</w> 307792
ie ve</w> 307727
o ve 307671
conclud e</w> 307543
om en 307428
is ting</w> 307379
ery thro 307336
A R</w> 307334
v ity</w> 307234
dow n 307139
li ving</w> 307015
lym ph</w> 306918
ep id 306751
osom es</w> 306630
app ing</w> 306608
of f</w> 306441
f ed</w> 306432
L i 306334
A L</w> 306286
inte rest</w> 306284
v ec 306182
str um 306119
con stitu 306078
m M</w> 306019
id ly</w> 306000
detec t</w> 305726
ar s</w> 305577
ipp oc 305392
H R 305272
medic ine</w> 305142
em ph 304900
transi tion</w> 304895
parti cles</w> 304892
& amp 304685
&amp ;</w> 304685
in d 304606
ar ization</w> 304357
N O</w> 304313
y cl 304202
olog ous</w> 304193
it ud 304190
olog ies</w> 304125
ne ut 304014
8 5</w> 303977
lo ad</w> 303832
acc ess</w> 303796
psych i 303548
sec tional</w> 303326
l ys 303268
glob al</w> 303226
sex ual</w> 302967
d or 302697
is ing</w> 302443
IN T 302270
promis ing</w> 302262
P r 302214
ar m</w> 302009
acti n</w> 301832
O ver 301651
if or 301389
end oscop 301024
plac ed</w> 300992
ultras ound</w> 300962
ippoc amp 300939
ev ol 300405
tiv es</w> 300253
th ym 300191
pl us</w> 300090
str i 300088
su peri 300058
polymer ase</w> 299839
el ements</w> 299743
protec tion</w> 299639
pot ent</w> 299619
g raph 299512
macroph ages</w> 299278
tr yp 299197
i i</w> 299084
n umer 298964
D ec 298927
t el 298702
or th 298638
E uro 298619
at temp 298531
tow ard</w> 298406
id ent</w> 298329
en ro 298259
cont ext</w> 298209
rec ognition</w> 298196
ne ph 298187
ev olution</w> 298069
st abil 297875
ster one</w> 297790
impa ired</w> 297595
s ha 297517
l yc 297377
ex ternal</w> 297346
we igh 297323
s ess 297254
wor ks</w> 297078
success fully</w> 297064
impair ment</w> 296978
adju sted</w> 296969
ach ing</w> 296910
spec i 296783
thesi a</w> 296706
sti t 296664
t ob 296607
le ads</w> 296510
ovari an</w> 296470
A fr 296337
complet ely</w> 296270
d ogs</w> 296147
consec utive</w> 296146
n m</w> 295871
O H</w> 295793
hy dr 295786
spec tively</w> 295741
E M 295729
il ep 295723
g .</w> 295641
behavi oral</w> 295618
di ameter</w> 295568
medi a</w> 295510
g er 295410
vacc ine</w> 295314
C C</w> 295260
b ile</w> 295260
pos ite</w> 295257
occ us</w> 295191
sol id</w> 295090
ul a</w> 294932
neu tr 294889
recur rent</w> 294587
ci ans</w> 294524
aro und</w> 294473
6 1</w> 294238
predic t</w> 294081
si on 293952
anxi ety</w> 293421
vir uses</w> 293361
sus p 293297
de x 293215
ap s</w> 293165
1. 0 293094
org an</w> 292940
requi res</w> 292872
recombin ant</w> 292810
ti l</w> 292789
occur rence</w> 292729
f al 292477
co ag 292271
k ine</w> 292234
const ant</w> 292195
in d</w> 292082
ne ar</w> 291825
e. g.</w> 291704
ma king</w> 291701
comp an 291628
U ni 291511
Diff eren 291510
statis tical</w> 291452
b ut 291425
can di 291383
memb ers</w> 291305
Des pite</w> 291221
Ne w</w> 291179
ec onomic</w> 291094
c utaneous</w> 291013
S L 290920
as h 290771
yi el 290765
dom ains</w> 290601
7 3</w> 290350
sequ encing</w> 290197
kin es</w> 290149
C D</w> 289910
h ex 289900
gener ally</w> 289641
kin etic</w> 289442
al ine</w> 289371
iton eal</w> 289128
e ous</w> 289079
rap idly</w> 288984
oxid ase</w> 288900
sh e 288792
vas cul 288773
3 H</w> 288694
h ippocamp 288672
H osp 288644
SC s</w> 288584
c enter</w> 288582
infarc tion</w> 288207
o id 288175
nan op 288139
compar able</w> 288117
sur fac 287954
he at</w> 287895
clu sions</w> 287673
ver te 287536
g in 287464
through out</w> 287271
radi o 287108
qu al 287019
asth ma</w> 286827
set ting</w> 286818
H igh</w> 286739
6 9</w> 286624
Fin ally</w> 286532
p y 286510
k ne 286436
IF N</w> 286308
stre am</w> 286061
el im 285804
bio chemical</w> 285759
o ked</w> 285674
m ia</w> 285502
compo und</w> 285351
in strum 285122
ac ting</w> 285093
lig and</w> 285049
psych ological</w> 284794
C P</w> 284649
H A</w> 284567
Eff ects</w> 284520
F A</w> 284485
ac r 284457
ent ary</w> 284418
mod eling</w> 284396
spectr um</w> 284294
ad j 284209
dev ice</w> 284131
oc k 283623
re main</w> 283608
ischem ia</w> 283447
C l</w> 283302
disc rim 283143
ne eds</w> 283135
metast atic</w> 283121
profil es</w> 282951
it u 282856
anti gens</w> 282727
canc ers</w> 282629
solu ble</w> 282607
saf e</w> 282604
R A</w> 282477
O r 282449
1 0. 282404
ran ial</w> 282390
v ag 282341
adequ ate</w> 282162
C S</w> 282059
P hy 282055
P M 281932
injur ies</w> 281926
r s</w> 281618
associ ations</w> 281618
od ds</w> 281608
expl ore</w> 281429
targ ets</w> 281282
pe diatric</w> 281261
dra w 280984
accur ate</w> 280945
el ic 280831
P I</w> 280782
ocl onal</w> 280765
oc ular</w> 280632
i ons</w> 280597
ex isting</w> 280523
l er</w> 280359
dec ision</w> 280270
frac ture</w> 280147
respec t</w> 280105
r he 279851
form ing</w> 279655
ey es</w> 279505
guid elines</w> 279440
develop mental</w> 279319
yl ated</w> 279312
D I 279170
br onch 278968
st ates</w> 278906
7 8</w> 278734
ed ly</w> 278697
diff er</w> 278651
leuk emia</w> 278393
tuber cul 278386
re tinal</w> 278318
m as 278312
M icro 278290
thal am 278168
characteris tic</w> 278133
f its</w> 278111
ra z 277820
p tom 277719
S yn 277716
n itr 277712
anc ies</w> 277461
mar ked</w> 277400
cl on 277383
ischem ic</w> 277370
vari ability</w> 277137
dist al</w> 277137
Eff ect</w> 277125
chr on 277100
fac ial</w> 277061
D a</w> 277013
ep ilep 276954
il i 276933
def ects</w> 276799
thor ac 276731
P K 276690
il l</w> 276644
qu in 276547
nec k</w> 276484
experi enced</w> 276195
C an 276165
comp uted</w> 276073
B ec 276053
ble eding</w> 275996
famil ies</w> 275904
ep is 275899
organis ms</w> 275792
ro ot</w> 275784
transfer ase</w> 275771
tic ular</w> 275598
al low</w> 275570
re present</w> 275557
targ eted</w> 275521
pro p 275500
lab eled</w> 275481
wh at</w> 275389
o rectal</w> 275233
pneum on 275146
s es 274987
program s</w> 274876
co sts</w> 274740
min utes</w> 274687
sign als</w> 274556
not ed</w> 274373
an other</w> 274133
h ol 274070
on c 274044
S M 274002
manif est 273986
therap ies</w> 273830
fib rosis</w> 273544
ro ti 273427
ch ic 273329
aryn g 273318
pres entation</w> 273311
toler ance</w> 273307
c ed</w> 273131
b on 273098
1 1. 273014
pa ir 273010
nec rosis</w> 272983
allow s</w> 272959
S R 272885
V A</w> 272884
il ed</w> 272884
sub unit</w> 272848
p ast</w> 272778
thic kness</w> 272681
path ological</w> 272622
T L 272512
specific ally</w> 272444
oxid ant</w> 272340
intrav enous</w> 272250
superi or</w> 272129
am s</w> 271938
al most</w> 271932
adhe sion</w> 271771
A F 271714
phen omen 271642
com pe 271591
7 1</w> 271568
d ental</w> 271552
st en 271483
p ut 271166
b asic</w> 270982
extrac tion</w> 270959
h ab 270917
nerv ous</w> 270596
morph ology</w> 270564
S ince</w> 270333
phot o 270258
spont aneous</w> 270214
gram s</w> 269866
ich ia</w> 269864
fin ding</w> 269766
suscepti bility</w> 269715
com preh 269693
ic in</w> 269651
inhib it</w> 269547
di an</w> 269172
pres er 268947
E C</w> 268921
bi t</w> 268886
prob ably</w> 268765
wa ve</w> 268614
syn th 268565
az ole</w> 268517
observ ations</w> 268372
employ ed</w> 268280
B C</w> 268124
soci ation</w> 267949
con jug 267859
int act</w> 267592
ab und 267522
rati os</w> 267513
Tw enty</w> 267474
N S 267465
CS F</w> 267419
pres s</w> 267392
con tained</w> 267255
lap aro 267249
recommend ed</w> 267194
s mal 267137
l igh 267093
ap parent</w> 267061
numb ers</w> 266938
l and 266891
J ap 266858
i ve</w> 266697
CD 4</w> 266639
tic ip 266532
ar y 266509
prepar ation</w> 266495
rang ed</w> 266494
7 4</w> 266399
tain s</w> 265833
accoun t</w> 265792
ac k</w> 265783
r ich 265768
at er 265681
cont amin 265585
ver s 265531
cir cul 265231
bor n</w> 265212
sit u</w> 265190
g as</w> 264958
com pr 264690
oc arcin 264586
at rial</w> 264441
ogen etic</w> 264376
mo vement</w> 264357
ther mal</w> 264297
ane ur 264075
oly tic</w> 264051
H C</w> 264020
Chin ese</w> 264003
ch ann 264002
n ic 263974
uc id 263309
C P 263265
ec tive</w> 263225
tow ards</w> 263185
Amer ican</w> 263147
atic ally</w> 263142
C R</w> 263084
ep idemi 263003
di versity</w> 262968
n am 262967
adolesc ents</w> 262943
the ory</w> 262920
mid dle</w> 262840
end ogenous</w> 262612
techn ology</w> 262608
indic ates</w> 262602
ove rex 262578
gra f 262480
t un 262458
ear ing</w> 262411
gre at 262381
mo de</w> 262323
ther n</w> 262250
R A 262229
le t</w> 262188
aneur ys 262114
em ented</w> 262053
pol ic 261937
mam m 261882
enc ephal 261785
mic r 261693
as sist 261565
bal ance</w> 261462
cel er 261367
on in</w> 261324
op tical</w> 261247
H um 261243
en ic</w> 261039
metr ic</w> 260971
in stitu 260896
M P</w> 260833
don or</w> 260719
o il</w> 260628
discus s</w> 260387
3 , 260297
medic ation</w> 260204
c en 260190
vol un 260137
sour ces</w> 260092
des pite</w> 260062
y lo 260020
succ ess</w> 259873
tra ditional</w> 259861
per me 259831
se arch</w> 259621
bo v 259595
en ed</w> 259577
7 6</w> 259563
a ine</w> 259532
ac u 259474
E p 259262
yi eld</w> 259195
fin al</w> 259165
reconstruc tion</w> 259123
loc alization</w> 259060
g on 258749
T P</w> 258599
to m</w> 258561
a ther 258540
glut am 258333
s on 258223
underst and</w> 258047
esophag eal</w> 258036
depend ently</w> 258035
e str 257924
leuk in</w> 257910
sit u 257829
m ing</w> 257765
transp or 257469
ty ros 257428
prolong ed</w> 257177
eth anol</w> 257169
recogn ized</w> 257123
bloc k</w> 257111
ca th 257087
vari ants</w> 256847
ch ym 256782
op i 256679
gl and</w> 256616
meth od 256514
un til</w> 256440
9 6</w> 256284
cal e</w> 256192
al le 256048
C ancer</w> 255773
pre operative</w> 255560
8 8</w> 255531
nur sing</w> 255455
P F 255438
E sch 255399
emergen cy</w> 255392
electro ph 255296
An ti 255266
cyt es</w> 255257
mon oclonal</w> 255199
Hosp ital</w> 255198
c all 255180
del ayed</w> 255142
oph ysi 255010
H T</w> 254955
cr uc 254932
ob l 254924
Ad di 254921
ma ke</w> 254851
physi cians</w> 254825
immun os 254815
chann els</w> 254734
7 9</w> 254706
Esch er 254627
extrac t</w> 254213
requ ire</w> 254188
l and</w> 254071
7 7</w> 254011
estim ate</w> 254000
Escher ichia</w> 253957
k Da</w> 253926
D A</w> 253920
olec ular</w> 253728
defici ent</w> 253663
random ly</w> 253564
S I</w> 253112
- 0. 252948
oc om 252796
analy sed</w> 252757
syn thesized</w> 252676
re ly</w> 252651
issu es</w> 252623
so il</w> 252598
immuno histo 252439
par as 252378
maxim al</w> 252318
ang li 252151
em is 252110
bene fits</w> 252110
tr im 252051
en si 251974
neut roph 251889
ib r 251772
im en</w> 251734
ten ance</w> 251658
fr ame 251501
proxim al</w> 251475
e di 251419
targ eting</w> 251349
des crip 251259
Ch il 251207
fib ers</w> 251197
an tim 251068
1 3. 250915
cl ose</w> 250868
frac tures</w> 250801
stimul i</w> 250733
our s</w> 250633
end ing</w> 250528
enh ance</w> 250493
tox ic</w> 250485
regi onal</w> 250444
3 0 250371
p 53</w> 250207
Un ited</w> 250202
kne e</w> 250182
h ome</w> 250180
an ted</w> 249978
3 D</w> 249908
app earance</w> 249897
on ate</w> 249893
ac compan 249804
experim ent</w> 249770
inter fer 249689
ar thro 249624
sch iz 249489
um in</w> 249392
oc or 249304
D M 249287
no de</w> 249171
Th ir 249115
Over all</w> 249102
R el 249038
ep s</w> 248983
hy p 248957
inva sion</w> 248776
met a</w> 248755
re plication</w> 248701
F ol 248654
hem orrh 248563
Ig G</w> 248551
R ev 248414
complic ation</w> 248336
re placement</w> 248315
gen omic</w> 248278
y e 248205
a p</w> 248203
recur s 247787
g al 247752
us ual</w> 247742
bil ateral</w> 247586
pl ayed</w> 247512
an u 247424
spectro scopy</w> 247178
fin d</w> 247090
ei ved</w> 247074
in ate</w> 246907
oph ren 246823
distin gu 246791
T A 246773
wh ose</w> 246697
nucle otide</w> 246644
inter mediate</w> 246618
8 6</w> 246599
se iz 246598
ve in</w> 246493
p el 246372
antibio tic</w> 246246
scho ol</w> 246239
ac celer 246064
requi re 245973
ul ate</w> 245861
ang u 245564
cho ice</w> 245441
no d 245341
syn thetic</w> 245299
oglob in</w> 245269
ang le</w> 245246
d one</w> 245234
T 1</w> 245192
m ic</w> 245187
es tions</w> 245171
ex pan 245169
classi fied</w> 245119
MATERI ALS</w> 244907
antagon ist</w> 244888
ap hy 244838
f ast</w> 244821
mut ants</w> 244737
se ems</w> 244731
foc al</w> 244721
sk eletal</w> 244695
T B 244598
avail ability</w> 244413
P E</w> 244381
D s</w> 244017
ev ent</w> 243762
jec tion</w> 243565
depend ence</w> 243461
mil k</w> 243399
oc rine</w> 243362
F e 243277
acti c</w> 243235
os al</w> 243193
uc h</w> 243137
cur ve</w> 242960
ph il 242900
p recurs 242855
N ational</w> 242809
psychi atric</w> 242736
agre ement</w> 242682
injec ted</w> 242654
av age</w> 242639
ass emb 242475
e ase</w> 242343
at ase</w> 242292
ev ery</w> 242235
typ ical</w> 242098
ex cre 242092
5 0 242029
an a 241954
chol ine</w> 241907
provid ing</w> 241880
equ i 241862
rel ap 241792
P las 241703
co ord 241524
neon atal</w> 241378
initi ation</w> 241361
itud inal</w> 241326
ear li 241139
ar in</w> 241099
reli able</w> 240924
possi bility</w> 240907
ben ign</w> 240841
Bec ause</w> 240775
t ase</w> 240728
am b 240702
id en 240579
n or</w> 240357
path ology</w> 240297
st or 240283
prog ressive</w> 240119
f ore 239994
aut om 239896
grow ing</w> 239876
ell ar</w> 239819
av es</w> 239660
transi ent</w> 239660
E lec 239470
dist ance</w> 239467
anal og 239340
H LA</w> 239004
S ign 238956
oper atively</w> 238891
el ucid 238876
B r 238701
cell ent</w> 238699
b ly</w> 238647
BM I</w> 238589
F ac 238538
physi c 238445
pregn ant</w> 238389
ad ded</w> 238350
lymph oma</w> 238337
mo bil 238307
ex change</w> 238274
co ding</w> 238273
micro grams</w> 238221
ari a</w> 238198
conclud ed</w> 238176
rel ax 238139
main tenance</w> 238098
is ation</w> 238041
rou tine</w> 238027
su itable</w> 237996
metabol ites</w> 237928
recip i 237817
it us</w> 237798
Rec ent</w> 237779
g radi 237634
a vi 237589
pres enting</w> 237450
ex tensive</w> 237294
sh ock</w> 237151
9 3</w> 237085
mul ti</w> 236949
inf il 236895
un clear</w> 236607
transpl ant</w> 236605
hydro gen</w> 236564
h und 236477
C F 236343
mark edly</w> 236226
v als</w> 236194
electroph ore 236193
ir radiation</w> 236147
epis od 236076
T E 235978
repe ated</w> 235966
ill ness</w> 235938
ti ous</w> 235924
an ine</w> 235911
z es</w> 235906
g ain</w> 235752
thresh old</w> 235705
sens ory</w> 235692
cyt os 235606
ex ist 235506
1. 0</w> 235483
ch loro 235393
re f 235370
arcom a</w> 235293
R S</w> 235050
w al 234942
fail ed</w> 234886
transcrip tional</w> 234770
ot omy</w> 234687
se ts</w> 234673
1 2. 234648
it ative</w> 234591
observ ation</w> 234531
enro lled</w> 234349
hy d 234304
R ep 234146
r ich</w> 234076
gre at</w> 233999
O F</w> 233983
wor king</w> 233967
ver sion</w> 233956
oly sis</w> 233658
bov ine</w> 233583
ra dical</w> 233409
ess els</w> 233384
path y</w> 233363
abil ities</w> 233329
8 4</w> 233184
D ev 232872
vari ed</w> 232806
ha z 232805
5 00</w> 232682
anu ary</w> 232482
st ly</w> 232415
pro s 232263
tin gs</w> 232210
J anuary</w> 232081
ac t 232013
tyros ine</w> 231810
M an 231737
prim arily</w> 231705
enco ding</w> 231608
h ip</w> 231598
hospit als</w> 231415
k ary 231355
gastro intestinal</w> 231347
loc alized</w> 231291
ri a</w> 231267
phosph olip 231231
al is</w> 231161
port un 231144
tur n</w> 231081
dis charge</w> 231066
ogen s</w> 231034
val ve</w> 230939
gran ul 230857
og ra 230799
cycl ic</w> 230624
dop amine</w> 230563
c ros 230554
predic tion</w> 230527
T A</w> 230516
smo oth</w> 230364
v essels</w> 230359
a rom 230157
ex cellent</w> 230143
compe ti 230080
col on</w> 230077
8 3</w> 230058
c ent 229940
smal ler</w> 229866
ar t 229844
ran dom</w> 229833
iden tical</w> 229791
w ound</w> 229768
synap tic</w> 229648
Hum an</w> 229632
occur ring</w> 229543
cou pled</w> 229401
metast ases</w> 229264
D O 229252
peri ods</w> 229199
show ing</w> 229185
aim s</w> 229170
minim al</w> 229163
fib er</w> 229031
commun ication</w> 229006
col orectal</w> 228975
parti ally</w> 228910
ster oid</w> 228796
s ou 228780
pol yp 228773
schiz ophren 228746
u tions</w> 228702
k et 228617
8 2</w> 228507
C ur 228140
induc es</w> 228092
roti d</w> 227963
challeng es</w> 227928
it ory</w> 227815
vi ous</w> 227815
cyto kines</w> 227791
child hood</w> 227767
pro pose</w> 227660
di ed</w> 227640
main tained</w> 227500
amoun ts</w> 227326
to ols</w> 227252
heal ing</w> 227240
gen e 227069
p seud 227067
dev ices</w> 226972
bel ow</w> 226920
fol l 226732
Pro te 226708
o thers</w> 226700
acqu ired</w> 226660
l ing</w> 226613
P 1</w> 226585
oc ity</w> 226559
L PS</w> 226485
inter vals</w> 226388
On ly</w> 226308
g o</w> 226261
mal ian</w> 225997
ch es</w> 225930
m urine</w> 225857
subjec t</w> 225845
serv ice</w> 225797
trans l 225755
odynam ic</w> 225727
0.00 01</w> 225652
pl ate</w> 225613
1 4. 225416
sup pression</w> 225307
deriv atives</w> 225229
F r 225153
si an</w> 225151
promot e</w> 225077
behavi ors</w> 225053
shif t</w> 225044
In cre 225043
est er</w> 225031
ris e</w> 224975
impl ementation</w> 224937
yl ase</w> 224818
Me dic 224802
pro be</w> 224788
h abil 224648
de hydro 224555
W estern</w> 224532
or ly</w> 224516
S ec 224291
tubercul osis</w> 224211
L DL</w> 224105
Th er 223971
g angli 223951
de ep</w> 223870
conver sion</w> 223793
2 50</w> 223784
exc ept</w> 223719
health care</w> 223697
nanop articles</w> 223654
r ho 223641
view s</w> 223527
ly sis</w> 223476
w ise</w> 223446
dist urb 223369
tre at</w> 223306
C Y 223293
9 8</w> 223281
frame work</w> 223170
G S</w> 223127
contro ll 223062
vi si 223053
incub ation</w> 223038
hist ological</w> 222764
alle l</w> 222756
extrac ted</w> 222341
in oc 222224
St ates</w> 222073
b ular</w> 221975
diff usion</w> 221965
ad s 221931
wor kers</w> 221782
n ative</w> 221777
gra m</w> 221765
inter leukin</w> 221719
ar ies</w> 221693
er r 221689
epid er 221660
sur ro 221464
9 2</w> 221416
res ting</w> 221373
o k</w> 221173
T a 221153
cor ne 221080
mus cles</w> 220969
er ic</w> 220910
a ud 220706
vel ocity</w> 220665
es sive</w> 220649
adju v 220586
e f 220559
datab ase</w> 220543
de pl 220499
domin ant</w> 220239
asp ir 220238
Sev eral</w> 220219
dr in 220193
op portun 220151
b and</w> 220097
recor ds</w> 219949
emb ol 219835
S V</w> 219674
en rich 219589
fil m</w> 219476
ati tis</w> 219468
inten sive</w> 219390
9 9</w> 219347
clos ely</w> 219106
E valu 219025
he re 218967
GF R</w> 218929
f ar</w> 218878
ill us</w> 218877
E E 218859
i b</w> 218765
an a</w> 218688
in du 218667
en ia</w> 218468
res ol 218419
fem oral</w> 218413
foc used</w> 218199
ten tion</w> 218177
8 1</w> 218147
Chin a</w> 218133
direc ted</w> 218046
oz yg 217993
trans formation</w> 217988
em p 217968
issu e</w> 217820
lim b</w> 217818
pers on 217700
equ al</w> 217619
shap e</w> 217584
produc ing</w> 217522
m arg 217496
ex ten 217490
re verse</w> 217366
pl ex</w> 217351
ent ally</w> 217278
P V 217141
arter ies</w> 217132
vari ations</w> 217116
res sed</w> 217089
ocy tic</w> 217028
pers ons</w> 216941
so ft</w> 216836
lat ter</w> 216811
pro mo 216735
0. 2</w> 216682
Con tro 216580
ach ieve</w> 216570
mat ter</w> 216540
p in 216528
paren ts</w> 216415
e a</w> 216332
ow n</w> 216276
st ers</w> 216079
impl antation</w> 216076
as ting</w> 215898
ex pressing</w> 215864
ser ious</w> 215854
p ed</w> 215833
air way</w> 215639
ill in</w> 215625
s low</w> 215588
hyper tensive</w> 215573
o ro 215521
vi ol 215479
hybri di 215463
hund red</w> 215418
analy ze</w> 215378
anti oxidant</w> 215352
seg ment</w> 215291
S cale</w> 215270
P H</w> 215252
ser a</w> 215228
A S 215219
F our</w> 215185
prote in 215161
extrac ts</w> 215130
decre ases</w> 215115
chlor ide</w> 215076
c ent</w> 215036
t al 215017
il ls</w> 214947
in dependently</w> 214943
E 2</w> 214869
mam malian</w> 214857
organ ization</w> 214769
melan oma</w> 214742
1 1 214673
radi otherapy</w> 214613
fix ed</w> 214590
I R</w> 214581
8 9</w> 214548
nur ses</w> 214518
compar ing</w> 214447
N H 214363
C al 214304
ow el</w> 214299
ath s</w> 214286
if y</w> 214274
as tic</w> 214237
D L 214058
tic ul 213978
the ore 213863
con genital</w> 213816
pul se</w> 213803
fluo ro 213794
8 7</w> 213779
ac in</w> 213773
Ex perim 213734
n a 213732
ad mission</w> 213717
rab bit</w> 213646
fibrobl asts</w> 213633
P R</w> 213631
C r 213467
def ect</w> 213405
igh tly</w> 213290
Ne uro 213254
influ enced</w> 213219
it ations</w> 213188
comm erc 213184
practi ces</w> 213183
G C</w> 213171
C ell</w> 213170
uter ine</w> 213031
9 4</w> 213018
ye ast</w> 212897
20 14</w> 212767
rec tomy</w> 212744
ocarcin oma</w> 212639
Sur g 212630
perc eived</w> 212418
o ts</w> 212405
U D 212324
chrom e</w> 212293
remain ing</w> 212159
H ist 212008
B S</w> 211887
ab or 211868
algorith m</w> 211853
expl ored</w> 211821
net works</w> 211819
iz es</w> 211746
t ant</w> 211593
neurolog ical</w> 211548
larg ely</w> 211541
aff ecting</w> 211526
E T</w> 211525
meth ylation</w> 211476
morph ological</w> 211462
z in 211303
ati on 211299
om al 211232
B 1</w> 211001
modi fication</w> 210925
ex clud 210911
H z</w> 210851
op a 210816
est rogen</w> 210786
mag nit 210728
N G</w> 210706
habil itation</w> 210566
In f 210425
HC V</w> 210419
20 15</w> 210354
A 1</w> 210337
ex tended</w> 210273
3 00</w> 210199
fr ontal</w> 210166
gl omer 210116
res er 210065
solu tions</w> 209990
G A</w> 209947
par allel</w> 209927
compreh ensive</w> 209858
impro ving</w> 209835
dem ographic</w> 209720
sam pling</w> 209701
om at 209655
underst ood</w> 209604
A t 209586
pro ved</w> 209483
cruc ial</w> 209450
con tains</w> 209369
differenti ated</w> 209353
exhib it</w> 209335
alb umin</w> 209315
gen otype</w> 209311
m er</w> 209141
wor k 208888
s ting</w> 208780
e de 208463
T 3</w> 208439
behavi our</w> 208249
n ia</w> 208239
il lu 208211
an ese</w> 208183
di verse</w> 208179
stit ute</w> 208124
wh om</w> 208120
earli er</w> 208042
otyp ic</w> 208016
ad op 207964
sum mar 207949
worl d</w> 207938
f ill 207725
repres ents</w> 207683
1 20</w> 207638
stimul us</w> 207606
ris ks</w> 207525
chem o 207439
I M 207418
Tran s 207301
enhanc ement</w> 207290
cy s 207150
S ome</w> 207092
epti de</w> 207068
tox in</w> 206914
electr onic</w> 206903
antibio tics</w> 206887
substanti al</w> 206880
cir cum 206873
surg e 206837
d a</w> 206809
ab r 206661
conc ept</w> 206654
9 7</w> 206576
sl ightly</w> 206492
ob ese</w> 206488
col um 206459
h ome 206454
t ac 206378
pre g 206303
osyn thesis</w> 206276
c DNA</w> 206211
new ly</w> 206200
fe ed 206156
Com pared</w> 206152
Uni versity</w> 206096
Me an</w> 206025
sci enti 206015
4 , 205834
stor age</w> 205750
con tain</w> 205714
spectro metry</w> 205499
predic tors</w> 205497
establ ish</w> 205482
Con clusion</w> 205468
sec tions</w> 205364
P ase</w> 205258
agon ist</w> 205252
mod ulation</w> 205229
high ligh 205201
enti a</w> 205090
posi tively</w> 205058
meas uring</w> 205028
ad es</w> 205017
i od 205011
le th 204981
satisfac tion</w> 204973
ac ter</w> 204918
m m 204775
con served</w> 204728
ar ray</w> 204656
contrib ution</w> 204492
glyc er 204472
Me dical</w> 204441
se l</w> 204438
fl av 204363
tr iti 204325
immun ity</w> 204119
sp re 204034
cyto kine</w> 204019
G AB 203949
detec table</w> 203865
and ed</w> 203844
9 1</w> 203766
S tu 203764
us ers</w> 203758
su stained</w> 203753
e tr 203740
reve al</w> 203694
U T 203609
sal ine</w> 203464
bene ficial</w> 203408
expl ained</w> 203382
olog ists</w> 203334
1 5. 203189
u es</w> 203166
c ad 203111
ex er 203095
L C</w> 203078
yl ate</w> 202935
E LI 202854
impl ant</w> 202732
N a 202713
dec line</w> 202625
t age</w> 202546
accompan ied</w> 202495
it ude</w> 202453
RO D 202412
G H</w> 202352
p il 202207
add ress</w> 202200
ste re 202105
k age</w> 201917
Ch ar 201909
1. 2</w> 201891
icro bial</w> 201862
ca re 201848
log istic</w> 201726
stand ardi 201676
aff ects</w> 201674
T GF</w> 201434
im er</w> 201384
ac ted</w> 201301
de part 201296
oc clusion</w> 201206
eng ine 201169
N P</w> 201112
org ans</w> 201048
A 2</w> 201029
bu il 200997
de hy 200952
D R 200951
sc anning</w> 200919
H 2 200879
describ es</w> 200814
0. 3</w> 200805
T yp 200592
regul ate</w> 200549
itu itary</w> 200549
adjuv ant</w> 200507
el op 200427
sup pressed</w> 200355
cl earance</w> 200299
can not</w> 200297
con sequences</w> 200139
vari ant</w> 200109
st om 200101
C C 200090
ROD UC 200052
traum atic</w> 200003
di ver 199936
multi variate</w> 199924
in ter</w> 199865
phen yl 199855
immun ore 199819
sy st 199773
em bl 199759
HC C</w> 199574
electr ical</w> 199511
lim it</w> 199498
re activity</w> 199325
influ enz 199278
INT RODUC 199278
f a 199247
o virus</w> 199102
S u 199092
long itudinal</w> 199016
frag ment</w> 198925
electr ic</w> 198860
ch est</w> 198853
no v 198833
20 16</w> 198783
integr ated</w> 198737
consist ed</w> 198734
20 13</w> 198711
S M</w> 198703
F unc 198652
del ta</w> 198624
b s</w> 198619
INTRODUC TION</w> 198593
allow ed</w> 198590
i pl 198571
h am 198471
ne t</w> 198468
roph y</w> 198309
ast er</w> 198285
effec tively</w> 198232
acet ate</w> 198193
S al 198180
po orly</w> 198151
PA R 198044
otrop ic</w> 198030
adhe rence</w> 198008
Dev elop 197983
O p 197952
oph osph 197876
U V</w> 197712
P P</w> 197659
I CA 197605
assemb ly</w> 197528
P ol 197471
acchar ide</w> 197459
Stu dies</w> 197420
sten osis</w> 197409
r ig 197180
de vi 197179
coun t</w> 197167
magnit ude</w> 197148
al ities</w> 197141
a emia</w> 197131
nor m 197110
fr actions</w> 197065
el ement</w> 197015
persist ent</w> 196979
press or</w> 196876
ol ds</w> 196875
estim ates</w> 196749
d ual</w> 196740
ath i 196728
low ing</w> 196710
E B 196702
bur den</w> 196679
respon si 196669
fac t</w> 196622
fix ation</w> 196613
ampl itude</w> 196596
gh ts</w> 196574
Bac kground</w> 196536
t ance</w> 196313
co ver 196224
nit rogen</w> 196214
st ay</w> 196209
par ts</w> 196161
ici ans</w> 196108
ens in</w> 196087
pro phyl 196073
biomar kers</w> 195989
d ation</w> 195950
ob tain</w> 195934
an dro 195907
N F 195897
cl early</w> 195892
out put</w> 195742
ell itus</w> 195725
ib ility</w> 195681
cir c 195679
In te 195678
advant ages</w> 195641
P l 195554
separ ation</w> 195487
pl e 195456
erro r</w> 195443
inhib its</w> 195373
se as 195353
A F</w> 195283
h our</w> 195196
substr ates</w> 195105
rang ing</w> 195085
de si 195065
ap er 194909
suppor ted</w> 194906
nutri tion</w> 194885
e f</w> 194752
conc ep 194704
dep th</w> 194488
gener ative</w> 194464
D el 194455
Addi tionally</w> 194404
qu estions</w> 194392
al dehy 194370
7. 5</w> 194270
pres ents</w> 194230
con serv 194173
fluoresc ent</w> 194004
volun te 193975
ri um</w> 193946
an k 193927
polymorph ism</w> 193906
com it 193835
a wa 193831
exam ple</w> 193807
infec tious</w> 193739
pair s</w> 193719
expl ain</w> 193701
vis u 193676
sh ip</w> 193483
n asal</w> 193477
clin ic</w> 193337
rhe um 193317
epith elium</w> 193285
go al</w> 193233
ev oked</w> 193150
valid ated</w> 193004
N K</w> 192973
ca rotid</w> 192950
subst ance</w> 192939
ede ma</w> 192880
C O</w> 192840
pers onal</w> 192800
H I 192771
c os 192647
junc tion</w> 192387
is es</w> 192328
as signed</w> 192200
sen se</w> 192093
PE T</w> 192081
l angu 191908
cap able</w> 191846
end ocrine</w> 191798
ex pec 191757
car bo 191752
O c 191749
ost asis</w> 191683
func tioning</w> 191629
1 6. 191546
docum ented</w> 191517
A G 191482
determin ing</w> 191449
reproduc tive</w> 191359
symp tom</w> 191309
le ts</w> 191306
pel v 191239
thorac ic</w> 191173
si c</w> 191166
micro bial</w> 191159
medi ately</w> 191126
b owel</w> 191106
Sim il 191082
As sess 191022
ill ance</w> 190945
ather os 190902
princ i 190901
pol y</w> 190767
O ut 190607
resid ual</w> 190507
mo thers</w> 190410
g ent</w> 190249
facilit ate</w> 190211
av y</w> 190050
orig inal</w> 190041
W or 190039
embry onic</w> 190009
per itoneal</w> 189977
bet a 189845
Euro pe 189832
cor d 189765
sper m</w> 189751
o res</w> 189680
intro duced</w> 189605
ul c 189561
ul monary</w> 189551
comput er</w> 189549
min or</w> 189472
prolifer ative</w> 189469
S ch 189461
Chil d 189362
sensi ti 189344
C V 189302
restric ted</w> 189294
di a</w> 189248
en al</w> 189168
pol ar</w> 189167
al ve 189127
reg ular</w> 189106
aden osine</w> 189100
assist ed</w> 189091
anal ge 189068
k ill 189066
continu ed</w> 188973
Ser um</w> 188914
sal t</w> 188901
surfac es</w> 188831
a id</w> 188619
no ise</w> 188568
Compar ison</w> 188547
A V 188537
f it 188532
ir ing</w> 188526
de aths</w> 188411
Par ticip 188386
syst olic</w> 188366
correl ations</w> 188329
b yp 188328
medi al</w> 188326
at tit 188234
le a 188202
h r</w> 188122
resour ces</w> 188106
u preg 188099
illu str 188096
N O 188051
car r 188013
R R</w> 187978
anes thesia</w> 187973
p ituitary</w> 187917
flu x</w> 187878
ph ag 187844
confir m</w> 187839
C E 187835
am ous</w> 187767
compar t 187686
h is</w> 187646
circul ating</w> 187610
aer obic</w> 187607
hypox ia</w> 187506
t am 187478
re habilitation</w> 187465
aryng eal</w> 187451
cryst al</w> 187449
pharmac o 187362
m ol 187357
emis sion</w> 187287
is ms</w> 187230
phosph atase</w> 187174
M a 187166
AC T</w> 187053
ma x</w> 186945
R adi 186940
dis played</w> 186810
thou ght</w> 186801
Ch ang 186793
call ed</w> 186709
he aring</w> 186678
chym al</w> 186621
vec tor</w> 186574
m ellitus</w> 186562
frag ments</w> 186534
lymph ocyte</w> 186532
del etion</w> 186518
C F</w> 186505
youn ger</w> 186505
Phy si 186463
es sel</w> 186414
reli ability</w> 186400
insi c</w> 186384
Au str 186283
Evalu ation</w> 186111
A M</w> 186051
cl im 185974
ELI SA</w> 185951
ach ment</w> 185922
ad mitted</w> 185893
fibr ill 185786
p ing</w> 185768
fung al</w> 185761
sulf ate</w> 185759
4 0 185753
s p</w> 185744
au g 185737
m im 185701
ur ia</w> 185689
yt o 185627
os in</w> 185579
allel e</w> 185572
on e 185539
I s</w> 185452
T C</w> 185433
ser ve</w> 185265
si es</w> 185189
val idity</w> 185118
S R</w> 185101
ocyt osis</w> 185063
susp ected</w> 185047
regul ating</w> 185005
di alysis</w> 185003
f und 184706
r ac 184669
symptom atic</w> 184608
pl anning</w> 184606
excre tion</w> 184510
H E 184486
emo tional</w> 184447
set tings</w> 184316
d yl 184253
endoscop ic</w> 184042
loc us</w> 183906
he imer</w> 183896
cataly tic</w> 183859
investig ations</w> 183782
g ir 183733
Europe an</w> 183725
z one</w> 183717
pig s</w> 183716
gener ate</w> 183684
eti ology</w> 183650
f et 183545
Al z 183526
cath eter</w> 183478
ot or</w> 183427
co efficient</w> 183375
util ization</w> 183366
he ight</w> 183330
car til 183282
schizophren ia</w> 183184
mo ti 183145
hybridi zation</w> 183137
possi bly</w> 183090
clu ster</w> 183028
ech ocardi 182988
ul f 182975
recommend ations</w> 182970
cytotox ic</w> 182968
dem entia</w> 182898
tren d</w> 182888
bi ology</w> 182834
end ed</w> 182799
trac he 182741
L D</w> 182682
20 12</w> 182663
ta king</w> 182571
og ram</w> 182560
repres ent 182481
bacter ium</w> 182456
remo ved</w> 182455
muc osal</w> 182440
0.0 2</w> 182436
av oid 182415
B et 182414
P rim 182286
posi tions</w> 182254
1. 1</w> 182175
i si 182080
l ar 182058
plas m</w> 182033
iz ations</w> 182029
pl er</w> 181931
st anding</w> 181920
mac ro 181917
A g</w> 181832
f re 181748
Alz heimer</w> 181737
cor tico 181472
sol ute</w> 181425
cre atin 181417
zin c</w> 181416
B D</w> 181159
per f 181109
am ent</w> 181068
c AMP</w> 180933
muc osa</w> 180904
isol ation</w> 180847
tu be</w> 180726
ec al</w> 180678
tre ating</w> 180614
carb ox 180396
aqu eous</w> 180390
character ize</w> 180362
P ost 180361
al ign 180354
re tention</w> 180310
20 00</w> 180288
sw it 180276
qual itative</w> 180253
umb ar</w> 180055
rever sible</w> 180047
deta iled</w> 180044
angi ography</w> 180031
ul tra 179980
vacc ination</w> 179913
dehydro genase</w> 179883
nit ro 179865
PL C</w> 179807
0. 4</w> 179745
venti lation</w> 179700
hist opath 179599
in clusion</w> 179474
controll ing</w> 179469
il ateral</w> 179463
electrophore sis</w> 179420
fic ations</w> 179402
r hyth 179354
el ds</w> 179315
recei ve</w> 179184
at ter 179170
T B</w> 179144
subjec ted</w> 178998
neph ro 178983
pharmac ological</w> 178909
frequ encies</w> 178884
gradi ent</w> 178770
1. 3</w> 178708
bloc ked</w> 178705
intr a</w> 178689
parti cle</w> 178678
op ic</w> 178654
no des</w> 178635
I GF</w> 178588
M E</w> 178498
d ents</w> 178487
D N 178441
hybri d</w> 178418
demonstr ates</w> 178398
per form</w> 178251
synth ase</w> 178224
del ay</w> 178146
D ep 178107
e asi 178105
bro ad</w> 178064
d end 178039
cyto chrome</w> 178029
vari ance</w> 177918
M on 177894
simult aneously</w> 177846
con form 177803
correc t</w> 177791
o ic</w> 177706
v ate</w> 177697
consider able</w> 177690
im mediately</w> 177569
pre feren 177529
separ ate</w> 177522
var ying</w> 177350
potenti als</w> 177282
fe ature</w> 177266
su ic 177230
ot ensin</w> 177163
Dis ease</w> 177124
ste ine</w> 176997
langu age</w> 176963
P e 176961
integr ation</w> 176921
Thir ty</w> 176920
1. 4</w> 176744
L P</w> 176736
Sign ific 176673
im e</w> 176671
p ic 176651
fav or 176651
Res earch</w> 176621
D op 176597
af f</w> 176560
wom an</w> 176485
in sec 176362
em entary</w> 176355
elec tive</w> 176329
barri er</w> 176266
sc an</w> 176265
re ached</w> 176225
ev er 176225
spe ed</w> 176209
obstruc tion</w> 176139
gen it 176091
um p</w> 176027
N MR</w> 176026
am ph 176012
feed back</w> 175965
urb an</w> 175926
lu tion</w> 175917
u tion 175901
el ess</w> 175895
blo t</w> 175889
experi ences</w> 175887
bl ind</w> 175875
T H</w> 175864
ec h</w> 175782
b its</w> 175743
b ond</w> 175732
C E</w> 175681
D C</w> 175663
assess ing</w> 175637
cryst all 175586
bac kground</w> 175520
opath ic</w> 175464
u ting</w> 175446
ro om</w> 175415
duc t</w> 175351
U C</w> 175321
r ural</w> 175284
inf ant</w> 175265
pres crib 175261
speci al 175206
interfer on</w> 175082
1 50</w> 175017
ac ent</w> 175004
3. 5</w> 174962
z ym 174917
aggreg ation</w> 174885
sp i 174828
ec tin</w> 174827
pr in 174800
ptom atic</w> 174723
spec ial</w> 174689
oc aine</w> 174685
compar ative</w> 174641
B lo 174625
dri ven</w> 174621
reduc es</w> 174588
Ex pression</w> 174577
alph a 174471
embry os</w> 174470
perc eption</w> 174401
bi as</w> 174366
C ardi 174345
coun ter 174299
er b 174296
om ical</w> 174258
numer ous</w> 174178
f ru 174100
n e</w> 174031
G u 174022
antim icrobial</w> 174017
V ari 173989
nucle i</w> 173985
byp ass</w> 173982
P a 173940
ud es</w> 173910
A K 173896
ish ing</w> 173769
MD A</w> 173708
di ast 173672
spectr a</w> 173616
er a</w> 173585
4 00</w> 173492
D R</w> 173409
et h</w> 173390
bu ff 173221
M ore</w> 173086
path ophysi 173080
m ented</w> 173042
r in 173019
physic ian</w> 172978
cy cles</w> 172963
In hib 172934
he avy</w> 172916
C G</w> 172906
seg ments</w> 172858
de oxy 172827
prob ability</w> 172811
ex ist</w> 172781
apopto tic</w> 172738
equi valent</w> 172672
tum ours</w> 172538
tiv ation</w> 172532
tion ed</w> 172532
I V 172453
arr hyth 172434
mix ture</w> 172421
M any</w> 172405
includ es</w> 172392
assi um</w> 172382
exist ence</w> 172349
hypo thalam 172346
retro spectively</w> 172318
nitr ic</w> 172300
lipo protein</w> 172269
athi one</w> 172250
invol ves</w> 172126
C L</w> 172101
wh e 172071
phenomen on</w> 172060
de generation</w> 172049
il ib 172032
men ing 171996
ast oma</w> 171935
st ment</w> 171854
F e</w> 171837
heterogene ity</w> 171747
prepar ations</w> 171707
n ar 171662
ch ec 171614
L H</w> 171476
rele ased</w> 171452
sk ills</w> 171448
I denti 171404
dor sal</w> 171391
B L</w> 171373
cycl o 171362
glutam ate</w> 171356
os in 171341
C M</w> 171315
it ol</w> 171267
2. 0</w> 171237
R s</w> 171066
complic ated</w> 171054
aldehy de</w> 171050
el ls</w> 170999
preven ted</w> 170980
vi ability</w> 170929
d ase</w> 170911
comp et 170883
program m 170688
L V</w> 170675
subsequ ently</w> 170650
L E 170637
ca using</w> 170603
t on 170593
v essel</w> 170574
cou pling</w> 170487
ul l 170213
Me as 170200
b earing</w> 170152
um ab</w> 170141
prog ress</w> 170125
at um</w> 170107
F ive</w> 170106
v o 170096
s . 170056
low est</w> 170033
AI M</w> 170019
N I 169953
repor ting</w> 169934
restric tion</w> 169869
C u</w> 169838
phen yl</w> 169757
U l 169747
cys tic</w> 169610
pi g</w> 169538
attenu ated</w> 169520
so f 169517
adj acent</w> 169513
ul l</w> 169500
theore tical</w> 169495
lo ading</w> 169486
az ol 169485
Austr al 169464
sal iv 169442
sim ulation</w> 169383
dis per 169365
cyto plasmic</w> 169309
fi elds</w> 169306
triti onal</w> 169306
an omal 169265
Particip ants</w> 169094
g et 169025
u bi 168980
dis ability</w> 168960
circ ulation</w> 168910
ster oids</w> 168788
eth n 168766
implic ated</w> 168640
Afr ican</w> 168599
perc ep 168547
m 2</w> 168511
mon o 168507
on as</w> 168491
im mediate</w> 168421
f ic</w> 168395
si des</w> 168355
in a</w> 168341
or i</w> 168128
T 2</w> 168085
influenz a</w> 168071
alve olar</w> 167874
E arly</w> 167815
polic y</w> 167814
identi fying</w> 167795
polym er</w> 167793
0. 6</w> 167782
Dec ember</w> 167766
vers ely</w> 167714
.0 01</w> 167579
r s 167553
reg ard</w> 167515
hyper troph 167442
lin e 167383
acc o</w> 167357
distrib uted</w> 167341
od on 167278
eff orts</w> 167199
CY P 167131
aden ocarcinoma</w> 167118
th re 167105
su b</w> 166997
m os 166959
cor tis 166904
respec tive</w> 166883
H PV</w> 166817
cere b 166813
Di ag 166800
0. 8</w> 166789
un treated</w> 166756
man ip 166719
a x</w> 166683
st atic</w> 166664
recru ited</w> 166645
st rom 166631
am ylo 166585
micro g</w> 166577
volunte ers</w> 166560
squ amous</w> 166416
minim um</w> 166406
Typ e</w> 166399
di min 166383
1 8. 166305
initi ally</w> 166301
hemorrh age</w> 166273
lim itations</w> 166237
rou gh</w> 166233
tra its</w> 166066
p ine</w> 166045
es tive</w> 165997
re perfusion</w> 165962
de pressive</w> 165956
st aff</w> 165925
f ever</w> 165908
me t</w> 165906
et ro 165850
aphy loc 165822
tic ity</w> 165771
lu e</w> 165652
o plasty</w> 165639
re ferred</w> 165576
Con clusions</w> 165569
vesi cles</w> 165558
direc tion</w> 165361
op tic</w> 165290
immun oglob 165056
F I 165012
construc ted</w> 164993
B M</w> 164923
esc ence</w> 164892
cartil age</w> 164807
1. 6</w> 164788
adap tation</w> 164769
c ess 164710
st eps</w> 164690
laparo scopic</w> 164656
G R 164653
au re 164593
ro t 164519
In v 164475
ex per 164431
al ter</w> 164262
com posed</w> 164199
ine a</w> 164165
enti re</w> 164139
om ics</w> 164121
rab bits</w> 164093
K 1</w> 164092
profes sional</w> 164074
auto immune</w> 164010
sin us</w> 163943
on ce</w> 163891
cir rho 163887
bin d</w> 163780
b ic 163774
monit ored</w> 163717
com posite</w> 163686
mitochond ria</w> 163664
2 -</w> 163603
phosph ati 163562
arg in 163252
dis cre 163240
o g</w> 163148
cen ters</w> 163121
concer ning</w> 163038
M in 163021
disc ipl 163021
struc tured</w> 163009
ar rang 163008
elev ation</w> 162973
p ene 162958
b ran 162956
S outh</w> 162924
ta x 162894
ad ed</w> 162893
clos ed</w> 162863
eth yl</w> 162823
ai l</w> 162813
sequ ently</w> 162786
evalu ating</w> 162782
le p 162753
o sterone</w> 162700
asi bility</w> 162648
Ac ute</w> 162469
pot assium</w> 162465
spl een</w> 162407
D P</w> 162296
w er</w> 162276
sat ur 162257
Char acter 162237
expan sion</w> 162231
coll ection</w> 162172
shor ter</w> 162154
con comit 162150
pol arization</w> 162116
put ative</w> 162102
smo kers</w> 162060
simult aneous</w> 162051
predomin antly</w> 162031
tin g 161945
s chem 161893
bec ame</w> 161879
read y</w> 161847
p us</w> 161788
f ing 161780
in ner</w> 161750
mo bility</w> 161737
adv ances</w> 161723
standardi zed</w> 161721
adi ol</w> 161663
it ment</w> 161596
inser tion</w> 161565
sil ic 161552
1. 8</w> 161440
there by</w> 161378
injec tions</w> 161377
consi sting</w> 161363
respon sive</w> 161358
SE T 161339
epilep sy</w> 161311
reg imen</w> 161180
G er 161142
overex pression</w> 161119
suscepti ble</w> 161084
k in</w> 161064
3. 3</w> 161038
ad renal</w> 161014
H M 160976
recipi ents</w> 160947
cle avage</w> 160938
A b</w> 160775
ph ases</w> 160763
i ance</w> 160682
te tr 160681
carcin omas</w> 160529
ad y</w> 160510
k ly</w> 160430
R is 160407
surro un 160386
oscop y</w> 160311
TI NG</w> 160307
S S 160237
relax ation</w> 160108
don ors</w> 160087
depend ing</w> 160084
br id 159987
T s</w> 159956
pl atin</w> 159891
be d 159872
E ach</w> 159821
lig ands</w> 159807
opi oid</w> 159707
Ch r 159641
AI DS</w> 159618
ex tension</w> 159576
ST R 159483
F ir 159473
ca vity</w> 159450
1. 7</w> 159338
ati g 159295
end ometr 159262
neg atively</w> 159254
p ly</w> 159248
Blo od</w> 159213
contrac tion</w> 159071
pa ired</w> 158977
chol in 158969
l um 158955
idi c</w> 158752
episod es</w> 158684
g ut</w> 158669
pl an 158659
fr acti 158659
extrem ely</w> 158658
depend s</w> 158650
glut athione</w> 158597
rec o 158519
diast olic</w> 158518
nan o 158489
compl ement</w> 158465
ro b 158394
G I 158369
D 1</w> 158281
pre treatment</w> 158220
res ear 158111
practi cal</w> 158048
cl asses</w> 157986
as ingly</w> 157873
ren ess</w> 157856
glyc os 157829
mat uration</w> 157768
am mon 157700
angi otensin</w> 157669
p ass 157664
util ized</w> 157643
v in 157631
m apping</w> 157566
tas ks</w> 157548
i ent</w> 157508
ep it 157497
ic illin</w> 157466
oc ellular</w> 157401
Fol lowing</w> 157378
polymorph isms</w> 157337
le g 157274
cytotox icity</w> 157237
grow n</w> 157158
allow ing</w> 157157
EE G</w> 157136
P 2</w> 157098
path ogens</w> 157095
ser ot 157065
otox in</w> 156946
Child ren</w> 156930
ro se</w> 156927
sp ine</w> 156923
f lo 156862
reco vered</w> 156781
re t 156738
4. 5</w> 156707
plasm id</w> 156698
def ine</w> 156673
clos ure</w> 156625
VE GF</w> 156620
util ity</w> 156602
I f</w> 156522
surve illance</w> 156502
re generation</w> 156457
lo op</w> 156455
d wide</w> 156450
cur ves</w> 156442
A g 156333
path ogenic</w> 156319
de position</w> 156303
F if 156263
M D</w> 156240
S uch</w> 156201
consi der</w> 156187
guid ed</w> 156153
valid ation</w> 156125
20 10</w> 156103
pr o</w> 156001
al ways</w> 155976
man di 155963
os por 155951
incorpor ation</w> 155923
dr y</w> 155902
emph asi 155821
sp ring</w> 155807
en se</w> 155773
coun ts</w> 155712
asym ptomatic</w> 155671
s ome 155652
P S 155630
insi ghts</w> 155600
flu or 155583
sub units</w> 155572
CO 2</w> 155557
arter i 155541
O x 155536
res s 155511
AT Pase</w> 155432
atig ue</w> 155431
trans genic</w> 155426
y le</w> 155399
l amin 155374
20 17</w> 155372
th in</w> 155325
separ ated</w> 155309
refl ect</w> 155294
oper ating</w> 155276
M T</w> 155253
v ic 155237
nic o 155232
col or</w> 155227
p yl 155220
As sociation</w> 155211
ab use</w> 155198
precurs or</w> 155156
drin king</w> 155156
0. 9</w> 155136
cardi omy 155083
A G</w> 154978
enzym atic</w> 154924
si c 154817
me d 154814
A m 154774
favor able</w> 154772
i onic</w> 154681
sc ales</w> 154657
tw are</w> 154649
tw ice</w> 154612
ch ains</w> 154603
Assess ment</w> 154587
lay ers</w> 154586
M ar 154491
E m 154484
onucle ar</w> 154415
candi date</w> 154315
thrombo sis</w> 154313
vol tage</w> 154305
H F</w> 154246
os c 154155
pre lim 154144
macroph age</w> 154140
p p 154137
METHO D</w> 154128
correc tion</w> 154100
Prim ary</w> 154097
ester one</w> 154080
R I 154056
mo stly</w> 154020
temper atures</w> 154018
t an 153965
2 D</w> 153860
ast om 153749
ol e 153696
incre asingly</w> 153598
Ther ap 153538
ST UD 153447
hyd rate</w> 153429
STUD Y</w> 153393
immunos up 153298
L 1</w> 153295
resid ents</w> 153265
om eg 153222
ru ption</w> 153150
pa thetic</w> 153089
in st 153037
inter face</w> 153003
m u 152998
r in</w> 152907
in direct</w> 152869
requ iring</w> 152738
aure us</w> 152678
i etic</w> 152660
ubi qu 152652
ot ting</w> 152629
du od 152601
inf ra 152569
ren e</w> 152501
le x</w> 152495
dr am 152473
suppl ementation</w> 152415
l umbar</w> 152340
fil ms</w> 152324
valu able</w> 152310
adap tive</w> 152302
ana es 152298
P ur 152246
CN S</w> 152201
dec i 152155
agg ressive</w> 152142
defic its</w> 152064
vir ul 152007
predic ting</w> 151991
str ati 151976
f s</w> 151930
H S</w> 151918
or adi 151912
inf erior</w> 151870
par ameter</w> 151854
main tain</w> 151853
sen sus</w> 151843
perme ability</w> 151735
2. 2</w> 151708
commun ities</w> 151700
qu estion</w> 151635
te eth</w> 151603
gi ve</w> 151576
si ties</w> 151533
g over 151494
Pati ent</w> 151435
m ach 151428
1 7. 151386
S V 151384
en coun 151344
categ ories</w> 151277
worl dwide</w> 151275
indic es</w> 151150
attrib uted</w> 151094
pos es</w> 151078
scienti fic</w> 151077
te tra 151060
om s</w> 150992
loc ations</w> 150922
col d</w> 150868
Str uc 150862
ne arly</w> 150828
test osterone</w> 150805
ene sis</w> 150778
ori entation</w> 150765
on dro 150568
b p</w> 150560
hem oglobin</w> 150533
profes sion 150511
ar rest</w> 150382
pr on 150372
Sy stem 150360
coag ulation</w> 150341
P O</w> 150319
influ ences</w> 150318
N OS</w> 150221
ri tic</w> 150206
relap se</w> 150170
ig ible</w> 150168
con sum 150124
Pre vious</w> 150055
bi osynthesis</w> 149920
e w 149770
oc al</w> 149746
20 11</w> 149723
h i 149698
m mol</w> 149685
dec om 149683
cell ul 149682
T ra 149675
impl ants</w> 149633
ac e 149614
erro rs</w> 149606
oti des</w> 149576
predic tor</w> 149543
se e 149504
prote ase</w> 149486
aud itory</w> 149463
require ments</w> 149459
mo vements</w> 149456
CD 8</w> 149432
cl ones</w> 149403
manifest ations</w> 149364
ilib rium</w> 149276
emerg ing</w> 149267
op tions</w> 149218
Ob jec 149156
regul ates</w> 149153
su g 149148
cl ar 149109
g old</w> 149084
unc er 148992
oper ated</w> 148926
L ong</w> 148799
nu tritional</w> 148787
tob acco</w> 148759
n M</w> 148740
repe at</w> 148725
spre ad</w> 148699
E D 148690
PA TI 148659
The ir</w> 148653
exc ess</w> 148645
resi due</w> 148598
R h 148565
mm Hg</w> 148553
abl ation</w> 148552
ve h 148547
impro vements</w> 148540
s clerosis</w> 148512
t ations</w> 148418
li ve</w> 148328
exc it 148274
prelim inary</w> 148263
re mission</w> 148253
comp ens 148251
SET TING</w> 148236
2 5 148234
10 00</w> 148210
pelv ic</w> 148202
om ers</w> 148195
C ar 148181
P T</w> 148123
T R</w> 148108
sep sis</w> 148096
N L 148046
ari ties</w> 148036
o side</w> 147985
pneumon ia</w> 147960
colum n</w> 147951
PATI EN 147898
corne al</w> 147854
fi st 147776
fo ot</w> 147759
sof tware</w> 147741
M I</w> 147693
Jap anese</w> 147617
ga p</w> 147597
ell ed</w> 147579
2. 1</w> 147572
ag land 147547
ag ne 147519
estr adiol</w> 147509
h and 147423
hippocamp al</w> 147352
10 0 147331
advant age</w> 147323
pl ex 147280
0. 7</w> 147226
pl an</w> 147217
struc tion</w> 147215
spectr al</w> 147183
in ating</w> 147073
is ons</w> 147060
fe asibility</w> 146957
lin ed</w> 146899
great ly</w> 146859
C ase</w> 146856
Sur ve 146850
G 1</w> 146753
p s 146741
p ren 146700
ex press</w> 146663
ful ness</w> 146612
d ine</w> 146554
pati onal</w> 146536
estim ation</w> 146523
easi ly</w> 146451
Ris k</w> 146448
occ u 146412
O P</w> 146368
acqu isi 146359
li on</w> 146331
cyt e</w> 146298
hydro ph 146255
ud g 146221
es es</w> 146215
ifor m</w> 146205
W e 146201
4 50</w> 146174
M olecular</w> 146113
re plic 146035
lim its</w> 146028
ti le</w> 145983
de sign 145931
f abr 145925
S ep 145910
om onas</w> 145904
intr insic</w> 145895
aneurys m</w> 145868
simul ations</w> 145854
ol ys 145737
H O</w> 145710
all ergic</w> 145697
vi de 145617
stimul ating</w> 145548
decre asing</w> 145488
E vid 145455
kn ock 145445
su med</w> 145443
scop e</w> 145395
ant um</w> 145345
U se</w> 145314
activ ator</w> 145310
lac king</w> 145304
lyc er 145250
al in</w> 145224
pl ay 145146
opo ietic</w> 145098
promo ting</w> 145033
reas ons</w> 144975
ox y</w> 144957
i ther</w> 144930
gre en</w> 144915
id osis</w> 144914
cop per</w> 144838
tren ds</w> 144832
a que</w> 144824
rheum at 144819
n ers</w> 144774
fund am 144743
clu sters</w> 144708
re ticul 144677
off er</w> 144566
Dop pler</w> 144555
In tr 144551
lip ids</w> 144527
rever sed</w> 144513
evol ution 144510
0.0 3</w> 144471
intro duction</w> 144467
2. 3</w> 144465
induc ing</w> 144421
v ents</w> 144376
depart ment</w> 144370
h er</w> 144309
educ ational</w> 144286
opa usal</w> 144261
lact ate</w> 144238
hom ogene 144158
ab solute</w> 144137
we ak</w> 144118
he ad 144112
D F 144023
per spective</w> 143828
with draw 143828
activ ating</w> 143820
ed ed</w> 143808
vag inal</w> 143757
sch ed 143741
asp ase</w> 143561
antagon ists</w> 143549
ethyl ene</w> 143542
f ro 143536
inter views</w> 143522
un usual</w> 143478
19 . 143455
examin ations</w> 143415
O A</w> 143324
trans lation</w> 143323
loc i</w> 143310
prog esterone</w> 143280
Chang es</w> 143268
ul ative</w> 143190
se di 143176
dis rup 143173
entr y</w> 143173
argin ine</w> 143094
medic ations</w> 143045
hormon es</w> 142953
home ostasis</w> 142939
y r</w> 142901
method ology</w> 142872
ax ial</w> 142789
gu ide</w> 142736
r un 142597
D H</w> 142573
Plas ma</w> 142489
IC U</w> 142412
oun d 142328
adren ergic</w> 142277
D et 142259
malign ancy</w> 142197
osc ill 142165
RO S</w> 142147
s plic 142146
gu inea</w> 142121
A ut 142116
gest ation</w> 142089
c ut 142081
indic ators</w> 142058
ie f</w> 142046
Develop ment</w> 142011
p ent 142001
ep i 141982
tro p 141978
deli vered</w> 141950
re frac 141943
Chr onic</w> 141899
M od 141892
fl ic 141887
correl ate</w> 141879
r icul 141872
ve get 141860
N T</w> 141793
seiz ures</w> 141791
resol ved</w> 141779
barri ers</w> 141766
phen otypes</w> 141685
challeng ing</w> 141625
l ess 141622
en chymal</w> 141607
tran s</w> 141509
Evid ence</w> 141468
micro bi 141443
dra in 141431
in form 141424
C K 141415
MM P</w> 141360
lin k</w> 141350
hypo thesized</w> 141296
datab ases</w> 141205
ow s</w> 141185
rob ust</w> 141151
ip al</w> 141144
thromb in</w> 141103
cap illary</w> 141079
SC C</w> 141078
can n 141062
b is 141052
S e 141045
ste ady</w> 141043
Hy per 141013
anat omical</w> 140996
ob acter 140965
under taken</w> 140930
ol i 140886
c ephal 140858
T ri 140852
ain ts</w> 140831
all ing</w> 140808
fe a 140794
F 1</w> 140592
Al so</w> 140562
dis section</w> 140471
tr ue</w> 140463
top ic</w> 140409
W il 140391
L O 140340
end o 140297
intr am 140285
commerc ial</w> 140174
cap sul 140159
di stress</w> 140154
2. 4</w> 140131
re mark 140128
glyco protein</w> 140090
yiel ded</w> 140073
n one</w> 140053
are t 140014
ra ised</w> 140013
path ogen</w> 139991
ch ers</w> 139967
haz ard</w> 139949
N on 139945
biop sies</w> 139937
Rev ie 139928
cere bro 139920
classi cal</w> 139895
analy tical</w> 139893
6 0 139889
Or g 139880
CL C</w> 139866
subst ances</w> 139832
prec ip 139821
le uc 139750
ox in</w> 139738
P G</w> 139704
n ext</w> 139666
chrom atin</w> 139660
og r 139651
C H</w> 139604
i tive</w> 139588
al ready</w> 139542
particip ation</w> 139521
f atigue</w> 139348
fe wer</w> 139331
in activation</w> 139313
in come</w> 139215
Bi o 139133
ga ve</w> 139028
graf ts</w> 139008
disco very</w> 138907
Si x</w> 138898
P seud 138867
ig aret 138854
lab eling</w> 138839
acquisi tion</w> 138810
diff ered</w> 138806
Rec ently</w> 138786
micro scopic</w> 138744
p toc 138737
charg ed</w> 138708
en sis</w> 138698
arti ficial</w> 138650
compl iance</w> 138620
P M</w> 138605
fl ap</w> 138597
profession als</w> 138556
heterogene ous</w> 138514
m ary</w> 138501
2 3 138483
P ath 138444
eph rine</w> 138439
gest ational</w> 138434
ozyg ous</w> 138434
al anine</w> 138418
di arr 138391
initi ated</w> 138357
Multi ple</w> 138320
c is 138319
typ ically</w> 138297
ev ident</w> 138224
pol ar 138184
amin o 138178
n ose</w> 138106
re in 138074
e in</w> 138007
environ ments</w> 137944
in put</w> 137942
it ems</w> 137931
be y 137905
contrib utes</w> 137873
G E</w> 137859
fil tration</w> 137856
L ow</w> 137803
insi ght</w> 137716
al izing</w> 137648
N o 137639
Fir st</w> 137606
dis play</w> 137605
Par kin 137605
men opausal</w> 137591
og ly 137576
us cular</w> 137570
reve als</w> 137532
n atal</w> 137518
it ec 137503
om ycin</w> 137480
un t</w> 137396
neutr al</w> 137289
provid ers</w> 137272
B R 137262
awa reness</w> 137246
bey ond</w> 137218
electro de</w> 137150
func tion 137140
cont ents</w> 137131
re fer 137110
practi tion 137066
concomit ant</w> 137062
ophil a</w> 137021
de generative</w> 137009
conf ig 136999
T um 136990
H em 136951
ca regi 136898
adju stment</w> 136894
le y</w> 136832
os y 136796
protoc ols</w> 136740
se em</w> 136734
hep arin</w> 136702
dis m</w> 136685
sc aff 136667
mut ag 136579
N TS</w> 136517
G 2</w> 136488
hippocamp us</w> 136406
respon d</w> 136380
su pr 136327
mul tic 136121
review s</w> 136077
con sensus</w> 136073
aut ophag 136044
responsi veness</w> 135947
C are</w> 135932
m atic</w> 135872
soci o 135872
paren tal</w> 135812
I r 135808
con sul 135801
depl etion</w> 135788
mal aria</w> 135753
weigh ted</w> 135737
ampl ification</w> 135724
pers on</w> 135663
I ts</w> 135642
HB V</w> 135606
em por 135470
ads orption</w> 135374
oc cal</w> 135349
G y</w> 135332
b ot 135310
ou ter</w> 135300
H PLC</w> 135236
high light</w> 135135
interpre tation</w> 135078
roph ic</w> 135058
O L</w> 135020
ne ither</w> 135015
determin ants</w> 135015
d yst 135014
tr ained</w> 135003
O ther</w> 134974
detec ting</w> 134929
GAB A</w> 134922
H DL</w> 134883
in os 134849
exc e 134845
an astom 134817
cir cu 134803
S tre 134763
ogra ft</w> 134715
l ibr 134594
inhib iting</w> 134591
AB STR 134561
ub er 134547
l ens</w> 134530
platel ets</w> 134510
acc es 134481
clin icians</w> 134441
immuno deficiency</w> 134441
d less</w> 134430
epider mal</w> 134391
en abl 134385
P H 134376
relev ance</w> 134282
re tri 134258
at yp 134198
it self</w> 134176
Qu anti 134173
t es 134169
por tion</w> 134152
modi fications</w> 134120
incub ated</w> 134101
S te 134070
pre valent</w> 134046
1. 9</w> 134034
ABSTR ACT</w> 134027
impro ves</w> 134021
contro ver 133975
AI MS</w> 133970
m ess 133964
she ep</w> 133958
hospit alization</w> 133927
di l 133882
W OR 133774
atic s</w> 133760
d ates</w> 133730
under go</w> 133682
com pression</w> 133482
U S 133481
ot a</w> 133436
N E 133435
intro duc 133359
syn erg 133282
sou ght</w> 133224
preven ting</w> 133209
N S</w> 133098
prost agland 133071
b al</w> 133020
ti ary</w> 132997
immunoglob ulin</w> 132984
cr y 132965
M AP 132963
5. 5</w> 132941
hydro lysis</w> 132932
S up 132905
av oid</w> 132847
pro ven</w> 132814
ch ondro 132766
scre ened</w> 132765
ig en 132721
D I</w> 132715
diff use</w> 132657
PATIEN TS</w> 132641
For ty</w> 132639
D ru 132544
prec ise</w> 132521
fibr in 132503
N an 132460
F s</w> 132446
clon ed</w> 132387
ha ir</w> 132366
W ith 132294
simil arity</w> 132182
N AD 132107
re ading</w> 132107
attit udes</w> 132103
bre ak 132016
pyl ori</w> 132005
ex clu 131986
B A</w> 131972
G a 131947
lu tin 131921
ma x 131903
enrich ed</w> 131838
2. 6</w> 131801
z o 131776
co ated</w> 131741
un ilateral</w> 131716
creatin ine</w> 131678
st ent</w> 131617
we a 131617
om er</w> 131553
l ost</w> 131551
colon y</w> 131525
por t</w> 131511
en able</w> 131491
inf er 131483
Si x 131471
arch itec 131422
C entr 131351
L ev 131345
port al</w> 131303
A I</w> 131295
ure a</w> 131275
dig ital</w> 131267
yl ic</w> 131265
op tion</w> 131188
bac k 131133
adi ly</w> 131111
rec i 131103
refrac tory</w> 131056
ic ans</w> 131052
pol l 131032
B raz 130952
need le</w> 130836
S oci 130829
embry o</w> 130823
gon ad 130815
N Ps</w> 130789
AT ED</w> 130788
ocor tico 130771
sp ir 130765
perc utaneous</w> 130764
ul t</w> 130729
exclud ed</w> 130727
U NC 130720
ra ys</w> 130707
s a 130703
N on</w> 130697
memb er</w> 130682
agon ists</w> 130669
coag ul 130660
ex ogenous</w> 130626
tend ing</w> 130606
pre d 130599
sub types</w> 130594
identi ty</w> 130511
com pati 130504
P eri 130491
correl ates</w> 130477
.0 0 130475
combin ations</w> 130425
li pos 130387
per for 130361
observ ational</w> 130296
plic ations</w> 130278
pil ot</w> 130198
im mobil 130108
x en 130103
μ g</w> 130051
dat as 130037
transcrip ts</w> 130013
T otal</w> 129991
en sion</w> 129901
ar ach 129873
3. 0</w> 129872
c am 129869
ne a</w> 129857
ic les</w> 129836
A B</w> 129818
G T 129811
impl emented</w> 129811
In tern 129789
cortis ol</w> 129785
medi ates</w> 129762
trans location</w> 129746
an ing</w> 129744
norm ally</w> 129737
I C</w> 129729
P oly 129715
A SU 129693
techn ical</w> 129647
co he 129622
p ure</w> 129620
M ech 129608
bil i 129563
is ot 129562
abund ance</w> 129447
c ut</w> 129386
C ells</w> 129347
hom ologous</w> 129328
vis its</w> 129289
c it 129272
S F</w> 129267
amin es</w> 129197
off ers</w> 129162
f all</w> 129081
le aves</w> 129063
ch amb 129055
Parkin son</w> 128998
k ade</w> 128968
os es</w> 128941
pl aque</w> 128877
AC E</w> 128798
inter sti 128722
secre tory</w> 128711
morph ine</w> 128684
P sych 128683
2. 8</w> 128665
gen otypes</w> 128652
lim iting</w> 128641
2. 7</w> 128637
S H 128614
promot es</w> 128589
lo be</w> 128553
WOR DS</w> 128544
ME ASU 128521
on to</w> 128520
spe ech</w> 128495
com es</w> 128467
be am</w> 128432
abs orb 128422
ste ad</w> 128404
reduc tase</w> 128366
pro min 128363
lu te 128353
M at 128336
auth or</w> 128301
tr ic 128269
im id 128241
fundam ental</w> 128236
con stric 128214
obstruc tive</w> 128197
ta il</w> 128082
pro genit 128072
subjec tive</w> 128037
ex ac 127991
re presented</w> 127933
sp ac 127922
ser ine</w> 127914
e j 127880
surviv ors</w> 127781
c igaret 127753
e osin 127725
dimen sions</w> 127723
dos age</w> 127675
enter ic</w> 127653
Signific ant</w> 127635
cover age</w> 127534
ai res</w> 127508
chang ing</w> 127504
Prote in</w> 127485
lea f</w> 127435
un changed</w> 127305
consist s</w> 127291
V ir 127262
pre ad</w> 127249
bre a 127238
as sive</w> 127101
substanti ally</w> 127097
exc ision</w> 127084
surroun ding</w> 127079
suppor ting</w> 127010
di ets</w> 127009
Contro l</w> 127009
pres sions</w> 126974
5 7 126965
suppor ts</w> 126954
itr al</w> 126929
ex ists</w> 126903
h is 126863
ac a 126859
Z n</w> 126745
si zes</w> 126742
pres um 126688
trig lycer 126666
L L 126554
gli al</w> 126541
prob es</w> 126540
ath yro 126519
adolesc ent</w> 126434
hab it 126423
ou gh</w> 126417
ur ity</w> 126415
w estern</w> 126384
chem ically</w> 126359
f ine</w> 126332
n oc 126321
sub set</w> 126320
consist ently</w> 126287
od e</w> 126251
c aspase</w> 126248
cre ated</w> 126238
accep table</w> 126228
bel ong 126187
c l</w> 126174
TR UNC 126155
TRUNC ATED</w> 126141
Com bin 126127
r it 126121
iti n</w> 126114
fo ur 126111
micr o</w> 126049
simul ated</w> 125981
concer n</w> 125974
c ine</w> 125973
trans duction</w> 125945
qu ad 125905
re tur 125887
b lue</w> 125884
M ut 125819
elic ited</w> 125813
fibrill ation</w> 125722
agne tic</w> 125713
9 9 125638
sp in 125518
trans fusion</w> 125458
indic ations</w> 125439
concer ns</w> 125421
evolution ary</w> 125417
emp ir 125394
satur ated</w> 125393
M 1</w> 125389
app ed</w> 125368
resour ce</w> 125324
particip ated</w> 125322
cirrho sis</w> 125314
pres crip 125285
F lu 125243
Ar ab 125175
Res pon 125167
un e</w> 125151
op es</w> 125099
ati le</w> 125051
chrom osomal</w> 125050
T E</w> 125027
A E</w> 125012
E V 124998
6. 5</w> 124997
S el 124973
ra rely</w> 124960
phosphati dyl 124929
agg lutin 124920
pre term</w> 124893
as h</w> 124727
contr acti 124673
pron oun 124592
epidemi ological</w> 124565
D 2</w> 124445
ran e</w> 124422
metabol ite</w> 124400
es pread</w> 124372
r a</w> 124333
oper ations</w> 124330
pol ys 124264
occu pational</w> 124260
sper mat 124235
cy steine</w> 124163
G L 124112
z e 124111
activ ate</w> 124107
trans formed</w> 124069
fal se</w> 124024
5. 0</w> 123999
reg imens</w> 123995
rheumat oid</w> 123986
intrac ranial</w> 123970
equ ilibrium</w> 123969
eli hood</w> 123932
fea sible</w> 123923
be gin 123895
devi ation</w> 123876
te am</w> 123846
in ess</w> 123843
o ing</w> 123835
d ar 123804
intes tine</w> 123789
on ing</w> 123705
sc ans</w> 123634
ca the 123541
a uc 123470
s or 123433
sp in</w> 123411
syn chron 123407
inc id 123390
qu antum</w> 123359
complex ity</w> 123295
AR T</w> 123292
b ed</w> 123235
inter national</w> 123219
re jection</w> 123214
Ph armac 123199
elim ination</w> 123199
som at 123165
gen us</w> 123156
as one</w> 123072
enco ded</w> 123055
mes enchymal</w> 122996
mo tility</w> 122986
retri ev 122972
sci ence</w> 122919
3. 2</w> 122912
sym pathetic</w> 122899
Cur rent</w> 122899
eff lu 122865
ti zed</w> 122810
ec ological</w> 122810
att achment</w> 122801
correc ted</w> 122729
ting ly</w> 122718
sol vent</w> 122713
projec t</w> 122695
infil tration</w> 122674
gir ls</w> 122658
P 3</w> 122612
adi pose</w> 122607
th eses</w> 122543
con str 122485
occ up 122484
dec ades</w> 122455
an emia</w> 122442
oph thal 122437
sup ply</w> 122428
ogen icity</w> 122418
AI N</w> 122415
i dism</w> 122398
abs ent</w> 122396
in stability</w> 122356
su res</w> 122307
M O 122202
al ize</w> 122202
allel es</w> 122170
down stream</w> 122044
0.0 4</w> 122034
hydrox y</w> 121985
pronoun ced</w> 121971
indic ator</w> 121926
paras ite</w> 121915
app a</w> 121906
per man 121846
odi c</w> 121836
t es</w> 121779
ay er</w> 121774
enti ally</w> 121748
carri ers</w> 121674
m id</w> 121654
s ar 121649
ester ase</w> 121619
Bet ween</w> 121612
2 7 121600
con n 121560
Sy stem</w> 121503
Revie w</w> 121479
us h 121475
ep tive</w> 121470
ol ol</w> 121442
techn ologies</w> 121384
G s</w> 121380
te aching</w> 121380
CO PD</w> 121314
sub cutaneous</w> 121295
I R 121276
hepat ocellular</w> 121258
aor ta</w> 121230
alk aline</w> 121217
deci sions</w> 121200
f asting</w> 121196
is ch 121109
situ ation</w> 121103
min eral</w> 121100
tim ing</w> 121035
per in 121023
out patient</w> 121021
bin ds</w> 121020
der mal</w> 121014
ab err 121012
tox ic 120967
H L</w> 120950
bl ack</w> 120934
bili ary</w> 120930
ag e 120929
pl ane</w> 120905
prophyl axis</w> 120762
os ocial</w> 120719
.0 5</w> 120674
et e</w> 120620
serot onin</w> 120571
categ or 120544
3. 1</w> 120533
I L 120517
res sing</w> 120517
K ore 120492
lo aded</w> 120465
res h</w> 120462
St aphyloc 120444
lik elihood</w> 120403
vacc ines</w> 120391
vul ner 120375
as cular</w> 120293
atheros clerosis</w> 120226
res tingly</w> 120163
atin gs</w> 120133
Ig E</w> 120124
og lyc 120116
ph y 120074
begin ning</w> 120059
difficul ties</w> 120048
v ary</w> 120035
carri er</w> 120030
oun ds</w> 120004
M al 119918
Intern ational</w> 119917
2 4 119777
W om 119737
3 -</w> 119723
ann ual</w> 119713
star ting</w> 119712
li th 119694
1 25</w> 119680
chrom osomes</w> 119645
veh icle</w> 119633
H T 119629
nam ely</w> 119621
Identi fication</w> 119606
m T 119548
st art</w> 119529
Un der</w> 119524
r ated</w> 119520
pow er 119492
cyt ometry</w> 119491
mo ther</w> 119425
re ach</w> 119421
f ar 119405
attemp t</w> 119390
discrim ination</w> 119387
ast er 119267
Func tional</w> 119263
5 , 119260
H F 119257
cy an 119247
wid espread</w> 119220
inter act</w> 119197
to ph 119184
p ump</w> 119161
vis ed</w> 119138
tu ally</w> 119131
G M</w> 119117
G re 119109
1 A</w> 119098
discipl inary</w> 119078
amylo id</w> 119050
S W 119045
ap ical</w> 119022
diagnos es</w> 118990
man aged</w> 118947
monit or</w> 118880
Surg ical</w> 118830
Pre dic 118816
li es</w> 118814
ar is</w> 118777
bloc kade</w> 118739
2. 9</w> 118731
i ae</w> 118730
ter tiary</w> 118704
Immun o 118647
om orph 118646
resear chers</w> 118602
B ar 118596
Incre ased</w> 118588
j udg 118584
ess es</w> 118560
k eletal</w> 118545
neutroph ils</w> 118491
p es 118461
glycer ol</w> 118437
scre en</w> 118417
an tic 118415
dep ri 118400
m ent 118360
adi g 118354
som atic</w> 118345
angi ogenesis</w> 118333
ro tation</w> 118313
form ations</w> 118237
D ros 118204
engine ering</w> 118064
respon dents</w> 118049
P B 118048
hepat ocytes</w> 118046
intersti tial</w> 118021
hydroph obic</w> 118005
trans mit 117986
verte bral</w> 117964
neutroph il</w> 117942
regar dless</w> 117939
carbo hydrate</w> 117923
tac hy 117769
200 9</w> 117759
selec tively</w> 117711
ultras on 117706
H a 117677
modul ate</w> 117646
be g 117576
volum es</w> 117552
E GFR</w> 117551
Jap an</w> 117520
My co 117518
differenti ally</w> 117509
pancre as</w> 117487
intra operative</w> 117372
T e 117366
ir radi 117359
mil lion</w> 117342
recru itment</w> 117325
cis platin</w> 117315
R 1</w> 117309
emerg ed</w> 117222
hist amine</w> 117220
inter n 117201
Ac cording</w> 117195
pro spectively</w> 117156
c ro 117138
invol ve</w> 117134
uc tu 117084
Dros ophila</w> 117049
Wom en</w> 117008
ot es</w> 116941
S 1</w> 116873
leth al</w> 116847
am ycin</w> 116837
P o 116824
con flic 116822
satisfac tory</w> 116808
O ver</w> 116807
In dex</w> 116720
sens or</w> 116720
main taining</w> 116644
as y</w> 116616
quanti fied</w> 116586
plat form</w> 116586
Afr ica</w> 116548
odi alysis</w> 116546
ref lex</w> 116544
phen otypic</w> 116514
P L</w> 116502
t uring</w> 116500
immunohisto chemistry</w> 116482
idi opathic</w> 116475
organis m</w> 116445
competi tive</w> 116442
ath ing</w> 116411
gl auc 116401
res ses</w> 116386
ens ure</w> 116383
b ol 116382
str ial</w> 116267
bre ak</w> 116252
phil ic</w> 116235
atyp ical</w> 116219
post natal</w> 116211
for ces</w> 116179
M HC</w> 116103
iv es</w> 116062
ma kes</w> 116052
gl ands</w> 116017
transpor ter</w> 116000
h old</w> 115989
v .</w> 115934
J une</w> 115923
m itral</w> 115905
part um</w> 115898
A E 115826
Sub jec 115772
Ig M</w> 115741
CR P</w> 115715
princi ples</w> 115693
ur g 115663
f low 115609
ul y</w> 115601
pro per</w> 115581
e ating</w> 115554
quanti fication</w> 115473
I P</w> 115461
fer til 115434
Elec tr 115408
great est</w> 115338
suff ering</w> 115326
ses sions</w> 115305
g all 115248
sup pressor</w> 115239
transf ected</w> 115238
end s</w> 115181
mamm ary</w> 115139
secre ted</w> 115134
U p 115130
represent ative</w> 115103
3. 6</w> 115093
H ep 115084
hist ologic</w> 115059
at rophy</w> 115039
l ist</w> 115030
sus pen 115030
ong oing</w> 114966
out side</w> 114962
cardi a</w> 114881
cl onal</w> 114877
follow s</w> 114802
r ice</w> 114786
T 4</w> 114786
construc t</w> 114783
con sequence</w> 114758
perform ing</w> 114753
sol ub 114740
. S 114674
y ed</w> 114654
C 1</w> 114629
lin king</w> 114583
effici ents</w> 114552
ann ed</w> 114538
aca demic</w> 114515
V I</w> 114484
3. 8</w> 114461
par adig 114460
ol ed</w> 114440
sc en 114356
le g</w> 114351
ma p</w> 114350
6. 7</w> 114293
R H</w> 114284
mis sions</w> 114255
sub group</w> 114222
2 6 114184
H igh 114159
sha red</w> 114154
lun gs</w> 114094
echocardi ography</w> 114074
assess ments</w> 114073
S O</w> 113984
sequ ential</w> 113982
abol ic</w> 113950
M AIN</w> 113944
H ere 113940
inter ference</w> 113928
bacter i 113922
endometr ial</w> 113814
immunohisto chemical</w> 113810
elucid ate</w> 113782
infil tr 113759
lab el</w> 113756
In dia</w> 113713
pre ferred</w> 113642
accur ately</w> 113612
CR C</w> 113577
ha pl 113550
p g</w> 113549
ta kes</w> 113472
Staphyloc occus</w> 113462
contamin ation</w> 113458
stimul ate</w> 113423
new born</w> 113415
z er 113389
de press 113370
B re 113360
4. 7</w> 113328
mon ol 113323
c ation</w> 113305
questionn aires</w> 113291
integr ity</w> 113274
effici ently</w> 113265
ventr al</w> 113250
u g 113230
re modeling</w> 113195
regul ator</w> 113184
eth asone</w> 113173
malign ancies</w> 113116
withdraw al</w> 113105
on line</w> 113036
se ed</w> 113013
mon ella</w> 112968
ograph s</w> 112948
S F 112939
C o</w> 112917
pro ton</w> 112914
con g 112912
ul der</w> 112881
P ot 112857
lin kage</w> 112857
t ext</w> 112837
em bed 112769
incorpor ated</w> 112723
ulc er</w> 112718
cat ech 112682
unc ture</w> 112679
G r 112672
ac ous 112641
surge ons</w> 112635
ac tual</w> 112631
S ci 112603
Inte restingly</w> 112595
St atis 112551
enhanc ing</w> 112502
biomar ker</w> 112416
ox idi 112362
produc es</w> 112308
termin ation</w> 112302
super oxide</w> 112293
v a</w> 112283
drain age</w> 112257
vi sible</w> 112236
st o 112209
adi p 112208
der m 112143
abund ant</w> 112136
phosphor ylated</w> 112131
deter i 112112
s we 112043
fl uctu 112035
f aster</w> 111995
cum ulative</w> 111987
et on</w> 111976
ho use 111939
Gen etic</w> 111914
U K</w> 111906
ro ute</w> 111828
prec ision</w> 111827
co efficients</w> 111824
larg est</w> 111824
expl an 111803
ogr ams</w> 111800
b rom 111796
h e</w> 111764
lo x 111758
S equ 111724
y ces</w> 111684
MEASU RE 111684
con formation</w> 111667
an ch 111655
M L 111630
compar isons</w> 111629
sum mary</w> 111590
path ologic</w> 111588
f atal</w> 111518
b ands</w> 111499
oc in</w> 111496
C V</w> 111461
hem is 111457
sub type</w> 111448
gener alized</w> 111447
substitu tion</w> 111427
op enia</w> 111414
ure th 111408
c ement</w> 111406
pan el</w> 111399
hypertroph y</w> 111364
im etr 111316
iev ed</w> 111286
Ch em 111273
stom ach</w> 111257
o x</w> 111233
t us</w> 111175
strom al</w> 111157
B acter 111117
az ine</w> 111080
f resh</w> 111046
toler ated</w> 111043
ic k</w> 111038
del e 111036
om otor</w> 111009
vi able</w> 110911
bro ad 110844
repres enting</w> 110825
inos itol</w> 110818
ul tim 110812
2 A</w> 110791
d ly</w> 110771
induc ible</w> 110762
hy pot 110759
ner ves</w> 110703
distin c 110690
v ital</w> 110680
ra dic 110661
D G</w> 110650
las tic</w> 110625
deriv ative</w> 110611
promin ent</w> 110592
abol ished</w> 110580
id ae</w> 110573
suic ide</w> 110559
compl ementary</w> 110549
demonstr ating</w> 110518
T M 110500
random ised</w> 110492
N A 110474
respon ded</w> 110471
pr an 110421
omer ic</w> 110358
over view</w> 110351
or a</w> 110325
f f</w> 110251
countr y</w> 110232
re adily</w> 110231
glomer ular</w> 110230
der ing</w> 110197
en cour 110181
n ever</w> 110162
ob acter</w> 110136
ra in</w> 110125
consider ation</w> 110099
R ole</w> 110095
promot ed</w> 109967
C X 109965
pre mature</w> 109955
oc ca 109944
Di ab 109924
wid th</w> 109917
Dru g</w> 109906
eg g</w> 109889
hist one</w> 109879
4. 2</w> 109876
r ace</w> 109865
ne igh 109855
enh ances</w> 109853
dis sem 109843
bri ef</w> 109779
mi RNAs</w> 109747
g ing 109743
str and</w> 109717
distrib utions</w> 109714
i x</w> 109700
paren tly</w> 109668
7 0 109653
autom ated</w> 109649
ch im 109626
par athyro 109589
n ight</w> 109566
v an 109528
hem odynamic</w> 109520
th reat 109518
I tal 109492
de pressed</w> 109489
selec tivity</w> 109474
oste opo 109461
sur vi 109442
osi tion</w> 109432
ach e</w> 109421
grad u 109418
t ability</w> 109404
k appa</w> 109386
for ward</w> 109378
to oth</w> 109368
impl anted</w> 109351
predomin ant</w> 109319
dimin ished</w> 109307
descrip tion</w> 109289
eff ort</w> 109279
A V</w> 109269
ol amine</w> 109249
wor se</w> 109247
myel oid</w> 109243
lo g</w> 109225
polyp eptide</w> 109208
endoth elium</w> 109189
vascul arization</w> 109167
mod alities</w> 109153
calcul ations</w> 109152
stud ying</w> 109142
neo plastic</w> 109106
pe di 109104
t ative</w> 109067
D 3</w> 109060
a udi 109031
shap ed</w> 109028
rup ture</w> 108999
dis ruption</w> 108944
2 8 108905
ul atory</w> 108839
fil am 108815
pro t 108810
dis c</w> 108764
dend ritic</w> 108743
defic it</w> 108729
ec tions</w> 108718
Sal monella</w> 108707
quanti fy</w> 108690
th eless</w> 108684
no ver</w> 108631
Ig A</w> 108623
ever theless</w> 108602
mandi bular</w> 108592
S ym 108556
si al</w> 108541
gener ating</w> 108532
tr ic</w> 108498
sti ff 108468
tre e</w> 108454
T G</w> 108413
pe d 108407
cy st</w> 108406
micro som 108398
I A</w> 108396
p assive</w> 108359
j ust</w> 108318
n mol</w> 108317
stand ards</w> 108317
3. 4</w> 108311
tis m</w> 108310
otox icity</w> 108308
in her 108274
ol ym 108273
F our 108208
1 -</w> 108206
pre ference</w> 108199
ker at 108189
di al</w> 108163
b er 108154
al c 108150
p e</w> 108115
f ts</w> 108107
mon ocytes</w> 108104
I s 108097
ic ardi 108055
ish ment</w> 107994
exac erb 107989
ev ent 107977
s arcoma</w> 107973
As soci 107922
oxy gen 107896
Qu ality</w> 107855
L ab 107782
t ab 107771
8. 5</w> 107754
add ressed</w> 107748
s ent</w> 107744
cat tle</w> 107703
op sis</w> 107702
V al 107658
autophag y</w> 107634
yiel ds</w> 107631
contr al 107550
Un der 107513
os ing</w> 107508
substitu ted</w> 107471
protec ted</w> 107469
pregn ancies</w> 107412
c ats</w> 107396
infra red</w> 107390
squ are</w> 107383
tryp sin</w> 107329
l d</w> 107327
particip ate</w> 107325
ur on 107306
comput ational</w> 107300
ter al</w> 107283
I mp 107274
vas o 107234
co vered</w> 107230
Nor th</w> 107227
sc ap 107213
con sci 107212
NS CLC</w> 107202
E 1</w> 107192
disco vered</w> 107160
fol ding</w> 107028
ca ud 106965
cyto plasm</w> 106964
immun ization</w> 106961
wal king</w> 106961
percep tions</w> 106953
Org an 106936
TI ONS</w> 106859
en erg 106847
instrum ent</w> 106806
mod ality</w> 106792
expl o 106791
fac tory</w> 106729
tend on</w> 106704
iso forms</w> 106654
H O 106634
gen ce</w> 106578
S ingle</w> 106574
mo bile</w> 106509
N ot 106503
ke ys</w> 106500
min er 106499
trac tion</w> 106488
virul ence</w> 106317
physi ology</w> 106291
w in 106279
process ed</w> 106242
oste o 106242
pot ency</w> 106237
ech n 106232
bo ys</w> 106227
nutri ent</w> 106222
CA D</w> 106208
man u 106186
j o 106178
compr ised</w> 106138
m om 106129
perman ent</w> 106124
ne gl 106103
In flu 106095
plac ental</w> 106076
A k 106054
consider ably</w> 106043
ar ticular</w> 106030
mar k</w> 106027
dis sociation</w> 105963
ab sc 105949
Hy dro 105895
wa vel 105861
an ical</w> 105846
repe ti 105807
nur se</w> 105785
no vi 105783
4. 4</w> 105737
accoun ted</w> 105731
i m</w> 105722
per oxidase</w> 105578
f ur 105574
gene tically</w> 105562
il e 105549
4. 3</w> 105544
4. 0</w> 105520
gu an 105515
200 8</w> 105491
Co x</w> 105451
gluc ocortico 105432
u ous</w> 105431
bloc king</w> 105368
post operatively</w> 105339
form ulation</w> 105336
por cine</w> 105313
ver tical</w> 105274
princ ipal</w> 105269
pos sess 105255
gl ass</w> 105244
cri tically</w> 105212
pathophysi ology</w> 105208
propor tional</w> 105173
reduc tions</w> 105168
if er 105160
radi ographic</w> 105154
f el 105150
kin ases</w> 105076
experim entally</w> 105067
- -</w> 105050
t um</w> 105017
us c 105006
carr ying</w> 104965
hemat opoietic</w> 104938
3. 7</w> 104916
Fif ty</w> 104864
condi tioning</w> 104862
si um</w> 104846
ul ating</w> 104799
off spring</w> 104776
AD P</w> 104640
micro tub 104635
foc using</w> 104596
M arch</w> 104575
M C</w> 104562
neuro pathy</w> 104556
P N</w> 104513
tur nover</w> 104482
v acu 104465
intr aper 104414
immun ological</w> 104407
immuno assay</w> 104401
re combination</w> 104390
over come</w> 104378
hemis ph 104362
W T</w> 104336
pyr id 104335
seiz ure</w> 104319
c ocaine</w> 104288
inf u 104249
to p</w> 104185
Pseud omonas</w> 104176
bi di 104170
se e</w> 104167
consider ing</w> 104150
ic king</w> 104035
H D 104027
acu ity</w> 104026
e res</w> 104024
E F</w> 103994
M ed</w> 103989
star ted</w> 103970
f if 103968
transl ational</w> 103947
peri od 103928
re turn</w> 103913
a virus</w> 103857
scen ari 103800
der mat 103766
lat ency</w> 103741
PK C</w> 103736
el ong 103716
sub groups</w> 103697
A ge</w> 103692
my co 103652
pres sures</w> 103583
κ B</w> 103566
Elec tro 103560
12 5 103559
ec tom 103522
min ute</w> 103466
el igible</w> 103441
fin ed</w> 103440
dep end</w> 103429
20 18</w> 103425
pan ic</w> 103425
promis e</w> 103418
2 9 103412
o ocytes</w> 103386
adap ted</w> 103349
pren atal</w> 103342
ther mo 103333
P res 103284
acous tic</w> 103246
at o</w> 103242
A UC</w> 103230
H b 103230
for ced</w> 103230
ret ar 103201
E GF</w> 103191
bloc ks</w> 103179
sul ph 103168
ex on</w> 103133
fibrobl ast</w> 103130
orb ent</w> 103126
immunore activity</w> 103124
e asy</w> 103104
4. 1</w> 103065
prostagland in</w> 103050
P u 103010
Inhib ition</w> 103002
visi t</w> 102993
defin ition</w> 102971
R F 102966
Di rec 102966
ventr icle</w> 102957
osi tive</w> 102954
Objec tive</w> 102950
os us</w> 102945
ste in</w> 102921
mod es</w> 102861
protec t</w> 102855
ap parently</w> 102817
c ran 102812
oz o 102796
S B 102768
tr aff 102768
sha m</w> 102762
moder n</w> 102758
v ae</w> 102741
un affected</w> 102737
prop ag 102732
on ed</w> 102728
pap ill 102714
I D</w> 102668
E lev 102658
radi ological</w> 102635
met allo 102589
R etro 102515
re tained</w> 102502
to ok</w> 102502
Com pl 102501
be an</w> 102500
ad a</w> 102482
T T</w> 102441
0. 0</w> 102441
situ ations</w> 102411
ec on 102410
in suffici 102407
pro mp 102384
mod ulated</w> 102377
chamb er</w> 102368
equ ation</w> 102346
I sol 102338
SE M</w> 102328
ac idic</w> 102327
ju red</w> 102274
sem i</w> 102228
in ally</w> 102227
contral ateral</w> 102179
dy e</w> 102175
embol ism</w> 102174
alter ation</w> 102151
contin ue</w> 102148
4. 6</w> 102124
encoun tered</w> 102118
p . 102059
de form 102050
k b</w> 102032
fe ed</w> 102019
AT A</w> 102007
T en</w> 101988
In iti 101984
preven tive</w> 101955
manu fac 101952
hyper plasia</w> 101942
B o 101899
view ed</w> 101859
recor ding</w> 101843
if e</w> 101839
av ing</w> 101838
fill ed</w> 101822
w ast 101816
eu tical</w> 101780
os ens 101767
az ep 101754
H e</w> 101746
Surve y</w> 101738
N C</w> 101733
M B 101724
bon ds</w> 101712
can al</w> 101687
imp acts</w> 101635
ch olec 101615
syndrom es</w> 101570
or ally</w> 101513
g el 101510
C y 101488
c is</w> 101473
dec ade</w> 101427
id ation</w> 101378
S ol 101375
regi stered</w> 101304
I D 101293
famil ial</w> 101279
- 2</w> 101274
mon onuclear</w> 101227
Sel f</w> 101213
irradi ated</w> 101203
ag ic</w> 101181
he ar 101143
ar ched</w> 101103
ass embl 101103
shor ten 101063
om eter</w> 101042
co d 101040
8 0 101025
H ear 101019
optim ized</w> 101014
power ful</w> 100998
psych osocial</w> 100970
5. 6</w> 100968
ic als</w> 100956
H 2</w> 100936
de pos 100920
row th</w> 100909
ep tor</w> 100907
top ical</w> 100893
acchar ides</w> 100821
institu tion</w> 100769
S A 100728
sign alling</w> 100721
re d 100691
his ti 100676
do x</w> 100662
le ge</w> 100618
est yle</w> 100612
ro ots</w> 100589
practition ers</w> 100576
eu kary 100516
anes the 100490
retin a</w> 100469
ere ly</w> 100452
G ene</w> 100439
d al 100425
P K</w> 100409
cy sts</w> 100382
hom ology</w> 100375
C d 100366
R 2</w> 100267
M or 100263
plas ticity</w> 100260
c as 100249
contrib uting</w> 100220
E P</w> 100219
isol ate</w> 100211
aut ologous</w> 100203
fr on 100186
P erc 100181
gen cy</w> 100167
C d</w> 100125
rou gh 100119
1 80</w> 100118
i asis</w> 100112
in jured</w> 100098
Dep art 100092
ri l</w> 100076
ff e 100067
conform ational</w> 100061
in n 100001
pre disp 99990
wee kly</w> 99980
conn ected</w> 99957
zym e</w> 99902
programm e</w> 99896
fracti on 99858
whe at</w> 99831
N s</w> 99819
et a</w> 99812
0.00 5</w> 99793
sen sing</w> 99772
z en</w> 99771
ch ro 99765
cop y</w> 99760
sug ar</w> 99760
aff eren 99759
i er</w> 99752
Fac tors</w> 99741
R P</w> 99711
Ta ken</w> 99663
se arched</w> 99639
ul cer 99632
L ym 99627
compart ment</w> 99606
C enter</w> 99586
prescrib ed</w> 99581
B 2</w> 99556
int ell 99468
can ine</w> 99467
Soci ety</w> 99464
P F</w> 99463
B D 99443
glauc oma</w> 99432
hormon al</w> 99390
phosph o 99372
brea ks</w> 99360
stre t 99339
highligh ts</w> 99310
EC G</w> 99309
M ed 99306
anat omy</w> 99296
an thro 99258
With in</w> 99244
s n 99241
facil ities</w> 99215
epti des</w> 99207
el astic</w> 99169
exhib its</w> 99157
ran k</w> 99145
el ve</w> 99131
w ash 98987
op ulmonary</w> 98981
b ound 98963
D ue</w> 98959
ac ks</w> 98916
ath l 98902
ac etic</w> 98886
bronch ial</w> 98862
discus sion</w> 98846
neur on</w> 98842
atter ing</w> 98800
buff er</w> 98785
Qu estionn 98784
recor d</w> 98777
st one</w> 98770
hor iz 98748
bidi ties</w> 98725
pro l 98702
sho ulder</w> 98677
w k</w> 98653
saliv ary</w> 98618
form er</w> 98613
ex act</w> 98606
candi dates</w> 98575
em ul 98571
bal lo 98562
arrang ement</w> 98548
reticul um</w> 98508
lab elled</w> 98475
4. 8</w> 98469
tur ally</w> 98464
phospholip id</w> 98459
reas on</w> 98442
Im pro 98405
st ain 98389
5. 7</w> 98346
arom atic</w> 98343
cat ar 98333
phen ol</w> 98326
en larg 98324
dig estion</w> 98307
c ows</w> 98293
rel ations</w> 98292
do g</w> 98287
radi al</w> 98279
m olar</w> 98273
accep ted</w> 98260
po ol</w> 98239
s low 98231
V er 98162
ocom pati 98130
in side</w> 98127
3 5 98114
ex pressions</w> 98099
tra it</w> 98082
clin ic 98045
en in</w> 98034
contrib uted</w> 98034
indu stry</w> 98030
per m 97991
d ur 97983
diarr he 97922
C r</w> 97885
m ers</w> 97831
ex ec 97819
acr yl 97808
differenti ate</w> 97795
ucle ar</w> 97726
fr ame</w> 97715
cap ture</w> 97672
fist ula</w> 97665
clim ate</w> 97662
Character ization</w> 97662
architec ture</w> 97654
os arcoma</w> 97623
u gin 97622
electro des</w> 97619
sev erely</w> 97610
bre athing</w> 97540
T est</w> 97529
g one</w> 97517
em a</w> 97515
or dered</w> 97434
am ethasone</w> 97406
g ate</w> 97382
rou ght</w> 97381
ap o 97351
J uly</w> 97347
deta il</w> 97341
dem and</w> 97338
su d 97337
con duction</w> 97336
9. 5</w> 97314
H P</w> 97304
bio tic</w> 97300
difficul ty</w> 97263
M ay</w> 97254
us ting</w> 97254
phyl ogenetic</w> 97250
el in</w> 97239
un related</w> 97227
aer ugin 97216
EC T</w> 97188
cre ate</w> 97180
guid ance</w> 97180
oxy genase</w> 97175
d in 97121
rele asing</w> 97098
omat ous</w> 97066
erythro cytes</w> 97047
hist or 97011
D IN 97007
stiff ness</w> 96961
pur ification</w> 96951
nat ur 96951
tub ular</w> 96943
S w 96924
strong er</w> 96917
lar vae</w> 96912
com for 96903
sc attering</w> 96903
disturb ances</w> 96863
as ked</w> 96860
L V 96855
di vision</w> 96840
CM V</w> 96813
m RNAs</w> 96799
Can di 96781
P ub 96773
aerugin osa</w> 96771
P RO 96766
7. 4</w> 96760
h n</w> 96736
duc ts</w> 96730
per tur 96729
pancre atitis</w> 96722
aster n</w> 96693
amin ation</w> 96687
combin ing</w> 96660
vide o</w> 96562
fre e 96560
exc essive</w> 96490
Here in</w> 96474
ple ural</w> 96470
g els</w> 96458
cul tural</w> 96432
M s</w> 96363
cord ance</w> 96359
M ac 96354
H is 96349
am bul 96341
F l 96327
N E</w> 96276
c asc 96272
hospit alized</w> 96254
retur ned</w> 96201
otyp ing</w> 96196
opportun ities</w> 96086
require ment</w> 96073
T F 96027
Man agement</w> 96021
pal li 96001
en ables</w> 95978
person ality</w> 95976
med ull 95975
re dox</w> 95954
moti f</w> 95934
C 3</w> 95932
connec tivity</w> 95931
SL E</w> 95882
f ies</w> 95878
vi br 95825
trache al</w> 95807
l ands</w> 95805
acetyl choline</w> 95801
neon ates</w> 95773
andro gen</w> 95718
graph y</w> 95711
Be havi 95657
M g 95656
2 2 95653
war ran 95652
con current</w> 95614
G P</w> 95610
amin ergic</w> 95606
VI D</w> 95591
Meas ure 95591
5. 2</w> 95573
nico tine</w> 95561
ej un 95534
L in 95524
s ess</w> 95503
w s</w> 95498
S ou 95479
curren ts</w> 95467
o idal</w> 95458
dis placement</w> 95442
N one</w> 95387
ca dian</w> 95363
exc itation</w> 95352
coord ination</w> 95335
ker atin 95325
in ic</w> 95147
gly col 95129
un common</w> 95122
met als</w> 95098
lymph oid</w> 95080
on ia</w> 95075
i. v.</w> 95066
ge red</w> 95054
chic ken</w> 95044
o es</w> 95036
wor ds</w> 95022
ses sion</w> 95000
e gg 94963
3. 9</w> 94955
lig ament</w> 94953
5. 3</w> 94939
bor ne</w> 94936
st aging</w> 94913
ren in</w> 94902
U .S 94898
sph er 94891
fac es</w> 94883
In c 94878
pneumon iae</w> 94875
kin in</w> 94868
com b 94847
O UT 94808
am bi 94808
e y</w> 94771
indic ation</w> 94756
P SA</w> 94745
bre eding</w> 94722
optim ization</w> 94693
cellul ose</w> 94683
ub icin</w> 94625
200 7</w> 94625
ca us 94599
sur ance</w> 94582
obl astoma</w> 94579
cholin ergic</w> 94566
log ical</w> 94558
n em 94512
pl ates</w> 94505
spont aneously</w> 94493
Differen t</w> 94493
super ficial</w> 94465
k ap 94443
t ex 94404
200 5</w> 94401
fo ods</w> 94385
suppl emented</w> 94376
P an 94375
sp p</w> 94331
leuk ocyte</w> 94321
Ph ot 94311
cereb ellar</w> 94293
ger m</w> 94256
nod ules</w> 94255
it em</w> 94230
ther mia</w> 94226
mus cular</w> 94214
OUT CO 94202
Depart ment</w> 94181
ace ae</w> 94165
S even</w> 94148
dys plasia</w> 94092
idi um</w> 94068
system atically</w> 94045
er ia</w> 94039
0.00 2</w> 94024
inc ident</w> 93985
sat uration</w> 93985
mat ch</w> 93958
tes ticular</w> 93958
1 10</w> 93953
Im port 93950
retro viral</w> 93922
categ ory</w> 93915
de m</w> 93912
per oxide</w> 93910
exclu sively</w> 93875
Mo del</w> 93873
yt e</w> 93840
ophil ic</w> 93794
weigh ts</w> 93787
surge on</w> 93756
effec tor</w> 93706
rest ored</w> 93702
analog ues</w> 93671
insuffici ency</w> 93650
R T 93643
A pri 93619
concep ts</w> 93586
to o</w> 93574
line age</w> 93573
E igh 93564
as part 93564
A 1 93548
E l 93545
est ed</w> 93527
hist ology</w> 93511
T ime</w> 93509
Z n 93476
dec lined</w> 93476
empir ical</w> 93469
in hal 93461
ili ary</w> 93451
ol es</w> 93436
clar ify</w> 93424
arb ox 93388
Apri l</w> 93351
N 1</w> 93336
ob lastic</w> 93332
eng er</w> 93324
flex ible</w> 93283
in stead</w> 93237
S 2</w> 93228
vec tors</w> 93214
foll icular</w> 93169
over weight</w> 93160
aspir ation</w> 93158
plas ms</w> 93128
G SH</w> 93092
tain ty</w> 93074
anti tumor</w> 93070
Ad mini 93058
anti depress 93053
equ ally</w> 93031
at omic</w> 93001
vas odi 92994
fru it</w> 92986
G iven</w> 92984
rhyth m</w> 92981
n t</w> 92974
INT ER 92967
hel p 92960
En gl 92953
r ag 92938
cr yp 92918
fil ter</w> 92907
T i 92857
ev id 92812
refer ral</w> 92798
bel ieved</w> 92797
chem icals</w> 92753
re flux</w> 92737
Simil ar</w> 92725
embed ded</w> 92712
analog ue</w> 92695
E ight</w> 92670
t esti 92663
op posite</w> 92642
p es</w> 92635
olog ist</w> 92625
suc rose</w> 92624
algorith ms</w> 92622
r RNA</w> 92617
14 C</w> 92592
libr ary</w> 92562
conf oun 92545
ti g 92529
N ur 92514
s light</w> 92509
K n 92505
j ejun 92479
20 01</w> 92476
d l</w> 92463
S we 92439
n c 92349
head ache</w> 92331
fit ness</w> 92319
pro v 92276
kap pa 92275
grad ually</w> 92269
orb ital</w> 92264
acceler ated</w> 92263
com orb 92258
L T</w> 92254
aneurys ms</w> 92247
enc ap 92233
li pop 92231
stabil ization</w> 92222
Subjec ts</w> 92200
cy st 92195
mar ine</w> 92150
t one</w> 92099
am p</w> 92096
an k</w> 92082
ps ori 92016
Ad v 92006
bi polar</w> 91985
acet yl</w> 91948
appro ved</w> 91917
G I</w> 91914
R F</w> 91902
199 9</w> 91899
condi tioned</w> 91881
den se</w> 91877
util izing</w> 91877
fer tility</w> 91863
ju ven 91833
col itis</w> 91819
sh ear</w> 91816
sy novi 91813
tend ency</w> 91811
Euro pe</w> 91782
objec t</w> 91760
anomal ies</w> 91749
Engl ish</w> 91741
g ated</w> 91734
19 90</w> 91726
cataly zed</w> 91713
surve ys</w> 91703
us ti 91693
con ven 91690
use fulness</w> 91618
under gone</w> 91594
Hear t</w> 91564
quin ol 91544
kidne ys</w> 91540
L S</w> 91519
c at</w> 91497
ex tra 91480
Com mun 91472
pol i 91453
lep tin</w> 91449
c ef 91436
M SCs</w> 91433
ax el</w> 91420
b ab 91358
ery them 91331
Tum or</w> 91323
200 6</w> 91319
am ni 91317
alk al 91302
emph asis</w> 91302
Ul tr 91290
expos ures</w> 91259
un g</w> 91258
ethn ic</w> 91224
de man 91223
tub ation</w> 91219
G n 91198
2 8. 91185
sw elling</w> 91178
hear ts</w> 91165
ab in 91135
omer ase</w> 91116
arthro plasty</w> 91073
9 0 91055
conserv ative</w> 91046
ob i 91039
help ful</w> 91028
R a 91024
contin ence</w> 91020
lu pus</w> 90958
an al</w> 90936
cul tiv 90879
controver sial</w> 90854
at oms</w> 90852
Centr al</w> 90847
osyn thetic</w> 90813
O C</w> 90810
mus cul 90797
wavel eng 90790
N MDA</w> 90786
Experim ental</w> 90779
En h 90759
perf used</w> 90740
distingu ish</w> 90734
C K</w> 90720
di hydro 90653
loc ally</w> 90625
V is 90619
dri ving</w> 90617
period ontal</w> 90615
C oun 90585
Syn thesis</w> 90584
6. 2</w> 90572
199 8</w> 90566
immuno fluorescence</w> 90544
6 00</w> 90536
ga it</w> 90536
CA M</w> 90461
ir ation</w> 90443
D em 90432
statis tics</w> 90415
om ing</w> 90414
sh are</w> 90411
bir ds</w> 90397
C ro 90393
trans membrane</w> 90392
Diag nos 90391
olys accharide</w> 90379
col onic</w> 90352
Out comes</w> 90345
esc ent</w> 90336
V T</w> 90322
compati ble</w> 90271
5. 8</w> 90268
repor ter</w> 90263
at onin</w> 90245
pat ch</w> 90220
DI SC 90195
sel ves</w> 90174
refl ected</w> 90172
mi RNA</w> 90161
6. 3</w> 90158
spec tives</w> 90124
ch le 90113
0.00 0 90108
lif estyle</w> 90100
in active</w> 90086
upreg ulated</w> 90060
ide al</w> 90057
BM D</w> 90046
align ment</w> 90029
Surg ery</w> 89995
peri operative</w> 89981
dar k</w> 89921
Q o 89901
5. 4</w> 89897
N evertheless</w> 89893
e an</w> 89870
F am 89852
adren aline</w> 89801
conjug ated</w> 89775
vi r</w> 89757
fin anc 89747
pharmaco kinetic</w> 89747
anti viral</w> 89724
cess ation</w> 89718
Tran sc 89714
er arch 89700
l uc 89696
L A 89679
Co A</w> 89670
B G</w> 89621
antic ancer</w> 89606
Quanti tative</w> 89600
SI ON</w> 89580
ster ing</w> 89504
mo od</w> 89431
hypothalam ic</w> 89420
four th</w> 89413
cl one</w> 89394
U r 89377
gover n 89369
sc al 89336
pos sess</w> 89319
6. 4</w> 89291
ure tic</w> 89272
trig gered</w> 89256
opath ological</w> 89252
dom es 89204
S D 89192
tum orig 89182
d ent 89132
ac ch 89120
H 1</w> 89106
s a</w> 89104
opportun ity</w> 89055
inten se</w> 89014
M AP</w> 89008
Simil arly</w> 88971
recor dings</w> 88969
ocy an 88960
vis c 88958
ep igen 88945
Austral ia</w> 88879
el eton</w> 88859
ST AT 88854
dex amethasone</w> 88847
o ural</w> 88841
fl ur 88813
MAP K</w> 88807
S c 88777
Au g 88760
glob ulin</w> 88702
w aves</w> 88697
G ol 88642
preser vation</w> 88639
ion ine</w> 88633
res embl 88632
op ia</w> 88614
press es</w> 88611
centr e</w> 88605
us age</w> 88591
analge sia</w> 88580
In divid 88573
SN Ps</w> 88559
T o 88553
off ered</w> 88503
Questionn aire</w> 88501
plac ent 88496
C yt 88489
ex ual</w> 88470
att ached</w> 88462
ballo on</w> 88453
transfer red</w> 88444
TB I</w> 88420
es are 88362
b und 88349
cran i 88300
ag ue</w> 88292
prescrip tion</w> 88270
ist ar</w> 88267
ank le</w> 88243
k le</w> 88231
ell ite</w> 88217
lif e 88199
6. 8</w> 88179
6. 6</w> 88174
or ial</w> 88168
us er</w> 88167
examin ing</w> 88157
par tly</w> 88154
F uture</w> 88091
os ensi 88068
gen omes</w> 88052
por e</w> 88044
mit tent</w> 88044
str ic</w> 88034
b ic</w> 88026
pr is 88025
an ion</w> 88018
th in 88009
Det ection</w> 87991
dos ing</w> 87963
l en 87936
C er 87930
bil ities</w> 87925
S DS</w> 87924
7. 8</w> 87908
aro se</w> 87830
ost omy</w> 87825
omeg al 87821
influ encing</w> 87801
attemp ts</w> 87795
s cler 87767
rib onucle 87747
me al</w> 87692
Mech anis 87684
P P 87672
E r 87671
Six ty</w> 87667
hem odialysis</w> 87662
preser ved</w> 87659
CA 1</w> 87656
paradig m</w> 87632
M V 87627
exam ples</w> 87616
An aly 87591
investig ating</w> 87577
duod enal</w> 87564
olig onucle 87560
os en</w> 87541
neo plasms</w> 87540
b a 87508
in sufficient</w> 87496
I S</w> 87463
en vel 87457
C och 87428
gli oma</w> 87424
v ast 87420
cytos olic</w> 87418
Ak t</w> 87409
coh orts</w> 87393
7. 1</w> 87378
esare an</w> 87363
exten sively</w> 87328
v ill 87307
F O 87294
G ram</w> 87288
po oled</w> 87282
di methyl 87274
qu it 87273
19 95</w> 87259
medi ators</w> 87239
op ening</w> 87233
V i 87224
A sian</w> 87222
precurs ors</w> 87216
y outh</w> 87200
Sep t 87182
ag o</w> 87155
us h</w> 87152
ag ain</w> 87093
199 7</w> 87086
le ad 87054
acryl amide</w> 87052
socio economic</w> 87051
remark able</w> 87016
alcoh olic</w> 86945
neu rom 86930
lab or 86861
St ate</w> 86858
en ium</w> 86837
T 2 86796
res tim 86795
func tionally</w> 86795
diff r 86783
de b 86774
Bac illus</w> 86770
id ase</w> 86764
epidemi ology</w> 86762
W istar</w> 86745
immun otherapy</w> 86724
l a</w> 86717
at om</w> 86712
ob ut 86705
F IN 86680
tra jec 86668
ic ations</w> 86663
L .</w> 86659
re mia</w> 86636
ogen es</w> 86615
ol factory</w> 86609
up stream</w> 86596
AD HD</w> 86575
CO VID</w> 86572
R an 86560
C ap 86522
pros thesis</w> 86455
dist ant</w> 86452
I T 86439
Qo L</w> 86435
G O</w> 86413
uni versity</w> 86382
homogene ous</w> 86357
them selves</w> 86342
mig r 86319
an aerobic</w> 86301
Differen ces</w> 86296
CO X</w> 86292
em ed</w> 86284
R am 86281
F SH</w> 86281
bo x</w> 86281
ampl ified</w> 86278
Sept ember</w> 86264
go als</w> 86253
aspec t</w> 86238
ultrason ography</w> 86237
gangli on</w> 86216
st a 86195
s ound</w> 86190
od g 86143
m osph 86117
st ress 86104
Pub Med</w> 86096
DISC US 86079
threat ening</w> 86027
6. 0</w> 86003
dram atically</w> 85998
assi st</w> 85971
N ov 85957
Wor ld</w> 85936
mon keys</w> 85929
ax ons</w> 85926
pharmaco kinetics</w> 85924
0. 25</w> 85923
mix tures</w> 85913
200 2</w> 85893
low ering</w> 85892
125 I</w> 85876
osteopo rosis</w> 85869
tan dem</w> 85857
a emic</w> 85846
val id</w> 85838
instrum ents</w> 85819
M i 85809
C 57 85793
le ak 85784
electro l 85784
bec omes</w> 85731
physi ologic</w> 85726
def ense</w> 85714
ch osen</w> 85700
transcrip t</w> 85697
pred n 85694
extr a</w> 85692
M A 85691
ser ial</w> 85639
inn ate</w> 85638
4 5 85632
DISCUS SION</w> 85627
hel ix</w> 85611
Admini stration</w> 85585
x ia</w> 85573
CV D</w> 85564
qu ite</w> 85562
flex ion</w> 85535
os mo 85532
P U 85508
U.S .</w> 85507
hydr ation</w> 85486
Imp act</w> 85470
En ter 85443
obl asts</w> 85443
biom ass</w> 85430
emergen ce</w> 85396
protein ase</w> 85368
exp anded</w> 85356
ish es</w> 85355
M 2</w> 85332
tob er</w> 85326
cir cadian</w> 85324
res in</w> 85318
ograph ical</w> 85310
glomer ul 85304
appl ying</w> 85295
Con tr 85278
ati cal</w> 85271
adj usting</w> 85259
simil arly</w> 85248
contamin ated</w> 85242
ogene ic</w> 85214
C 2</w> 85201
T arg 85198
ammon ium</w> 85181
en ess</w> 85168
B one</w> 85154
L a</w> 85131
immunore active</w> 85115
anal og</w> 85089
st ored</w> 85082
anc h</w> 85074
T re 85066
exp on 85051
Oc tober</w> 85039
graph ene</w> 85021
an tic</w> 85014
caregi vers</w> 85006
shif ts</w> 84996
id opsis</w> 84989
spec imen</w> 84985
in verse</w> 84954
ent ations</w> 84954
ic ated</w> 84935
proper ty</w> 84932
ver sal</w> 84928
te trac 84922
rel ief</w> 84920
egg s</w> 84905
an g</w> 84899
avi an</w> 84876
pp m</w> 84869
f ash 84863
B rain</w> 84809
man ual</w> 84786
sol ved</w> 84781
M g</w> 84778
def ective</w> 84778
PE G</w> 84768
se c</w> 84761
cigaret te</w> 84724
m ium</w> 84717
ra ine</w> 84701
g yn 84700
lys ine</w> 84698
r ic 84687
no re 84666
5. 1</w> 84653
H odg 84635
config uration</w> 84631
through put</w> 84619
199 6</w> 84604
progenit or</w> 84587
si bility</w> 84489
ov ary</w> 84476
termin us</w> 84465
histopath ological</w> 84429
ar sen 84422
Arab idopsis</w> 84371
some times</w> 84358
ptoc occus</w> 84344
my o 84326
nov o</w> 84320
ta il 84295
bur n</w> 84285
ther m 84274
compl etion</w> 84270
diarrhe a</w> 84263
In stitute</w> 84255
ec osy 84253
nucle otides</w> 84243
7. 2</w> 84223
chec k 84221
at ch</w> 84217
clu sive</w> 84178
in tim 84170
fung i</w> 84141
No vel</w> 84137
gli a</w> 84136
clin ics</w> 84120
t ap 84111
natur ally</w> 84105
anat omic</w> 84096
bl ing</w> 84088
B cl</w> 84084
x y 84067
occ i</w> 84053
M O</w> 84040
microbi ota</w> 83996
Therap y</w> 83967
descrip tive</w> 83962
zer o</w> 83948
Me dian</w> 83941
mod elling</w> 83927
w t</w> 83893
the size</w> 83857
on yl</w> 83844
in complete</w> 83839
ain t</w> 83825
cardiomy opathy</w> 83804
conduc tance</w> 83778
compr ising</w> 83760
am eli 83752
SO D</w> 83746
ti tis</w> 83738
Medic ine</w> 83735
G MP</w> 83697
inter view</w> 83696
B B</w> 83646
graf ting</w> 83635
2 9. 83628
ation ally</w> 83591
schem e</w> 83584
un iform</w> 83568
seas on</w> 83547
aqu es</w> 83537
cont ex 83532
psych otic</w> 83497
n as 83481
acc ess 83448
predic tions</w> 83418
G T</w> 83417
ch i 83413
contrib utions</w> 83407
over l 83394
1 a</w> 83380
m um 83345
ob last</w> 83303
see king</w> 83280
visi ae</w> 83269
ing u 83258
op sy</w> 83229
sud den</w> 83208
mat ching</w> 83181
R I</w> 83180
Hodg kin</w> 83172
F GF</w> 83165
er o 83089
fro zen</w> 83085
cere visiae</w> 83072
sc oring</w> 83064
viol ence</w> 83045
4. 9</w> 83042
micro scope</w> 83025
T SH</w> 83024
CI PA 83011
a red</w> 83009
on ectin</w> 82997
St and 82992
anthro p 82960
s me 82957
scho ols</w> 82931
v esti 82923
mi as</w> 82915
neurolog ic</w> 82892
Th en</w> 82881
ro bo 82871
200 4</w> 82863
depri vation</w> 82831
bl ast 82826
a w</w> 82774
ere bral</w> 82764
otox ic</w> 82760
7. 3</w> 82757
un able</w> 82753
Nor thern</w> 82746
const ants</w> 82736
Na Cl</w> 82726
aspart ate</w> 82724
gran ules</w> 82723
leuk ocytes</w> 82719
PT SD</w> 82675
cal ib 82663
erythro cyte</w> 82661
T ur 82616
C at 82614
bl in 82609
R B 82559
7. 0</w> 82531
otrop in</w> 82519
pl oid</w> 82512
Spec ific</w> 82496
H b</w> 82474
ph yto 82460
o ther 82443
construc tion</w> 82407
A SD</w> 82404
ma them 82400
e jection</w> 82373
part ners</w> 82369
1 40</w> 82344
C ross</w> 82337
ph age</w> 82308
magne sium</w> 82299
T F</w> 82294
fib res</w> 82269
ti p</w> 82258
f ri 82256
W HO</w> 82208
CK D</w> 82197
B AL 82195
cros s 82184
ost atin</w> 82175
P N 82167
F F 82162
cycl ase</w> 82149
d ox 82144
strati fied</w> 82114
6. 1</w> 82107
M M</w> 82082
H ence</w> 82078
rap h</w> 82038
co chle 82008
las ting</w> 82004
cycl in</w> 81997
athl etes</w> 81996
myocardi um</w> 81995
as sumed</w> 81977
wast e</w> 81961
An ti</w> 81932
s ing 81928
pre -</w> 81928
H SV</w> 81926
Braz il</w> 81911
respon ders</w> 81890
aw are</w> 81855
pu ts</w> 81852
I U</w> 81835
fash ion</w> 81743
de t 81741
a u</w> 81713
S K 81712
discus ses</w> 81685
pin ephrine</w> 81655
fing er</w> 81636
aspir in</w> 81604
cu es</w> 81592
C ul 81585
minim ally</w> 81582
equ ip 81578
ynam ic</w> 81550
tr unc 81549
anis h</w> 81519
di c</w> 81514
EC s</w> 81509
lab or</w> 81507
bul k</w> 81487
MATERI AL</w> 81474
numer ical</w> 81464
th o 81459
2. 0 81456
dem ia</w> 81453
j usti 81432
mamm als</w> 81415
competi tion</w> 81414
iz umab</w> 81405
lig ation</w> 81398
dex tr 81360
v ent 81357
FIN DIN 81317
sh ar 81274
Candi da</w> 81265
M V</w> 81262
G R</w> 81252
glyc ine</w> 81228
trans mitted</w> 81223
M B</w> 81211
- 3</w> 81160
ur ic</w> 81157
pri vate</w> 81122
P a</w> 81112
n al 81094
ifor m 81073
N in 81070
rest oration</w> 81056
B ur 81045
kappa B</w> 81031
p to 81015
T er 81010
coun sel 80999
O ral</w> 80974
ver ified</w> 80969
st ac 80944
si fication</w> 80944
trig g 80935
g yr 80927
E M</w> 80922
electro chemical</w> 80920
ar ising</w> 80914
addi tive</w> 80876
B A 80872
Q OL</w> 80855
mach ine</w> 80846
ol er 80829
sil ver</w> 80828
thresh olds</w> 80825
FINDIN GS</w> 80807
in formed</w> 80792
trac king</w> 80758
contracti le</w> 80741
enco des</w> 80728
Ac tivity</w> 80718
cler otic</w> 80685
m ast</w> 80680
op s</w> 80672
me an 80634
ac yl 80612
in adequate</w> 80601
T ox 80593
lev i 80590
im mature</w> 80576
EB V</w> 80573
OUTCO ME</w> 80570
efflu x</w> 80538
ph asic</w> 80537
gal act 80509
g p 80473
R ap 80463
f ear</w> 80447
polic ies</w> 80421
et amine</w> 80392
c ranial</w> 80389
su m</w> 80379
medi ating</w> 80365
AC S</w> 80334
immun op 80332
p .</w> 80325
Compar ative</w> 80305
est ers</w> 80301
or ubicin</w> 80292
AC TH</w> 80286
Sur viv 80277
troph ic</w> 80259
consist ency</w> 80246
7. 6</w> 80225
AM L</w> 80219
enrich ment</w> 80202
ol in</w> 80196
Myco bacterium</w> 80178
5. 9</w> 80161
indu strial</w> 80142
op in 80129
ist er</w> 80128
h eld</w> 80125
pol lution</w> 80123
interpre ted</w> 80113
continu ously</w> 80111
adren oc 80089
d L</w> 80086
a dic 80076
ti um</w> 80019
prost atic</w> 80018
cir cular</w> 80015
optim um</w> 80010
cop ing</w> 80001
- 5</w> 79988
1 30</w> 79982
quantit atively</w> 79968
b if 79958
In formation</w> 79900
bl otting</w> 79898
fal ls</w> 79894
ti bial</w> 79892
flu ids</w> 79888
umb il 79885
G rowth</w> 79874
s ac 79842
design ated</w> 79842
paras ites</w> 79836
u tri 79821
P RE 79772
en anti 79755
m enti 79741
Ph osph 79716
ch el 79715
aut onomic</w> 79697
C u 79694
anti bacterial</w> 79669
w ards</w> 79658
epigen etic</w> 79649
m aps</w> 79638
arom yces</w> 79636
pl anned</w> 79627
at mosph 79623
lam p 79611
g es</w> 79573
separ ately</w> 79573
ell es</w> 79553
hypox ic</w> 79550
conserv ation</w> 79541
lox acin</w> 79518
per oxidation</w> 79434
fill ing</w> 79389
gene sis</w> 79385
sh ell</w> 79368
O VA</w> 79366
Ex pos 79359
H I</w> 79340
polym ers</w> 79312
de ed</w> 79300
bi a</w> 79272
N T 79269
an ium</w> 79250
j our 79243
max illary</w> 79235
applic able</w> 79233
an o 79215
aut osomal</w> 79167
L s</w> 79165
cerebro spinal</w> 79158
br anch</w> 79155
te e</w> 79152
Fin dings</w> 79117
promis ed</w> 79112
persist ence</w> 79098
e es</w> 79097
ger min 79096
tri ple</w> 79085
Can ada</w> 79073
moder ately</w> 79060
p uber 79050
t RNA</w> 79018
inte resting</w> 79010
gi ant</w> 78981
py ru 78980
. 01</w> 78964
stit utes</w> 78960
g ri 78956
x yl 78935
en ough</w> 78931
ho sts</w> 78877
en demic</w> 78873
ex clusion</w> 78873
la p</w> 78866
achiev ing</w> 78849
g ives</w> 78831
AC h 78811
sh e</w> 78791
inter mittent</w> 78787
al ised</w> 78771
Ph ase</w> 78717
ver bal</w> 78702
sc in 78702
transpl anted</w> 78698
ut able</w> 78685
G D</w> 78684
a ur 78664
pur poses</w> 78662
epi demic</w> 78626
acch aromyces</w> 78607
200 3</w> 78594
my osin</w> 78574
199 4</w> 78562
elucid ated</w> 78559
per spectives</w> 78553
leak age</w> 78549
S am 78516
m ill 78497
ec lamp 78494
R o 78473
super nat 78402
re vision</w> 78398
testi s</w> 78396
f os 78353
in patient</w> 78349
pro motion</w> 78343
fet uses</w> 78330
7. 7</w> 78325
ost atic</w> 78324
recomm end</w> 78306
manip ulation</w> 78295
ta u</w> 78290
ac yl</w> 78271
post partum</w> 78264
abnormal ity</w> 78262
M ic 78260
rou tin 78254
bon ding</w> 78239
haem at 78228
umin escence</w> 78202
on ally</w> 78187
Retro spective</w> 78185
edi c</w> 78159
ad y 78157
iv al</w> 78157
T N 78126
if ug 78123
bio film</w> 78108
mas sive</w> 78101
par i 78080
t ary</w> 78068
accum ulated</w> 78062
non invasive</w> 78048
sc ar 78036
micro organisms</w> 78025
behavi oural</w> 78025
SI S</w> 78015
cryst als</w> 78015
correc tly</w> 78011
Statis tical</w> 78007
4 -</w> 77971
exp ensive</w> 77962
ambul atory</w> 77960
C ir 77957
S ocial</w> 77956
1 01</w> 77937
anaes thesia</w> 77931
ca usal</w> 77911
s s</w> 77884
H ER 77852
repres entation</w> 77851
ti ally</w> 77850
6. 9</w> 77823
C N</w> 77789
ad dic 77789
cour ses</w> 77772
ho use</w> 77759
des c 77743
con vul 77731
li p</w> 77729
ip si 77723
K A</w> 77720
diffr action</w> 77699
os yl 77691
Coch rane</w> 77686
os an</w> 77661
c ally</w> 77654
suspen sion</w> 77638
integr in</w> 77628
tachy cardia</w> 77617
8. 3</w> 77607
iod ine</w> 77597
N R 77586
He pati 77559
Pro spective</w> 77538
pharmac eutical</w> 77538
Con si 77525
GF P</w> 77515
adop ted</w> 77509
sil ica</w> 77451
horiz ontal</w> 77448
est ro 77421
ori ented</w> 77420
7 , 77403
inoc ulated</w> 77392
ass ayed</w> 77386
splic ing</w> 77367
m on</w> 77362
ol ing</w> 77362
In tra 77354
dis h</w> 77344
admini str 77341
S pr 77334
or bidities</w> 77322
episod e</w> 77322
Spec ific 77321
Pre valence</w> 77284
rang es</w> 77255
al levi 77239
F i 77233
foc uses</w> 77227
ar rays</w> 77208
de struction</w> 77205
less er</w> 77193
constric tion</w> 77182
respon ding</w> 77173
I GF 77158
w at 77122
i k 77119
M ex 77114
lat ent</w> 77096
contr actions</w> 77095
M ater 77082
c ure</w> 77041
life time</w> 77030
filam ents</w> 76996
g ing</w> 76993
PT H</w> 76985
ant en 76976
spl en 76976
inser ted</w> 76976
De pression</w> 76975
w ing</w> 76955
viol et</w> 76953
lat or</w> 76938
extrem ity</w> 76909
transf ection</w> 76899
lipop olysaccharide</w> 76858
c row 76855
CT s</w> 76819
buil ding</w> 76771
defin itive</w> 76769
ed ge</w> 76766
phot on</w> 76756
r ings</w> 76736
nore pinephrine</w> 76723
D D 76717
wh y</w> 76708
ren tly</w> 76702
nit rate</w> 76695
at ories</w> 76688
ocyt o 76677
join ts</w> 76668
men str 76655
disturb ance</w> 76654
L arg 76651
3 2 76647
empor al</w> 76646
ro tic</w> 76631
ag on</w> 76631
astro cytes</w> 76602
ici an</w> 76585
po rous</w> 76572
tin ib</w> 76552
U SA</w> 76549
M n</w> 76532
pea ks</w> 76528
ocompati bility</w> 76500
eng agement</w> 76489
profil ing</w> 76486
surg ically</w> 76476
se d 76474
capsul e</w> 76473
μ m</w> 76465
analy zing</w> 76441
conver ted</w> 76410
perin atal</w> 76406
se a</w> 76395
recipi ent</w> 76387
part ner</w> 76384
multic enter</w> 76368
P ain</w> 76345
sequ enced</w> 76341
me et</w> 76323
sup press</w> 76321
sep tic</w> 76310
form ulations</w> 76275
connec tion</w> 76273
in nov 76272
inter acting</w> 76262
y el 76254
p ep 76245
h ind</w> 76218
i e</w> 76213
activ ates</w> 76198
examin es</w> 76180
ish man 76180
in nerv 76156
non linear</w> 76154
cr ude</w> 76117
m asses</w> 76102
h in 76097
recogn ize</w> 76090
omy el 76078
prol actin</w> 76072
cap ability</w> 76058
lat ation</w> 76047
A N</w> 76043
- induced</w> 76039
Diab etes</w> 76036
on ine</w> 76034
tryp toph 76024
Inv estig 76012
objec tives</w> 75990
suff ered</w> 75962
hem e</w> 75960
ome dical</w> 75947
deta ils</w> 75945
oxygen ation</w> 75940
re aching</w> 75918
fore ign</w> 75888
hi erarch 75884
Physi cal</w> 75865
deteri oration</w> 75855
Im aging</w> 75850
Pro g 75847
ve ter 75830
end it 75812
str anded</w> 75811
aden oma</w> 75803
PI 3 75794
pre vents</w> 75793
aph rag 75774
if ying</w> 75773
fr uc 75768
S cre 75755
sat ellite</w> 75743
Cardi ac</w> 75732
financ ial</w> 75723
phenomen a</w> 75705
ag ricul 75694
discre te</w> 75679
G lu 75677
M it 75677
co ver</w> 75636
palli ative</w> 75636
Aug ust</w> 75619
un k</w> 75613
Stre ptococcus</w> 75575
pene tr 75563
M orph 75548
s -- 75542
di lution</w> 75536
reas on 75523
N i</w> 75518
an us</w> 75510
g i</w> 75505
ell um</w> 75480
evalu ations</w> 75419
pap illary</w> 75416
stri atum</w> 75398
PAR TI 75366
Influ ence</w> 75365
synerg istic</w> 75349
cod on</w> 75333
S e</w> 75318
consider ations</w> 75317
pic ture</w> 75300
p yro 75299
G al 75296
A no 75292
app reci 75283
air y</w> 75268
regul ators</w> 75262
O ste 75237
mit otic</w> 75235
valid ate</w> 75228
establ ishment</w> 75212
H ow</w> 75203
oph yl 75184
post menopausal</w> 75155
enti ty</w> 75140
id ed</w> 75121
endoscop y</w> 75118
pul ses</w> 75106
anastom osis</w> 75094
un stable</w> 75086
oscop ic</w> 75082
umbil ical</w> 75077
embol ization</w> 75020
extrem e</w> 74987
cholec yst 74983
seg reg 74961
ch ir 74949
ru n</w> 74947
P b</w> 74944
L im 74939
u red</w> 74911
illustr ate</w> 74909
re placed</w> 74902
mel atonin</w> 74898
cat al 74895
selec t</w> 74889
PARTI CIPA 74888
comfor t</w> 74859
per ox 74793
R enal</w> 74788
an ticip 74784
n ig 74715
h u 74689
modul ating</w> 74684
enabl ed</w> 74678
ob vious</w> 74667
in surance</w> 74665
do or</w> 74651
anti genic</w> 74650
mac ular</w> 74646
i ar</w> 74589
expl oration</w> 74572
ast ed</w> 74563
sim pl 74550
iton e 74530
- 6</w> 74525
PARTICIPA NTS</w> 74518
con stitute</w> 74484
stud ent</w> 74456
per g 74455
thyro idism</w> 74450
st e</w> 74439
discre p 74420
te m</w> 74415
Under standing</w> 74404
sp or 74375
NC E</w> 74362
aggreg ates</w> 74355
determin ant</w> 74346
discrim in 74344
F em 74309
ge ometry</w> 74308
histo chemical</w> 74306
esophag us</w> 74299
cat enin</w> 74285
at ri 74275
t onic</w> 74272
mer cur 74260
bl astoma</w> 74255
ing estion</w> 74238
Rep ort</w> 74234
C 3 74223
pene tration</w> 74212
ogra fts</w> 74199
sist ance</w> 74184
odynam ics</w> 74150
arrhyth mias</w> 74140
trans forming</w> 74128
ow ing</w> 74089
trans duc 74083
Ad ditional</w> 74073
pari etal</w> 74069
neuro degenerative</w> 74028
vi ously</w> 74024
lum en</w> 74022
Ser v 74018
oxidi zed</w> 73989
ER K</w> 73955
direc tions</w> 73945
meth ionine</w> 73938
intra ocular</w> 73930
all erg 73926
stem s</w> 73920
stri atal</w> 73917
radi ographs</w> 73915
rib osomal</w> 73910
benz ene</w> 73906
E th 73903
t ants</w> 73899
attrib utable</w> 73865
eosin oph 73864
l id 73859
ent ory</w> 73850
F S</w> 73841
th ood</w> 73834
com orbidities</w> 73834
r ule</w> 73818
V it 73814
pros thetic</w> 73813
Diag nosis</w> 73811
radic als</w> 73808
n a</w> 73799
Gn RH</w> 73791
princi ple</w> 73787
R i 73779
dis ulf 73755
ob ste 73741
cont acts</w> 73721
m V</w> 73709
h aled</w> 73706
menti oned</w> 73648
di mer</w> 73647
myel oma</w> 73640
carcin ogenesis</w> 73614
fu r</w> 73598
pe er</w> 73580
al umin 73569
SN P</w> 73564
st at 73545
fol ate</w> 73522
attenu ation</w> 73469
sl ices</w> 73458
ho t</w> 73453
ulc ers</w> 73449
at trac 73440
we ak 73435
ar ise</w> 73420
ent an 73407
P ost</w> 73404
sep tal</w> 73355
3 8 73309
Li ver</w> 73295
E G 73286
dro p</w> 73281
cor tic 73275
AR S</w> 73270
gangli a</w> 73268
modi fy</w> 73248
equ ations</w> 73247
P op 73244
trig ger</w> 73232
fibrin ogen</w> 73224
asym metric</w> 73217
om al</w> 73184
M S 73181
equip ment</w> 73173
ap tic</w> 73172
K a 73155
eth ical</w> 73148
k el</w> 73142
epilep tic</w> 73119
oc ul 73117
N P 73111
ac tor</w> 73094
ac compl 73091
199 2</w> 73090
En do 73062
hypothalam us</w> 73062
ang les</w> 73039
ol ab 73026
199 3</w> 73022
car ies</w> 73009
6 , 73002
chromat ographic</w> 73002
sh unt</w> 72951
pes tic 72943
analge sic</w> 72910
am ic</w> 72866
m o</w> 72836
e -</w> 72819
other wise</w> 72809
op res 72799
en op 72794
bec oming</w> 72791
1 60</w> 72774
form ula</w> 72765
hom ogen 72765
C57 BL</w> 72746
upreg ulation</w> 72725
pyru vate</w> 72702
ser op 72678
iso form</w> 72678
lith ium</w> 72633
pol e</w> 72618
r atings</w> 72612
juven ile</w> 72608
app ly</w> 72603
d itary</w> 72590
PC s</w> 72576
o rous</w> 72569
pertur b 72558
ie fs</w> 72556
cent ur 72541
sc av 72540
S uc 72538
anesthe tized</w> 72538
dop aminergic</w> 72523
exer t</w> 72523
immunos orbent</w> 72503
calc ulation</w> 72502
T PA</w> 72488
d ent</w> 72470
B ri 72467
catar act</w> 72412
stimul ates</w> 72405
summar ize</w> 72355
10 5</w> 72347
ameli or 72338
Syn drom 72336
t od 72312
aff ective</w> 72299
con den 72293
Hy po 72285
lam b 72280
Expos ure</w> 72254
G e 72230
N 2</w> 72230
b is</w> 72223
run ning</w> 72211
gi ving</w> 72203
ti zation</w> 72182
bo w</w> 72182
T D</w> 72157
pre clinical</w> 72153
attr active</w> 72138
ca ro 72135
v om 72121
avoid ance</w> 72113
P os 72101
knock down</w> 72100
PA P</w> 72054
f ig 72030
A l</w> 71995
N ine</w> 71980
kin e 71975
ap par 71963
ultim ately</w> 71957
st ain</w> 71940
Op tim 71936
t ose</w> 71934
Sh ort</w> 71929
Direc t</w> 71908
surfac tant</w> 71897
ro und</w> 71889
i pati 71879
exp endit 71876
ot rophic</w> 71872
end ocardi 71868
me at</w> 71861
F T</w> 71845
ot actic</w> 71836
out break</w> 71832
epit opes</w> 71820
direc tional</w> 71818
i ii</w> 71801
dri ve</w> 71796
ore r</w> 71780
draw n</w> 71766
si x 71726
wor d</w> 71722
Ran dom 71720
con junc 71696
N et 71688
T NF 71679
1 β</w> 71677
electro cardi 71658
h ence</w> 71656
cardi opulmonary</w> 71634
ograph ically</w> 71606
dec ay</w> 71600
E ven</w> 71592
Ep idemi 71578
bl ic</w> 71567
pr one</w> 71540
yt es</w> 71539
pl ant 71536
Ap plication</w> 71525
ang ina</w> 71510
p ip 71504
in form</w> 71501
Pr acti 71484
N either</w> 71476
Th rough</w> 71442
visu alization</w> 71439
usc itation</w> 71439
at ro 71419
8. 6</w> 71418
attemp ted</w> 71404
ox if 71386
continu ation</w> 71380
int ended</w> 71373
sub sets</w> 71369
dy sp 71356
g ained</w> 71334
immunosup pressive</w> 71332
speci alized</w> 71330
k al 71325
Sh e</w> 71314
Z e 71266
institu tions</w> 71264
Gen er 71247
resid ent</w> 71246
epid ural</w> 71244
bel ieve</w> 71242
R E</w> 71226
P or 71222
at tending</w> 71207
flur ane</w> 71205
mig raine</w> 71167
distr ic 71163
ve ins</w> 71157
evol ved</w> 71140
pro ve</w> 71132
trim ester</w> 71122
opres sin</w> 71109
visc eral</w> 71097
on eph 71084
A ff 71076
st ones</w> 71053
- 4</w> 71018
ca ffe 70990
att ack</w> 70981
p it 70958
min ogen</w> 70956
epit ope</w> 70952
ch e 70940
qu ar 70930
thromb ocyt 70929
M us 70917
H is</w> 70888
ham ster</w> 70887
clon ing</w> 70875
w ounds</w> 70842
bloc kers</w> 70832
all ogeneic</w> 70825
B as 70821
al do 70820
hist ologically</w> 70816
warran ted</w> 70808
b rate</w> 70805
u n</w> 70800
ch ori 70792
osteo arthritis</w> 70784
obser ver</w> 70774
thym idine</w> 70732
trac e</w> 70718
ipsi lateral</w> 70718
K i</w> 70709
mis sing</w> 70696
R D</w> 70692
0.00 3</w> 70666
tor ial</w> 70642
heter o 70629
cho ol</w> 70623
m outh</w> 70615
br ady 70615
casc ade</w> 70583
fluor ide</w> 70563
m u</w> 70562
f ecal</w> 70551
Diagnos tic</w> 70533
xim ab</w> 70529
or ic</w> 70524
exten d</w> 70518
ome tri 70512
adv anc 70511
c a</w> 70483
L ife</w> 70471
in versely</w> 70468
all ergy</w> 70465
c ity</w> 70459
sam pled</w> 70449
8. 2</w> 70434
hydrox ylase</w> 70425
er t</w> 70422
sar co 70403
nephro pathy</w> 70402
los ses</w> 70401
histor ical</w> 70381
s ular</w> 70377
resp iration</w> 70377
An im 70372
var ies</w> 70353
mo tiv 70345
7. 9</w> 70330
ac il</w> 70327
In dian</w> 70290
F U</w> 70277
t ot 70270
vast atin</w> 70267
L ac 70264
D F</w> 70247
facilit ated</w> 70244
ab ine</w> 70226
l ity</w> 70208
ur ance</w> 70200
Ab s</w> 70171
re mot 70166
verte br 70152
ipati ng</w> 70123
Wh at</w> 70105
ol l 70101
all ograft</w> 70088
propor tions</w> 70087
rh iz 70078
atheros clerotic</w> 70051
ar ct</w> 70050
smo ke</w> 70046
ay ers</w> 70038
Ultr as 70025
swit ch</w> 70016
F L 69990
in continence</w> 69990
end ometri 69983
Pro gram</w> 69975
M agnetic</w> 69968
ep ing</w> 69966
Inte gr 69931
polymer ization</w> 69926
S il 69924
quanti ty</w> 69921
calcul ate</w> 69921
e pa 69920
U V 69904
venti l 69886
L ip 69871
e us</w> 69849
S accharomyces</w> 69846
excit atory</w> 69833
Austral ian</w> 69814
oc occal</w> 69796
preferen ces</w> 69789
endo plasmic</w> 69783
adhe sive</w> 69776
G lob 69774
ec es</w> 69772
con junction</w> 69757
glyc ogen</w> 69745
prophyl actic</w> 69734
F DG</w> 69714
n ull</w> 69700
r y</w> 69698
criter ion</w> 69696
normal ized</w> 69659
l et 69638
Vari ous</w> 69612
uncer tainty</w> 69612
cogni tion</w> 69609
inc ision</w> 69582
Ap pro 69580
develop ments</w> 69572
con clusions</w> 69571
transmit ter</w> 69556
lam y 69550
charg es</w> 69547
B s</w> 69530
ma st 69518
igh ts</w> 69511
trans verse</w> 69509
di oxide</w> 69502
h ard</w> 69501
amph etamine</w> 69490
Sec ondary</w> 69472
Gen eral</w> 69468
ion ization</w> 69466
f resh 69459
odon tic</w> 69459
struc turally</w> 69450
acces sible</w> 69443
im ide</w> 69439
res sively</w> 69438
objec ts</w> 69436
ph thal 69433
inoc ulation</w> 69418
p ation</w> 69404
doc tors</w> 69394
psych o 69391
anti coagul 69390
tryptoph an</w> 69372
counsel ing</w> 69367
M il 69339
fl am 69336
lim bs</w> 69331
engine ered</w> 69305
PI3 K</w> 69280
tw enty</w> 69274
em atic</w> 69257
obser ve</w> 69253
H A 69242
T M</w> 69216
P 450</w> 69213
rib ed</w> 69200
S ensi 69196
colon ization</w> 69195
frag mentation</w> 69190
del ine 69164
ar ms</w> 69148
slow ly</w> 69141
B W</w> 69129
wa ve 69108
P at 69107
pro line</w> 69105
bro w 69093
appar atus</w> 69070
Rec om 69045
199 1</w> 69038
simil arities</w> 69028
cardi o 69026
M el 69022
con e</w> 69012
fib rom 69010
al isation</w> 68994
CH D</w> 68986
ophthal m 68982
par asi 68976
elim inated</w> 68906
susp ici 68893
m iti 68856
D at 68848
reproduc ibility</w> 68848
tic a</w> 68833
I N</w> 68832
organ ized</w> 68831
routin ely</w> 68823
8. 8</w> 68779
acc id 68778
it ated</w> 68773
P W 68769
System atic</w> 68766
th y</w> 68752
Multi variate</w> 68728
ycl ine</w> 68727
ol ateral</w> 68725
p et 68715
envel ope</w> 68712
labor atories</w> 68697
od ec 68690
er adic 68689
In trac 68650
her nia</w> 68643
f en 68641
mal formations</w> 68619
refl ects</w> 68615
exc eption</w> 68613
belong ing</w> 68610
absc ess</w> 68569
ch i</w> 68514
phosphor us</w> 68502
F ib 68499
in organic</w> 68492
lipos omes</w> 68478
Struc tural</w> 68472
ag ar</w> 68460
Ger many</w> 68458
EM G</w> 68457
em enting</w> 68456
m entally</w> 68448
knock out</w> 68426
S tro 68423
ris t</w> 68423
g ed</w> 68420
disper sion</w> 68407
bal anced</w> 68397
am id 68365
placent a</w> 68363
An gi 68360
mon ocyte</w> 68346
medi as 68342
ad junc 68332
ess entially</w> 68323
epa m</w> 68302
clu stering</w> 68298
D aw 68275
hor ses</w> 68270
construc ts</w> 68265
pos ites</w> 68250
Ram an</w> 68248
relati ves</w> 68241
T rial</w> 68239
F eb 68223
Ac tivation</w> 68222
multi disciplinary</w> 68216
om od 68206
bio availability</w> 68202
describ ing</w> 68201
over lap</w> 68193
cohe rence</w> 68172
reproduc ible</w> 68163
in ase</w> 68142
F ood</w> 68140
f used</w> 68118
emplo ying</w> 68113
ide a</w> 68112
har d 68105
in sp 68093
A1 c</w> 68089
z er</w> 68088
Bre ast</w> 68071
S mall</w> 68067
po is 68056
m t 68054
ob arb 68054
od es</w> 68051
el ast 68039
mit ogen</w> 68036
Syndrom e</w> 68024
R ats</w> 68011
seas onal</w> 68008
hy dra 67989
d airy</w> 67982
preferen tially</w> 67975
exper t</w> 67968
f ate</w> 67935
Sec ond</w> 67929
survi ved</w> 67915
l ic 67912
igh t 67905
F C</w> 67898
predic ts</w> 67896
dist or 67894
1, 2</w> 67894
sl ope</w> 67892
I Q 67878
as cor 67860
mathem atical</w> 67851
ter med</w> 67850
pro po 67833
ul ed</w> 67827
In tro 67808
insec t</w> 67765
aug mented</w> 67757
ru ary</w> 67752
eclamp sia</w> 67752
l nc 67744
var ic 67724
Fac tor</w> 67705
Gl uc 67676
Associ ated</w> 67674
P ulmonary</w> 67653
G TP</w> 67643
fi er</w> 67633
eukary otic</w> 67631
br ac 67624
dam aged</w> 67618
am yg 67607
vom iting</w> 67600
ti ters</w> 67599
regar ded</w> 67596
Feb ruary</w> 67581
her in</w> 67572
bor ns</w> 67563
fertil ization</w> 67561
c e 67560
mos quit 67560
glyc emic</w> 67548
0. 6 67547
ax onal</w> 67512
M G</w> 67487
Nov ember</w> 67484
den sities</w> 67478
influ x</w> 67466
st arch</w> 67461
so y 67449
mut ase</w> 67437
o k 67419
lim itation</w> 67399
desi r 67366
har b 67354
fibr onectin</w> 67350
di aphrag 67344
re al 67342
De sign</w> 67313
8. 0</w> 67304
immobil ized</w> 67302
waveleng th</w> 67296
fl ight</w> 67262
adul thood</w> 67231
hom ozygous</w> 67225
aden omas</w> 67216
Respon se</w> 67205
P ac 67198
dro pl 67197
sp ar 67196
t ome</w> 67193
hel ical</w> 67185
fet us</w> 67182
F V 67177
lat er 67173
ec topic</w> 67172
rever sal</w> 67163
L ung</w> 67154
s lower</w> 67151
o yl</w> 67142
8. 9</w> 67126
C ycl 67103
anal ogs</w> 67103
c . 67101
fac ility</w> 67100
mes enteric</w> 67065
Ad ult</w> 67056
O T</w> 67053
micro vascular</w> 67052
jo b</w> 67047
aver aged</w> 67046
ab str 67024
tem plate</w> 67016
dimen sion</w> 66990
stabil ized</w> 66990
f asc 66983
plas minogen</w> 66965
v ap 66961
icardi al</w> 66958
carr y</w> 66954
Rel ati 66947
Amer ica</w> 66946
P 4</w> 66935
distingu ished</w> 66886
wa ste 66863
T 1 66859
ad missions</w> 66859
cathe ter 66855
immun ized</w> 66845
in he 66840
employ ment</w> 66823
id in</w> 66814
meth anol</w> 66802
in tubation</w> 66784
conver ting</w> 66784
compl aints</w> 66782
parathyro id</w> 66780
h all 66774
ox al 66734
gradu ate</w> 66733
scin ti 66701
oph en 66694
ogni tive</w> 66694
sens ors</w> 66690
introduc e</w> 66670
transi tions</w> 66634
nan ot 66633
cho ro 66594
o ides</w> 66588
compet ence</w> 66579
se arch 66568
glucocortico id</w> 66568
proc e 66554
explan ation</w> 66552
PR L</w> 66534
leg al</w> 66530
arach id 66519
micro environment</w> 66503
3 4 66493
CYP 2 66493
po orer</w> 66492
all ic</w> 66489
T CR</w> 66479
H s</w> 66478
IC 50</w> 66475
bel iefs</w> 66471
co ating</w> 66460
gal ac 66451
foll icles</w> 66428
G ra 66418
col lo 66402
psori asis</w> 66402
transl ated</w> 66401
S af 66384
aut on 66374
IN E</w> 66370
inher ited</w> 66369
immunop recip 66331
amyg dal 66331
highligh ted</w> 66328
den at 66296
T issue</w> 66295
phospholip ase</w> 66289
fer mentation</w> 66274
ad ding</w> 66264
mercur y</w> 66250
Daw ley</w> 66244
ari um</w> 66243
leuc ine</w> 66222
m ir 66211
ap ine</w> 66198
her pes</w> 66196
Tw elve</w> 66193
regi stration</w> 66177
nan oc 66169
re production</w> 66154
cl amp</w> 66153
2 a</w> 66113
domes tic</w> 66111
ep sil 66104
Relati onsh 66103
intraper itoneal</w> 66102
si RNA</w> 66076
Spr ague</w> 66075
ul ty</w> 66071
un g 66063
High er</w> 66049
sensiti zation</w> 66029
atin um</w> 66026
ph ant 66022
tr is 66019
re a</w> 66013
um inal</w> 66004
k y</w> 65994
MEASURE S</w> 65992
method ological</w> 65991
plan ar</w> 65984
derm atitis</w> 65980
res uscitation</w> 65975
uni versal</w> 65975
hydro ly 65962
inf arct</w> 65948
datas et</w> 65945
manifest ation</w> 65935
mut ated</w> 65933
se eds</w> 65928
Pot ential</w> 65904
saliv a</w> 65903
desi red</w> 65889
peri odic</w> 65887
osmo tic</w> 65885
f oun 65860
co de</w> 65859
them es</w> 65857
spl enic</w> 65850
8 00</w> 65844
res ected</w> 65842
end otoxin</w> 65804
s s 65800
circu it</w> 65790
mark et</w> 65762
P B</w> 65758
5 p</w> 65706
m us</w> 65704
ac tin 65695
8. 4</w> 65681
z ones</w> 65679
azep ine</w> 65672
fer ri 65654
trans form</w> 65653
mo ving</w> 65635
e diatric</w> 65628
po protein</w> 65619
hom olog 65612
AL L</w> 65597
nucle ic</w> 65547
con fined</w> 65534
vesti bular</w> 65528
si zed</w> 65495
i. p.</w> 65490
wor sen 65463
com ing</w> 65445
mutag enesis</w> 65443
I BD</w> 65438
ph on 65420
di az 65414
0. 5 65411
P BM 65401
E N</w> 65397
junc tions</w> 65386
B in 65370
conduc t</w> 65367
quin one</w> 65361
Gol gi</w> 65344
ame ters</w> 65340
repeti tive</w> 65331
an sw 65322
ong ue</w> 65318
S r 65279
micro gram</w> 65275
et c</w> 65261
ech anical</w> 65242
app en 65242
calib ration</w> 65239
bil ir 65218
sub mitted</w> 65214
establ ishing</w> 65197
C s 65196
triglycer ide</w> 65176
H u 65174
precip itation</w> 65155
al izations</w> 65132
P lat 65128
lin ks</w> 65128
pl ans</w> 65120
in struc 65118
b atter 65117
Post operative</w> 65107
cortico steroids</w> 65104
sequ ent</w> 65091
ab ec 65087
synth et 65067
care ful</w> 65062
hol ds</w> 65023
la w</w> 65019
al i 65014
B a 64985
pre treated</w> 64974
poly acrylamide</w> 64973
pig ment</w> 64967
mening itis</w> 64966
Experim ent</w> 64963
micro array</w> 64961
acti vely</w> 64956
flav on 64940
comp uter 64937
st ep 64932
enti onal</w> 64929
fo rest</w> 64919
li e</w> 64909
C B</w> 64903
elong ation</w> 64902
inhal ation</w> 64894
minim ize</w> 64861
R V</w> 64859
bi omedical</w> 64856
in ium</w> 64855
gen etics</w> 64848
Cro hn</w> 64829
1 H</w> 64812
4, 5</w> 64805
I F</w> 64800
su stain 64797
F 2</w> 64780
nam ed</w> 64779
pro found</w> 64768
assembl ed</w> 64768
20 19</w> 64767
depl eted</w> 64758
gluc agon</w> 64748
verte brate</w> 64739
detec tor</w> 64724
ectom ized</w> 64723
ambi ent</w> 64706
it ting</w> 64704
commerc ially</w> 64697
cycl ing</w> 64669
H2 O2</w> 64638
T ogether</w> 64635
tr unk</w> 64606
cur ative</w> 64606
spermat ozo 64580
Reg i 64579
ograph ics</w> 64578
ter a</w> 64565
flex ibility</w> 64564
vulner able</w> 64563
dram atic</w> 64551
ang ular</w> 64541
S tim 64534
l aryngeal</w> 64531
sco red</w> 64511
thrombo tic</w> 64484
par a 64465
ili ac</w> 64460
ophil ia</w> 64457
Con tin 64432
aberr ant</w> 64432
B I</w> 64431
9. 2</w> 64423
hyper sensitivity</w> 64410
O l 64408
K 2</w> 64404
glyco l</w> 64382
hemorrh agic</w> 64372
8. 1</w> 64360
angi oplasty</w> 64349
NAD PH</w> 64323
Sev enty</w> 64320
kin ds</w> 64316
re fr 64309
li um</w> 64296
marg in</w> 64274
Ph en 64267
b red</w> 64262
cord ingly</w> 64253
tr abec 64249
nar row</w> 64249
re constitu 64246
su ture</w> 64243
rati on 64227
pac ing</w> 64222
en ously</w> 64221
Ca uc 64211
ar ri 64210
er ies</w> 64208
w w 64204
fib rous</w> 64172
b uc 64153
hypo theses</w> 64150
entr icular</w> 64141
ogen e</w> 64102
aer os 64095
ophosph ate</w> 64083
scaff old</w> 64070
Con sequently</w> 64065
Per form 64063
as m</w> 64058
fluctu ations</w> 64053
duod en 64052
ren ces</w> 64043
M ale</w> 64038
Transc rip 64007
prob able</w> 64001
marg inal</w> 63961
i ents</w> 63958
em ental</w> 63955
coll abor 63955
promo ters</w> 63948
2, 3</w> 63942
repe at 63938
repe ats</w> 63925
Differen tial</w> 63924
mechanis tic</w> 63914
partic ipating</w> 63900
SC T</w> 63890
Sou thern</w> 63889
cycl ospor 63879
optim ize</w> 63872
u si 63855
use a</w> 63838
menstr ual</w> 63820
ex plic 63815
beta 1</w> 63811
0. 2 63808
bol us</w> 63802
dox orubicin</w> 63799
integr al</w> 63798
glut amine</w> 63795
Eff icacy</w> 63791
8. 7</w> 63757
overl apping</w> 63756
ge ographic</w> 63734
MI C</w> 63720
0.0 6</w> 63701
datas ets</w> 63690
Specific ally</w> 63679
un saturated</w> 63678
16 S</w> 63670
commun ic 63648
estim ating</w> 63643
ud ge</w> 63639
low ered</w> 63636
C arb 63634
sph eres</w> 63620
B ay 63616
pre frontal</w> 63600
y o 63588
qu i 63585
crystall ine</w> 63575
olig os 63574
E S 63573
3 3 63572
as sum 63570
D en 63557
kill ing</w> 63557
scaff olds</w> 63538
di s</w> 63530
h aps</w> 63527
i ety</w> 63513
Gen ome</w> 63510
arrang ements</w> 63465
continu es</w> 63449
consci ous</w> 63435
autom atic</w> 63423
sil encing</w> 63420
caro ten 63413
mo id</w> 63408
prop yl 63377
P 2 63371
house hold</w> 63351
In jur 63349
l t</w> 63345
us p 63343
x anth 63339
infer tility</w> 63329
dele tions</w> 63272
dom eth 63269
glyc emia</w> 63267
cereb ellum</w> 63253
connec tions</w> 63235
vis cos 63228
VE N 63215
ophosph amide</w> 63213
rec all</w> 63209
el as 63200
M odi 63192
arti le</w> 63177
evid enced</w> 63175
I S 63151
Ar g</w> 63143
pat h</w> 63140
soci o</w> 63140
C op 63109
intrav enously</w> 63107
new borns</w> 63097
ic o</w> 63094
RO C</w> 63093
centur y</w> 63092
posi tioning</w> 63089
h t 63081
dis mutase</w> 63081
ren ch</w> 63079
erythem at 63064
os ity</w> 63058
L M 63049
9. 4</w> 63028
9. 6</w> 63005
pal sy</w> 63004
Ch rom 62995
bi ologically</w> 62983
fron t</w> 62979
colon ies</w> 62975
pro to 62967
ab oration</w> 62958
non specific</w> 62957
re l</w> 62938
bloc ker</w> 62904
play ing</w> 62865
connec tive</w> 62844
ow er</w> 62839
O CT</w> 62837
d i</w> 62834
mo iety</w> 62821
persist ed</w> 62820
S m 62808
cad herin</w> 62801
M ice</w> 62793
AR Y</w> 62790
thym us</w> 62787
gro ss</w> 62760
person nel</w> 62759
dometh acin</w> 62757
9. 3</w> 62731
CA T</w> 62726
retin opathy</w> 62718
ul us</w> 62713
synovi al</w> 62709
dis charged</w> 62705
pl aques</w> 62702
qu artile</w> 62672
L a 62661
prog ressively</w> 62655
heter ozygous</w> 62655
I T</w> 62641
man age</w> 62641
on ds</w> 62634
se emed</w> 62628
Res p 62623
os keletal</w> 62615
ph al 62592
ig u 62587
H V</w> 62558
hy gi 62557
s or</w> 62527
In flam 62526
1 11</w> 62519
p 38</w> 62519
pro vision</w> 62518
fac ts</w> 62496
l ib 62489
E A</w> 62474
Cl assi 62467
circum st 62455
haz ards</w> 62438
refl ecting</w> 62427
str a 62425
remot e</w> 62389
em a 62350
In sul 62350
con sumed</w> 62344
do w</w> 62328
pran olol</w> 62326
si ded</w> 62308
D ay</w> 62301
bre ast 62284
B ut</w> 62282
rel im 62275
ur acil</w> 62274
pro pi 62268
accep tance</w> 62238
hypot ension</w> 62237
bra fish</w> 62227
deli ver 62226
er ous</w> 62211
vic tim 62209
angi ogenic</w> 62205
deman ds</w> 62186
opath ology</w> 62185
Can adi 62177
i res</w> 62175
PG E2</w> 62175
moti fs</w> 62156
bio active</w> 62152
kill ed</w> 62136
cent res</w> 62124
ch it 62113
M Y 62112
propag ation</w> 62110
disulf ide</w> 62106
Perform ance</w> 62103
P ri 62092
conjug ates</w> 62088
neurom uscular</w> 62082
Surviv al</w> 62074
mon ic</w> 62061
x in</w> 62059
b ones</w> 62056
desc ending</w> 62048
A U 62018
anti retroviral</w> 62015
bri ef 61992
pro pen 61988
constr aints</w> 61987
sist ent</w> 61982
u sive</w> 61952
brid ge</w> 61948
categor ized</w> 61942
dist ances</w> 61930
swit ching</w> 61929
ob taining</w> 61904
B T</w> 61881
desir able</w> 61880
retar dation</w> 61871
Ma j 61864
D Cs</w> 61853
L eu 61824
oxid ants</w> 61818
foc i</w> 61817
poll ut 61786
TL R 61767
re acted</w> 61760
cyt ology</w> 61759
G V 61747
ha ir 61730
INTER VEN 61729
T L</w> 61719
sc at 61698
prin ting</w> 61671
10 2</w> 61670
retro grade</w> 61664
lip i 61640
Kore an</w> 61561
en or 61550
S HR</w> 61546
pris ingly</w> 61544
st op 61537
n om 61536
ar ial</w> 61527
chic k 61520
here ditary</w> 61506
Al l 61495
PA R</w> 61488
in ous</w> 61486
S K</w> 61480
abor tion</w> 61452
fabr icated</w> 61439
anes thetic</w> 61433
presum ably</w> 61425
pl eg 61407
aryn x</w> 61404
E s</w> 61402
BAL B</w> 61402
9. 1</w> 61380
cad mium</w> 61379
Lym ph 61379
ech o</w> 61377
pap ers</w> 61369
sp ray</w> 61364
cop e</w> 61358
d odec 61357
I OP</w> 61350
r ating</w> 61348
fil ament</w> 61337
reser vo 61329
prote olytic</w> 61319
at osis</w> 61307
ph orb 61305
Cauc asi 61295
fu sions</w> 61278
Larg e</w> 61264
r ing 61238
waste water</w> 61221
c ing</w> 61214
cur ricul 61211
sem i 61211
fin ally</w> 61206
rein for 61195
lin ing</w> 61193
Scre ening</w> 61193
mor tem</w> 61177
F c</w> 61169
p up 61162
CA SE</w> 61153
pyr idine</w> 61147
d ust</w> 61143
S a 61139
vir tual</w> 61137
0. 3 61135
scre w</w> 61130
L oc 61112
we t</w> 61103
mar ks</w> 61084
de ep 61076
C p 61074
ol ine</w> 61069
perfor ation</w> 61069
multi variable</w> 61041
V e 61032
seg mental</w> 61017
tin s</w> 61013
F o 61001
Th ose</w> 60999
fr am 60981
demonstr ation</w> 60972
vas opressin</w> 60971
facilit ates</w> 60967
s acr 60946
Ex amination</w> 60940
challeng ed</w> 60905
ped ance</w> 60905
wal ls</w> 60900
V ol 60897
plasm ids</w> 60897
res orption</w> 60885
posi tivity</w> 60872
p iv 60851
T U 60832
up uncture</w> 60831
hyp oglyc 60820
st atin</w> 60816
am el</w> 60801
Ger man</w> 60800
so ils</w> 60787
he dr 60762
feren ces</w> 60748
CD 3</w> 60745
L ong 60744
mo un 60720
cop ies</w> 60714
Con versely</w> 60713
M et</w> 60702
Y oun 60697
cle ft</w> 60687
au gh 60682
l actic</w> 60677
sched ule</w> 60670
nat ri 60645
compart ments</w> 60642
adequ ately</w> 60637
Ex c 60635
b ases</w> 60619
ultra structural</w> 60614
pl atinum</w> 60612
C ognitive</w> 60597
N at 60596
ex in</w> 60585
F rench</w> 60573
198 8</w> 60570
S B</w> 60567
f ell</w> 60536
N H</w> 60536
conjug ate</w> 60536
is let</w> 60519
M id 60516
phorb ol</w> 60507
N CT 60505
thic k 60499
198 9</w> 60492
St ress</w> 60469
win dow</w> 60466
f MRI</w> 60458
y a</w> 60451
ogly can</w> 60439
neuro endocrine</w> 60423
id a</w> 60411
Pre vention</w> 60388
he ating</w> 60379
poll en</w> 60360
re vascularization</w> 60352
te ach 60332
ul ates</w> 60325
M ental</w> 60304
b order</w> 60294
oth i 60293
k now</w> 60291
inter acts</w> 60291
bur st</w> 60289
ubiqu itin</w> 60283
g aps</w> 60273
ot roph 60273
lit axel</w> 60260
Wh ite</w> 60252
1, 3</w> 60226
b ud 60219
Intro duction</w> 60218
K O</w> 60217
or ities</w> 60215
diff ers</w> 60212
prim ers</w> 60209
ous ness</w> 60189
ic idal</w> 60187
transpor ters</w> 60179
mim ic</w> 60177
di latation</w> 60168
centr ifug 60152
mess enger</w> 60150
T2 DM</w> 60121
We b</w> 60118
in ates</w> 60108
B ody</w> 60107
na usea</w> 60099
viscos ity</w> 60093
ap nea</w> 60091
eg ative</w> 60091
classi c</w> 60082
V AS</w> 60071
constitu ents</w> 60066
D er 60058
Mat erials</w> 60047
p mol</w> 60014
qu ic 60009
m Ab</w> 59997
L M</w> 59991
ati onic</w> 59986
ru b 59986
onc ology</w> 59971
kin d</w> 59959
spermatozo a</w> 59944
sph inc 59930
i otic</w> 59928
projec tion</w> 59919
shorten ing</w> 59910
P CI</w> 59887
alb icans</w> 59887
publ ications</w> 59859
Glob al</w> 59847
cor ro 59845
caffe ine</w> 59845
produc tivity</w> 59843
inf used</w> 59841
Cur rently</w> 59820
H2 O</w> 59819
au tism</w> 59811
an ter 59800
T c</w> 59787
1, 000</w> 59773
aut opsy</w> 59771
haem orrh 59764
ultra violet</w> 59740
suc cin 59729
trop ical</w> 59716
w rit 59712
u ed</w> 59707
mic rom 59705
lymph atic</w> 59698
St age</w> 59683
or imetr 59668
d ated</w> 59653
phospholip ids</w> 59652
con sent</w> 59630
nor adrenaline</w> 59626
leng ths</w> 59613
st resses</w> 59601
hy al 59577
Incre asing</w> 59573
cal ves</w> 59568
Organ ization</w> 59564
fibr in</w> 59559
ten d</w> 59555
un de 59554
nico tin 59553
form in</w> 59536
exper ts</w> 59527
ag it 59503
H er 59495
phen olic</w> 59486
in dex 59485
m apped</w> 59478
N -</w> 59469
W est</w> 59462
ul in 59460
er ship</w> 59458
ur ium</w> 59455
rex ate</w> 59440
pharmac y</w> 59431
event ually</w> 59426
mobil ization</w> 59424
T n 59416
I a</w> 59410
rec essive</w> 59407
tempor ary</w> 59389
Cal c 59389
lymph omas</w> 59388
amin ase</w> 59383
ra w</w> 59366
grad ed</w> 59360
hab its</w> 59353
H 3</w> 59337
electrol yte</w> 59326
lo t</w> 59285
R CC</w> 59277
T ai 59269
solub ility</w> 59232
Be sides</w> 59230
st al 59229
L o 59206
mum ol</w> 59206
vacc inated</w> 59200
Combin ed</w> 59199
oc at 59185
ke ts</w> 59183
ot opic</w> 59177
me eting</w> 59176
therapeu tics</w> 59174
fin ite</w> 59169
calc ification</w> 59163
encap sul 59156
uni variate</w> 59152
or p 59149
modul ates</w> 59130
ty ph 59103
en tered</w> 59098
C 4</w> 59087
gro w</w> 59086
organ izations</w> 59080
3 7 59075
ati onary</w> 59070
Dat ab 59068
electro physiological</w> 59067
de signs</w> 59058
ot e</w> 59042
W nt</w> 59036
H or 59034
isot ope</w> 59032
dis appeared</w> 59026
He ter 59025
SP ECT</w> 59009
H ol 59004
D u 59001
cle a 58997
mat urity</w> 58990
dis soci 58957
aug mentation</w> 58947
modul in</w> 58931
o king</w> 58919
mean ing 58917
myel in</w> 58911
F P</w> 58905
AL T</w> 58895
cover ing</w> 58891
uncer tain</w> 58891
amp ut 58872
R AS</w> 58867
re str 58833
aldo sterone</w> 58823
e sian</w> 58811
B or 58778
fav our 58767
AB E 58763
f ly</w> 58754
10 3</w> 58752
vesi cle</w> 58750
accoun ting</w> 58741
Out come</w> 58738
agglutin in</w> 58723
1 st</w> 58714
hand ling</w> 58706
av ig 58696
man aging</w> 58693
S i</w> 58683
kill er</w> 58683
ten si 58682
diag nose</w> 58681
sp ot</w> 58679
E stim 58671
μ M</w> 58664
typ ing</w> 58654
polar ized</w> 58652
impair ments</w> 58636
ro d</w> 58632
Ha em 58630
sp ent</w> 58624
ads orb 58624
retriev al</w> 58617
R CTs</w> 58611
lamb da</w> 58606
we ar</w> 58598
lys osomal</w> 58588
b all</w> 58574
ul t 58569
er n 58565
1 2.5</w> 58562
In duced</w> 58555
ic ac 58551
bound ary</w> 58551
Reg ulation</w> 58537
10 4</w> 58500
synthet ase</w> 58500
Sci ence</w> 58483
Insul in</w> 58469
play ers</w> 58468
continu ing</w> 58455
1 α</w> 58449
pow der</w> 58432
il lo 58424
it ance</w> 58413
T I</w> 58405
CD 34</w> 58387
sul fur</w> 58382
fi able</w> 58379
gluc uron 58379
f ol</w> 58362
et te</w> 58351
sugg estive</w> 58350
triglycer ides</w> 58336
sp ite</w> 58329
ub es</w> 58327
provid er</w> 58325
volun tary</w> 58321
n es 58314
D ATA</w> 58298
caus ative</w> 58273
c ot 58261
β 1</w> 58248
bran ches</w> 58244
B u 58240
termin als</w> 58236
ir reversible</w> 58231
cycl ophosphamide</w> 58206
comm it 58187
sec onds</w> 58174
D SM</w> 58166
P al 58165
land scap 58160
accoun ts</w> 58152
gradi ents</w> 58147
foll icle</w> 58144
beg an</w> 58140
scenari os</w> 58137
f ra 58133
y ment</w> 58129
0.00 4</w> 58123
H elic 58122
encephal opathy</w> 58118
CE A</w> 58091
9. 7</w> 58077
HER 2</w> 58069
en es</w> 58040
defin ing</w> 58027
an tr 58015
P ositive</w> 58010
path ic</w> 58008
sub cellular</w> 58004
k ept</w> 57988
t ongue</w> 57987
Pe diatric</w> 57985
li ves</w> 57962
H SP 57941
a un 57936
pass age</w> 57935
3 p</w> 57932
H al 57929
ar d 57927
tit anium</w> 57922
adv ance</w> 57919
ot rexate</w> 57902
blin ded</w> 57899
si al 57891
Ital y</w> 57870
fibr e</w> 57864
immun ocom 57860
E mer 57858
D E</w> 57857
m is</w> 57856
N i 57856
care fully</w> 57845
S core</w> 57842
am orph 57831
in activated</w> 57823
Canadi an</w> 57814
sti g 57803
y tic</w> 57802
yr in</w> 57797
il ian</w> 57788
EC M</w> 57788
nor thern</w> 57771
H S 57755
char acter</w> 57755
sou thern</w> 57753
so ver</w> 57747
Therap eu 57714
inter mediates</w> 57712
ucle otide</w> 57675
d B</w> 57634
dis sec 57618
in stem</w> 57609
conflic t</w> 57602
n aph 57600
mod est</w> 57593
expec tations</w> 57583
9. 8</w> 57573
3 6 57564
S eph 57554
Rap id</w> 57539
os s</w> 57537
ap oli 57529
medi ator</w> 57529
ammon ia</w> 57529
ub in</w> 57510
rel ating</w> 57507
st ock</w> 57504
ic on 57504
Compl ete</w> 57497
CB F</w> 57495
am idal</w> 57489
prescrib ing</w> 57473
spl it</w> 57469
IC D</w> 57457
shor t 57456
no tic 57454
E duc 57443
har v 57438
ethn icity</w> 57436
glycos ylation</w> 57425
analy se</w> 57422
se dation</w> 57414
her ni 57404
individu ally</w> 57398
cit rate</w> 57398
uter us</w> 57397
dem ographics</w> 57390
Commun ity</w> 57389
spin dle</w> 57376
tend s</w> 57370
p in</w> 57359
V s</w> 57357
100 ,000</w> 57354
I g</w> 57340
c itr 57337
ser ves</w> 57336
concentr ated</w> 57294
a ren 57285
M ei 57257
spectro scopic</w> 57253
ag ers</w> 57241
alg ia</w> 57238
coord inated</w> 57238
t us 57198
ann ot 57194
at ology</w> 57182
docum ent</w> 57179
M emb 57174
ging ival</w> 57171
12 3</w> 57155
att acks</w> 57153
G P 57151
abol ism</w> 57149
nutri ents</w> 57149
His panic</w> 57141
ocy cl 57119
Eigh ty</w> 57108
regi stry</w> 57104
D D</w> 57092
J o 57088
im pedance</w> 57088
fo ot 57085
l ign 57081
T echn 57081
remo ve</w> 57057
cochle ar</w> 57043
Pur pose</w> 57034
E ast</w> 56998
end ovascular</w> 56988
ch lo 56979
br ach 56972
prote as 56968
exhib iting</w> 56953
N ig 56943
pul sed</w> 56943
A u</w> 56940
reg urg 56876
ax illary</w> 56876
seg mentation</w> 56867
diff ering</w> 56855
P en 56832
Com pu 56831
chir al</w> 56818
LL ED</w> 56799
m ang 56795
[...]
