. 142442146
of 136351517
the 133562497
, 127378192
and 105334276
@-@ 89911017
in 78503665
) 58498776
( 58491825
to 53887965
a 44921370
with 36156984
for 27312936
was 26374951
The 24890980
were 23968663
: 21887910
is 21131188
that 19730149
by 19296018
% 15701108
on 15546863
/ 13966894
as 13799380
patients 13568605
from 13108620
or 11452807
are 11057926
an 10540281
be 10125153
at 9825297
this 8266722
1 8033727
In 7895154
study 7743700
A 7649622
2 7505175
not 7272154
cells 7233621
= 6343444
; 6328654
between 6175337
which 6111449
have 6080814
than 5548204
cell 5504538
after 5440321
+ 5432658
We 5373169
treatment 5247129
3 4970690
these 4785003
This 4700145
has 4673450
been 4670334
using 4607735
we 4561282
but 4557108
results 4298076
may 4285512
group 4279367
two 4270488
their 4144572
had 4076281
P 4060199
used 4056707
during 3971503
can 3952823
also 3941597
associated 3875040
both 3853373
high 3845546
disease 3783245
more 3745758
analysis 3726365
activity 3718222
protein 3685941
- 3612504
5 3531463
clinical 3428216
data 3416875
4 3324147
one 3317144
levels 3298895
increased 3296703
expression 3270659
significantly 3254355
10 3232519
effects 3215007
all 3214125
time 3157694
found 3144460
effect 3124705
compared 3118526
other 3109039
significant 3099264
studies 3065058
cancer 3062556
no 3033907
C 2980529
&apos; 2973700
risk 2965727
its 2955155
different 2941521
human 2926068
&lt; 2908860
p 2907755
showed 2901242
&quot; 2898924
years 2892935
it 2874418
control 2843592
6 2834063
based 2820312
age 2772323
use 2768459
induced 2766653
&apos;s 2726500
into 2717302
RESULTS 2663809
These 2613445
patient 2546174
well 2530175
cases 2490213
higher 2459376
only 2445093
most 2439412
gene 2429247
related 2414006
response 2408100
rate 2400219
&#91; 2400169
blood 2395567
groups 2384362
observed 2379604
&#93; 2368839
specific 2368026
low 2349155
three 2346132
present 2311785
model 2301934
type 2270980
METHODS 2260964
such 2253971
system 2244193
who 2241519
health 2191452
role 2181121
B 2173886
factors 2162304
when 2160919
non 2150811
acid 2137477
T 2123715
However 2117524
first 2110371
up 2099283
those 2079565
therapy 2061233
changes 2055122
function 2033380
increase 2025433
level 2016486
To 2010910
total 2010650
n 1990496
respectively 1969750
method 1961789
development 1952035
DNA 1941572
I 1927043
normal 1913488
new 1909597
care 1900990
performed 1891476
growth 1880848
among 1863732
could 1856064
potential 1851526
treated 1831198
children 1828590
-@@ 1828116
tumor 1812329
mean 1797986
less 1792559
factor 1788889
N 1776774
number 1776196
within 1768966
important 1760118
mg 1758772
case 1748593
reported 1739974
including 1732578
12 1729654
through 1722013
lower 1699746
binding 1698352
receptor 1694391
95 1683692
women 1671391
without 1663054
year 1660054
tissue 1655204
8 1652446
rats 1647161
months 1646447
positive 1646297
It 1641285
L 1637587
did 1632560
7 1628135
mice 1628095
days 1621854
our 1617463
20 1615026
identified 1601818
each 1595777
over 1591272
there 1571020
suggest 1563763
test 1561050
CONCLUSIONS 1544531
diagnosis 1539432
dose 1535675
findings 1530528
B@@ 1530516
proteins 1517910
presence 1486798
alpha 1480452
infection 1474941
primary 1471263
single 1452077
L@@ 1450732
early 1448704
reduced 1446290
surgery 1436603
differences 1432186
similar 1428822
beta 1427296
due 1426781
D 1425784
serum 1424236
while 1418110
evidence 1414355
30 1413495
S@@ 1409700
brain 1408512
population 1402195
obtained 1401260
drug 1400611
about 1386299
review 1385393
genes 1382981
studied 1379940
h 1379223
species 1377366
D@@ 1377260
day 1376032
decreased 1372721
under 1372225
some 1370937
CI 1368519
dependent 1366635
measured 1359437
R@@ 1356431
conditions 1355910
There 1351376
II 1346999
G@@ 1339384
15 1334720
plasma 1328508
concentration 1326979
following 1326753
F@@ 1325995
s 1324472
BACKGROUND 1322769
long 1322208
should 1321419
S 1320164
liver 1317465
concentrations 1314037
M@@ 1313494
T@@ 1311202
addition 1305799
developed 1301508
report 1289932
revealed 1289230
range 1288524
acute 1282565
survival 1276845
subjects 1276053
period 1272733
50 1269271
they 1265166
N@@ 1264404
investigated 1255577
demonstrated 1254800
show 1246354
± 1243063
small 1237488
C@@ 1236260
bone 1235747
vitro 1235105
chronic 1235102
four 1231183
common 1227864
included 1222647
research 1218385
H@@ 1217056
pressure 1214425
activation 1214109
E 1208520
samples 1206316
large 1205894
CONCLUSION 1205468
molecular 1201792
P@@ 1201182
major 1199311
term 1195367
complex 1193546
examined 1191606
M 1190770
effective 1187430
kg 1180374
surface 1176368
evaluated 1174775
methods 1164601
approach 1162299
against 1162163
24 1160916
rates 1156659
per 1156270
body 1154074
either 1153922
Our 1152253
determine 1150542
p@@ 1146854
functional 1142878
E@@ 1142762
anti 1142288
further 1140847
determined 1138920
structure 1136291
9 1135350
phase 1134130
virus 1132043
5@@ 1131550
quality 1130564
pain 1130110
H 1124258
IL 1123739
before 1122420
membrane 1117675
values 1115129
100 1112787
muscle 1110900
&gt; 1110083
non@@ 1109859
information 1109570
same 1108234
vs 1105932
rat 1102478
symptoms 1101319
greater 1097170
stress 1092885
process 1085739
production 1084702
free 1079652
whether 1079200
will 1077030
weight 1073506
various 1073344
min 1072568
provide 1071745
life 1068527
shown 1067901
formation 1065120
known 1057754
negative 1057507
responses 1053647
management 1051969
exposure 1050576
out 1043850
A@@ 1041168
follow 1040322
i 1039710
ratio 1032712
water 1032502
6@@ 1028539
0.05 1027053
detected 1024368
involved 1023823
mechanisms 1023744
syndrome 1023532
o 1023008
14 1022873
R 1020328
11 1019558
O@@ 1018235
current 1017557
weeks 1017193
multiple 1016509
re@@ 1015355
several 1015027
novel 1011399
change 1011395
mortality 1011228
properties 1008753
G 1003927
18 1001137
outcomes 998239
possible 991248
lung 990959
performance 989349
difference 989332
any 988507
old 986389
resistance 983677
like 981496
assessed 979734
medical 978612
active 974655
region 974246
surgical 973657
heart 973473
4@@ 972491
association 971699
reduction 970889
controls 968847
25 968393
loss 964668
size 964346
renal 964087
models 963564
enzyme 963327
7@@ 960578
vivo 959586
mechanism 959402
flow 957224
whereas 955926
ability 953328
un@@ 951246
X 950168
injury 949770
V@@ 946452
imaging 946180
isolated 945246
O 944934
I@@ 942955
g 936283
site 933457
severe 929523
c 928850
K@@ 928034
mass 920498
analyzed 917070
mediated 914363
many 913859
HIV 909166
evaluate 903840
13 903610
40 901253
technique 901106
inhibition 898339
stage 897072
frequency 895046
presented 895032
support 894446
K 894444
value 892815
being 892128
contrast 891839
area 891212
characteristics 889999
16 887496
An 887236
diseases 886563
9@@ 885445
8@@ 884067
genetic 882900
relationship 881252
via 880857
All 878420
work 871956
state 871263
self 868477
left 866972
order 864745
parameters 863465
decrease 862549
form 861508
lesions 859077
outcome 858999
detection 857113
Although 856916
reaction 851520
in@@ 851484
breast 850211
hospital 849541
60 848430
very 844970
0.001 843837
us 842085
five 840604
glucose 840223
indicate 839005
administration 838933
incidence 838826
male 838666
healthy 838539
systems 837943
post 837445
status 835722
caused 834561
containing 834088
therapeutic 833840
As 833659
sensitivity 831264
however 830154
required 829312
family 825146
F 824254
t 823530
sequence 823144
release 820974
derived 819911
considered 819652
described 819412
cause 819409
tested 817521
cardiac 817021
evaluation 815639
followed 813362
tumors 811453
types 810258
previously 806525
highly 805471
sites 804650
x 803078
RNA 803069
second 800888
animals 799220
synthesis 798902
inflammatory 798737
carcinoma 796691
result 794477
For 792097
target 792079
receptors 790442
identify 789495
conducted 789275
Here 788840
correlation 788543
AND 787045
investigate 787003
mRNA 784788
OBJECTIVE 784604
available 783105
complications 782148
immune 782075
Patients 781808
received 779177
experimental 779001
amino 778534
distribution 777771
insulin 777176
because 777137
After 773161
ml 772107
assess 771326
influence 771136
assay 768523
produced 767975
s@@ 767683
oral 767287
17 766024
o@@ 765918
regulation 765869
0 765147
impact 764973
features 764804
efficacy 763478
expressed 762973
drugs 762385
death 760046
improved 759861
better 758824
aim 758221
general 758175
assessment 758080
standard 756290
combination 753442
how 753026
if 751261
diabetes 750137
prevalence 749475
adult 749161
individuals 747445
stimulation 746068
volume 745429
Results 745152
able 743865
mm 742791
failure 741898
pathway 740982
field 738571
skin 737300
artery 728881
di@@ 726420
physical 725013
V 721756
content 721724
kinase 721403
literature 717671
activities 716418
sample 716395
CT 716332
cellular 715715
increasing 715662
light 715190
tissues 713337
overall 712250
21 710942
indicated 710555
W@@ 709410
pulmonary 708694
energy 708193
disorders 707550
antibodies 706238
cross 705833
relative 704147
d 703541
men 703072
line 702763
interaction 702573
intervention 701291
antibody 701248
analyses 701183
six 700219
index 699125
end 698031
independent 697953
vascular 697343
then 696328
female 693709
correlated 693620
temperature 692880
often 692624
mouse 691597
density 690882
individual 690882
19 690785
2@@ 690465
need 688791
m 687079
least 684291
made 683852
procedure 683429
likely 683065
improve 680179
underwent 679971
versus 677513
characterized 676438
No 675902
average 673929
where 673095
participants 672904
part 672413
pattern 672327
neurons 671877
diagnostic 671523
m@@ 669492
r 668796
3@@ 668486
strains 668021
patterns 666476
demonstrate 665579
initial 664438
d@@ 664191
score 664087
enhanced 663967
culture 662831
techniques 658935
l 657744
occurred 653413
given 652943
controlled 652443
tests 652325
might 651979
applied 651153
regions 650993
h@@ 649736
b@@ 649276
central 649161
combined 648939
coronary 648531
At 647338
right 646814
adults 646487
c@@ 645995
action 642827
sensitive 642294
e 642048
areas 641712
events 641218
affected 641125
times 639339
paper 637371
inhibitor 636576
length 635704
U@@ 634465
local 634324
behavior 633318
signaling 632857
inhibited 632821
knowledge 632320
processes 632318
Two 629541
pH 629210
seen 628723
social 628407
collected 627741
limited 627561
discussed 626081
degrees 625832
proliferation 625680
Furthermore 623282
them 623159
al 623072
sub@@ 619770
short 619376
recent 618187
compounds 618108
direct 617787
would 617630
comparison 617266
chain 617225
antigen 616559
resulted 615457
es 615448
useful 615383
good 615095
interactions 614449
micro@@ 613574
biological 613425
regression 613389
practice 613206
side 612747
Using 611465
training 608547
confirmed 608003
suggested 606742
history 605321
duration 604723
trial 603948
increases 603072
even 601999
trials 601060
0.01 601002
agents 600185
t@@ 599604
nerve 599459
complete 599019
e@@ 597435
measures 596044
median 595004
across 594058
i@@ 593324
application 593309
understanding 592785
baseline 592657
an@@ 592421
22 592199
suggests 591349
screening 591050
OR 590606
calcium 590498
experiments 590380
er 588633
III 588455
aged 588354
ate 588256
b 587627
structures 587550
established 586488
n@@ 585943
90 585880
approximately 582844
injection 581988
proposed 580626
metabolism 580518
scores 580051
damage 579120
infected 578633
previous 577120
suggesting 575844
Thus 575830
defined 575434
k@@ 574230
strain 573688
peptide 573424
a@@ 572824
selected 572665
PCR 572099
secondary 571854
One 570983
exercise 569869
mutations 569347
main 568549
peripheral 568503
ed 567908
disorder 565250
measurements 564682
examination 564500
apoptosis 564249
ing 563925
differentiation 562227
key 560961
activated 560191
pregnancy 559540
r@@ 558683
do 558660
80 558404
postoperative 557367
lines 556529
visual 555918
ation 555371
metabolic 555292
acids 554755
domain 554386
functions 554351
essential 553723
especially 553235
alone 553115
rare 551324
components 551167
provides 550701
critical 549858
infections 548479
does 547598
When 546384
al@@ 544340
design 541733
testing 541596
lead 541526
sex 540786
MS 540520
basis 540405
oxygen 539739
experience 538184
scale 537542
lipid 537540
transcription 537532
fold 537024
still 536747
ventricular 536062
according 535574
structural 534853
criteria 534735
diagnosed 534428
progression 533991
hours 532781
resistant 532020
affect 531854
signal 531756
series 531657
f@@ 530821
strategies 529930
y 529035
onset 528999
improvement 528932
week 528229
point 527426
rapid 527349
thus 526499
28 526339
additional 526128
play 524981
g@@ 523969
cycle 523622
pathways 522925
daily 520147
70 520007
remains 519561
kidney 518029
cohort 517884
inhibitors 517525
35 516914
describe 516301
future 515875
populations 515511
on@@ 515389
reduce 514607
cognitive 513000
absence 512610
chemotherapy 511730
delivery 511724
fluid 511187
community 510352
food 509951
although 508616
electron 508486
products 508413
23 508078
molecules 508007
respiratory 507940
doses 507329
course 505140
cost 504910
gamma 504887
l@@ 504874
Of 504210
provided 504176
induction 502971
chemical 502824
With 502347
poor 502226
older 501134
importance 500460
medium 500000
article 497461
1@@ 497402
? 496824
interval 496524
solution 496502
procedures 496382
degree 496206
uptake 496025
pre 494956
depression 494826
administered 494816
hypertension 494792
young 494395
linked 493790
nuclear 493018
diet 493017
.@@ 492550
randomized 492506
On 492379
hormone 491678
bacterial 491063
resulting 488411
prior 488292
exposed 487356
Both 486519
capacity 485748
elevated 485377
condition 485107
48 484705
sequences 484518
problems 484378
markers 484220
recovery 483951
natural 482763
Health 480353
β 479631
transport 477216
people 476871
stem 475456
J@@ 475195
achieved 474562
host 473567
Moreover 472197
pre@@ 471849
component 471660
particularly 469352
mutation 469086
month 468543
so 467987
safety 467329
open 467167
purpose 466880
ated 466704
de@@ 465558
endothelial 465280
secretion 464881
anti@@ 464810
gastric 463313
cardiovascular 463138
systemic 463088
variables 462271
inflammation 461927
en@@ 461916
stable 461831
myocardial 461681
stroke 460958
26 460828
45 460608
arterial 460592
set 460299
adverse 460223
radiation 458949
consistent 458627
viral 458157
cerebral 457304
examine 456939
position 456914
U 456375
needed 455346
specificity 455137
epithelial 455124
statistically 454902
transfer 454255
transplantation 454239
Therefore 453436
terminal 453271
coli 452035
whole 451646
conventional 451557
recorded 451061
Y@@ 450207
program 450014
motor 448033
co 447946
causes 447935
36 447760
monitoring 446582
include 446228
few 445691
variation 444743
modified 444528
cholesterol 443830
cm 443829
class 443766
highest 443485
carried 442935
27 442813
severity 442343
calculated 440997
particular 440407
upon 440002
therefore 439602
anterior 439316
selective 439282
develop 439123
regarding 438848
plant 438363
identification 438157
quantitative 438123
distinct 437525
double 437177
magnetic 435522
ic 435479
estimated 435397
inter@@ 435196
forms 433613
repair 433069
simple 432852
mental 432631
measure 432128
stimulated 432018
animal 431970
3.@@ 431616
infants 431290
32 431207
ol@@ 430398
eight 430270
late 429706
sodium 429558
underlying 429233
terms 427367
y@@ 427337
seven 426036
MRI 425969
alcohol 425323
aimed 425076
environmental 423943
hepatic 423937
wide 423113
approaches 423094
treatments 422998
fat 422734
environment 422724
During 422519
Ca2 422255
ers 422043
dysfunction 422010
strong 420937
31 420077
sleep 419774
spinal 419645
necessary 419614
75 418871
bacteria 418682
Among 418442
mutant 418226
maximum 418131
having 417997
laboratory 417486
reviewed 417212
survey 417194
developing 416350
relatively 415910
head 415809
occur 415647
much 415523
i.e. 415514
best 415140
moderate 414684
linear 414640
toxicity 414356
intracellular 413567
malignant 413438
exhibited 412948
amount 412514
measurement 412494
v@@ 412329
indicating 412225
um 411771
accuracy 411722
prevention 411694
genome 411433
grade 411110
ating 411002
Clinical 410934
processing 410765
designed 410340
interventions 409828
strategy 409750
hyper@@ 409278
Group 409044
students 408938
compare 408738
relevant 408062
males 407847
subsequent 407744
advanced 407558
microscopy 407424
frequently 407271
regulated 407252
alternative 407021
appropriate 406725
education 406265
diabetic 406108
peak 405595
enzymes 405030
lack 404969
α 404617
half 404534
mL 404520
generation 404227
involvement 403872
appears 403815
females 403273
intensity 402899
intake 402634
contribute 402420
effectiveness 402302
mainly 401721
recently 401268
along 401127
stability 400337
prospective 400297
matrix 400278
help 400026
means 399881
little 399708
ar@@ 399584
learning 398762
network 398106
extent 398093
inhibitory 397661
am@@ 397626
directly 397618
source 397431
or@@ 397025
st@@ 396400
37 396314
leading 396008
op@@ 395738
X@@ 395595
confidence 394588
physiological 394457
tool 393915
33 393167
authors 392503
co@@ 391869
accumulation 391507
led 391503
ations 391300
wild 391283
together 391263
urinary 391217
-1 390927
material 390924
yl 390084
ac@@ 389963
ates 389927
objective 389744
at@@ 389392
placebo 389358
Z@@ 389105
PURPOSE 389024
images 388954
hand 388480
Data 388333
memory 387099
third 387059
selection 386997
efficiency 386970
29 385674
65 385203
problem 384655
2.@@ 384293
composition 383904
er@@ 383562
0.5 383357
oc@@ 382889
affinity 382754
wall 382706
By 382641
PD 382135
cortex 381702
hypothesis 381506
fraction 381250
u@@ 381236
since 381004
red 380428
In@@ 380167
IV 380101
mitochondrial 379660
invasive 379651
birth 379476
shows 379274
dimensional 379087
resection 378753
internal 378558
Ca 377695
cultures 377505
resonance 377259
lesion 377052
ap@@ 376411
Study 376391
reports 376140
agent 376022
SD 375867
CD@@ 375751
isolates 375313
Three 375110
k 374535
liquid 374394
recurrence 374239
poly@@ 374055
predicted 373649
fatty 373604
ion 373303
fetal 373132
applications 372926
corresponding 372781
remained 372421
generated 371954
42 371744
investigation 371624
later 371117
resolution 370356
J 369560
aortic 368920
ine 368881
reactions 368596
substrate 367596
regulatory 366702
10@@ 365903
pro@@ 365877
step 365537
stages 365213
miR 363865
clinically 362920
prognosis 362566
unique 362531
carbon 362289
prostate 361528
attention 360882
must 360668
variety 360512
oxide 360290
complexes 360263
mechanical 360172
cervical 359405
way 359273
child 358895
public 358895
unknown 358870
smoking 358860
larger 358692
plants 358596
° 358006
AD 357978
relation 357851
phosphorylation 357726
full 357392
responsible 357366
induce 356883
partial 356743
oxidative 356408
profile 356370
intestinal 356157
tomography 356080
strength 355852
retrospective 355782
Based 355632
specimens 355550
biopsy 354748
lateral 354418
34 354002
ro@@ 352271
chromatography 352162
services 351920
percent 351716
dynamics 351345
extracellular 350853
iron 350363
above 349804
product 349767
strongly 349742
cultured 349565
unit 349444
neural 348738
operation 348605
transmission 348019
commonly 347239
assays 347162
percentage 346636
proportion 346458
reference 346279
ng 346238
majority 345969
im@@ 345801
undergoing 345736
receiving 345649
tract 345343
Treatment 345332
os@@ 345289
last 344078
consumption 344003
layer 343615
thyroid 343603
Y 343594
38 343416
countries 343213
as@@ 343058
maternal 342930
et 342884
significance 342851
longer 342768
upper 341582
produce 341460
DESIGN 341279
OBJECTIVES 341007
rather 340954
abdominal 340132
laser 339985
ic@@ 339762
ting 339572
ia 339492
TNF 339365
Further 339166
removal 338110
lymphocytes 337542
real 337372
Analysis 337081
ot@@ 336199
efficient 335963
optimal 335811
55 335742
om@@ 335672
materials 335354
They 335220
residues 334937
degradation 334909
formed 334632
posterior 334560
basal 334527
metal 334517
deficiency 334330
Methods 334146
prepared 333805
phosphate 333573
power 333085
ATP 332982
fluorescence 332981
reactive 332836
is@@ 332679
taken 332670
published 332450
neuronal 331763
chromosome 331326
bound 331057
temporal 331048
located 330858
prevent 330823
occurs 330820
focus 330759
continuous 330360
elderly 330338
migration 330138
marker 330042
infusion 329930
promoter 329855
morbidity 329845
points 329750
task 329711
image 329292
ch@@ 328554
staining 328326
abnormalities 328325
purified 327797
humans 327641
man 327307
72 327015
pancreatic 326760
channel 325744
involving 325484
microM 325214
dis@@ 324753
mild 324023
yet 323772
Q 323564
vitamin 323027
potentially 322861
phenotype 322778
base 322505
contact 322335
platelet 322238
prognostic 322175
ol 322029
RT 322024
membranes 321795
it@@ 321637
graft 321521
urine 321355
hepatitis 321149
While 321117
200 320950
pathogenesis 320762
el@@ 320424
mixed 320364
spatial 320259
successful 320041
obesity 319768
manner 319699
aspects 319297
43 319248
abnormal 319230
completed 319167
w@@ 318829
molecule 318720
nature 318694
differential 318454
systematic 318328
post@@ 317190
HR 316960
ts 316744
roles 316676
peptides 316538
gel 316189
reducing 315611
From 315266
collagen 315100
joint 314926
divided 314690
alterations 314459
become 314291
altered 313569
implications 313495
marrow 313427
W 313399
matched 313336
now 313229
frequent 313205
questionnaire 313156
dietary 312600
nucleus 312529
benefit 311839
≥ 311525
trauma 310591
white 310192
metastasis 310125
eye 309870
challenge 309562
expected 309521
Most 309464
protocol 309378
ul@@ 309377
determination 308977
ray 308922
predictive 308803
Na 308674
cord 308620
difficult 308311
origin 308177
conclusion 308163
widely 308100
characterization 307921
relationships 307713
nine 307561
conclude 307543
living 307007
lymph 306917
dynamic 306493
v 306347
interest 306281
ex@@ 306143
mM 306019
certain 305815
detect 305725
US 305441
yl@@ 305292
medicine 305132
transition 304895
&amp; 304685
NO 304313
z@@ 304271
gender 304231
access 303796
variable 303556
39 303519
neuro@@ 303502
cortical 303361
sectional 303326
global 303224
sexual 302963
space 302086
AT 301826
id@@ 301806
tumour 301719
ultrasound 300961
44 300739
classification 300298
plus 300090
polymerase 299839
elements 299736
appear 299629
Q@@ 299625
fed 299606
macrophages 299278
organic 299232
4.@@ 298987
toward 298406
air 298313
context 298208
recognition 298193
evolution 298059
impaired 297593
ti@@ 297558
external 297343
core 297111
successfully 297062
impairment 296977
fusion 296863
leads 296509
ovarian 296464
consecutive 296144
dogs 296140
nm 295870
diameter 295565
usually 295479
vaccine 295314
solid 295089
recurrent 294584
around 294472
here 294137
predict 294081
operative 293974
appeared 293744
methyl 293590
anxiety 293420
requires 292869
recombinant 292810
occurrence 292724
41 292329
constant 292194
ag@@ 292187
46 292133
ins 291911
near 291822
e.g. 291702
making 291700
statistical 291449
potent 291343
members 291299
Despite 291219
New 291179
domains 290601
clear 290561
generally 289637
force 289630
0@@ 289141
rapidly 288981
19@@ 288604
center 288582
ur@@ 288334
infarction 288201
comparable 288112
en 287549
throughout 287271
media 287231
Z 287014
units 286935
plays 286862
asthma 286820
setting 286816
High 286739
promising 286709
52 286583
Finally 286531
0.1 286425
IFN 286308
particles 286285
organ 285858
x@@ 285784
biochemical 285755
compound 285351
ligand 285049
si@@ 284878
behavioral 284692
Effects 284512
spectrum 284291
signs 284285
device 284131
adjusted 283897
protective 283773
remain 283606
sequencing 283539
il@@ 283519
ischemia 283442
67 283376
venous 283310
needs 283131
metastatic 283121
profiles 282949
antigens 282723
cancers 282627
per@@ 282128
currently 282120
injuries 281920
absorption 281842
1.5 281707
associations 281617
odds 281608
explore 281429
targets 281282
pediatric 281261
decision 280270
47 280234
fully 280225
fracture 280145
respect 280099
ab@@ 279945
heat 279926
eyes 279505
guidelines 279440
states 278905
differ 278647
leukemia 278393
--@@ 278159
characteristic 278129
bladder 278091
bi@@ 277986
marked 277393
ischemic 277367
variability 277135
distal 277133
Effect 277120
trans@@ 276989
defects 276798
ant 276534
neck 276483
experienced 276194
computed 276071
protection 275909
root 275784
represent 275552
targeted 275521
down 275481
programs 274876
costs 274740
minutes 274687
64 274682
completely 274600
signals 274554
safe 274408
noted 274370
location 274225
another 274129
presentation 273311
tolerance 273307
necrosis 272981
allows 272957
subunit 272848
past 272776
thickness 272681
specifically 272444
intravenous 272246
superior 272127
almost 271929
adhesion 271771
dental 271550
MR 271022
basic 270974
nervous 270593
morphology 270564
f 270488
Since 270327
spontaneous 270207
ph@@ 270073
finding 269761
susceptibility 269714
inhibit 269544
oxidation 269096
RA 268994
probably 268761
es@@ 268756
ase 268666
observations 268364
Re@@ 267868
bleeding 267709
intact 267590
ratios 267510
Twenty 267473
CSF 267419
accurate 267385
families 267277
contained 267254
recommended 267189
apparent 267056
numbers 266933
CD4 266639
preparation 266492
fibrosis 266246
therapies 266101
retinal 266046
account 265789
56 265299
85 265262
situ 265187
12@@ 265082
gas 264956
movement 264355
Chinese 264003
3H 263425
towards 263177
American 263147
motion 262963
adolescents 262938
theory 262917
middle 262835
endogenous 262610
technology 262608
ad@@ 262602
indicates 262598
mode 262315
54 261930
optical 261247
extraction 260889
donor 260719
pathological 260598
ally 260483
discuss 260384
employed 260187
sources 260091
despite 260061
success 259870
traditional 259857
2.5 259660
search 259621
ar 259458
PA 259278
yield 259195
final 259165
reconstruction 259121
localization 259059
multi@@ 259029
j@@ 258079
understand 258047
atrial 258027
labeled 257814
prolonged 257174
block 257110
feeding 256888
variants 256847
BP 256533
until 256440
et@@ 256086
Cancer 255773
preoperative 255559
nursing 255455
emergency 255390
ec@@ 255292
monoclonal 255199
Hospital 255186
delayed 255141
make 254845
physicians 254821
channels 254734
CA@@ 254379
51 254314
extract 254213
require 254184
estimate 253999
Escherichia 253957
kDa 253926
randomly 253563
ans 253329
analysed 252754
synthesized 252676
soil 252597
58 252319
benefits 252110
de 251638
developmental 251600
proximal 251474
targeting 251349
medication 251167
fractures 250796
stimuli 250731
enhance 250493
p53 250207
United 250202
knee 250181
home 250178
3D 249908
experiment 249768
53 249368
u 249311
node 249171
Overall 249102
ethanol 249093
ER 248887
invasion 248776
meta 248755
replication 248701
IgG 248547
63 248407
complication 248332
replacement 248314
genomic 248278
57 248218
soluble 247761
off 247642
bilateral 247585
aging 247298
spectroscopy 247177
find 247087
whose 246692
nucleotide 246644
intermediate 246614
vein 246493
antibiotic 246241
school 246233
choice 245438
synthetic 245298
classified 245115
issues 244961
MATERIALS 244907
allow 244893
antagonist 244888
mutants 244737
seems 244723
skeletal 244691
deficient 243980
oil 243963
event 243758
bio@@ 243475
milk 243399
49 243216
59 243008
curve 242960
National 242809
every 242233
providing 241880
Al@@ 241756
AP 241702
perfusion 241488
neonatal 241377
initiation 241361
viruses 240963
possibility 240899
close 240889
benign 240840
Because 240773
nor 240356
progressive 240115
existing 240114
growing 239873
transient 239657
distance 239464
ob@@ 239311
HLA 239002
BMI 238589
ages 238541
added 238347
lymphoma 238333
exchange 238270
micrograms 238217
concluded 238170
maintenance 238092
routine 238022
metabolites 237924
recognized 237918
Recent 237777
re 237598
presenting 237446
Pro@@ 237421
over@@ 237295
extensive 237293
fish 237158
shock 237144
multi 236949
unclear 236607
PC 236590
hydrogen 236564
markedly 236220
irradiation 236146
angle 236091
repeated 235964
illness 235933
injected 235772
maximal 235744
az@@ 235728
done 235645
diversity 235563
62 235518
fibers 234933
failed 234884
OS 234639
observation 234526
enrolled 234349
great 233993
61 233853
bovine 233583
radical 233409
regional 232919
varied 232805
ring 232639
osis 232450
18@@ 232113
January 232080
agreement 231932
tyrosine 231809
primarily 231704
encoding 231608
hip 231598
pathology 231491
hospitals 231414
66 231347
gastrointestinal 231346
localized 231291
Ps 231141
discharge 231061
valve 230938
An@@ 230862
amine 230808
view 230664
fast 230620
prediction 230526
smooth 230363
SS 230328
excellent 230142
colon 230070
smaller 229865
random 229829
reliable 229827
identical 229789
wound 229768
Human 229631
occurring 229539
sensory 229481
coupled 229400
metastases 229263
68 229240
periods 229193
showing 229182
gain 229166
minimal 229163
communication 229001
ous 228978
colorectal 228975
ST 228942
partially 228908
arthritis 228522
typical 228255
induces 228092
challenges 227927
cytokines 227791
childhood 227761
propose 227659
ae 227564
13@@ 227547
maintained 227499
what 227498
psychological 227491
amounts 227326
tools 227252
1.0 227244
healing 227238
suitable 227072
96 227056
devices 226972
end@@ 226946
below 226918
working 226823
others 226694
acquired 226657
AC@@ 226566
threshold 226551
date 226502
LPS 226485
ent 226441
intervals 226383
NF 226367
tic 226349
Only 226302
transcriptional 226300
place 226224
rich 225958
murine 225857
subject 225843
service 225794
0.0001 225652
suppression 225305
derivatives 225229
th@@ 225181
promote 225076
behaviors 225053
shift 225043
rise 224973
implementation 224937
thermal 224792
probe 224788
pregnant 224564
Western 224531
tuberculosis 224206
id 224147
OH 223894
deep 223869
250 223782
except 223719
healthcare 223697
sufficient 223696
nanoparticles 223654
-0.@@ 223637
PA@@ 223627
ST@@ 223585
con@@ 223541
treat 223305
Co@@ 223256
framework 223170
histological 222764
ranged 222752
extracted 222341
methyl@@ 222332
States 222073
fiber 221830
workers 221782
native 221777
interleukin 221719
EC 221690
wave 221558
ms 221260
muscles 220965
died 220894
velocity 220664
database 220543
CA 220456
dominant 220236
Several 220219
records 219949
actin 219605
5.@@ 219581
* 219554
intensive 219387
71 219346
closely 219105
dopamine 218873
far 218873
balance 218557
transplant 218211
focused 218199
China 218133
directed 218045
· 217882
shape 217582
producing 217522
reverse 217366
psychiatric 217298
arteries 217131
variations 217113
ox@@ 217109
mon@@ 217026
persons 216932
soft 216835
latter 216805
achieve 216569
matter 216540
69 216452
parents 216404
CD 216337
vessels 216169
17@@ 215897
expressing 215863
serious 215848
14@@ 215787
airway 215639
slow 215585
hundred 215416
analyze 215377
antioxidant 215352
segment 215290
Scale 215270
Four 215180
extracts 215129
decreases 215114
independently 214941
mammalian 214857
melanoma 214742
radiotherapy 214608
fixed 214590
nurses 214517
comparing 214445
78 214156
congenital 213812
admission 213714
15@@ 213713
rabbit 213646
em@@ 213562
load 213490
defect 213403
influenced 213216
practices 213179
Cell 213169
back 213166
yeast 212897
2014 212767
HT 212632
diffusion 212554
perceived 212418
remaining 212156
axis 212145
16@@ 212050
face 211914
algorithm 211853
networks 211819
neurological 211547
largely 211538
affecting 211526
morphological 211456
dependence 211012
coding 210998
modification 210920
sp@@ 210901
toxic 210833
gland 210675
500 210637
tr@@ 210583
ted 210478
HCV 210419
2015 210354
extended 210272
solutions 209989
comprehensive 209857
improving 209834
kinetics 209832
sampling 209700
understood 209597
crucial 209449
contains 209368
exhibit 209335
albumin 209313
genotype 209311
AS 208613
tri@@ 208523
ii 208311
behaviour 208238
diverse 208178
whom 208112
earlier 208040
world 207936
equal 207698
represents 207682
stimulus 207605
risks 207524
SP 207457
enhancement 207290
cl@@ 207196
Some 207080
antibiotics 206883
T1 206882
substantial 206880
appearance 206728
concept 206647
slightly 206488
femoral 206481
cDNA 206211
newly 206198
ions 206165
Compared 206152
Ch@@ 206120
University 206088
le@@ 206072
Mean 206025
storage 205750
contain 205712
73 205667
76 205646
ogenic 205553
spectrometry 205499
predictors 205497
establish 205481
Conclusion 205468
agonist 205252
positively 205057
measuring 205025
88 204987
GC 204755
conserved 204728
contribution 204488
Medical 204437
od@@ 204371
cytokine 204019
sustained 203750
reveal 203693
saline 203464
beneficial 203407
parallel 203224
implant 202731
decline 202625
accompanied 202493
84 202462
address 202200
pl@@ 202156
fibroblasts 202084
transformation 202081
logistic 201726
national 201706
affects 201673
act 201661
adequate 201558
TGF 201434
83 201378
74 201208
organs 201044
scanning 200917
actions 200816
describes 200812
77 200797
suppressed 200354
cannot 200293
clearance 200293
Cs 200273
conversion 200218
band 200193
consequences 200135
variant 200108
multivariate 199924
0.2 199757
HCC 199574
limb 199550
limit 199498
82 199255
PS 199181
longitudinal 199015
fragment 198925
tions 198910
chest 198848
2016 198783
integrated 198737
consisted 198732
2013 198711
delta 198624
modulation 198610
INTRODUCTION 198593
allowed 198589
incubation 198501
20@@ 198259
effectively 198231
poorly 198151
ten 198134
organisms 197765
UV 197707
ology 197663
Studies 197417
stenosis 197408
arm 197208
count 197167
magnitude 197148
element 197015
electronic 196986
persistent 196978
estimates 196749
obese 196682
burden 196679
fixation 196612
amplitude 196594
Background 196536
economic 196316
nitrogen 196210
implantation 196039
biomarkers 195989
obtain 195929
clearly 195890
output 195740
als 195663
explored 195575
separation 195486
error 195443
inhibits 195371
hour 195194
substrates 195105
ranging 195082
supported 194906
depth 194488
AR 194438
ones 194438
Additionally 194404
questions 194392
oid 194227
presents 194227
regulate 194138
86 194039
ene 194020
polymorphism 193906
92 193887
example 193804
ir@@ 193759
infectious 193739
explain 193697
nasal 193477
sections 193338
clinic 193331
epithelium 193283
electrical 193248
goal 193232
PE 193187
evoked 193146
validated 193004
carotid 192947
oma 192942
substance 192937
CO 192840
assigned 192199
PET 192081
capable 191845
functioning 191625
documented 191513
reactivity 191487
determining 191448
reproductive 191357
symptom 191308
microbial 191159
bowel 191104
79 190867
poly 190767
adherence 190762
pulse 190511
residual 190505
cyclic 190436
mothers 190406
facilitate 190210
ization 189884
satisfaction 189859
81 189839
sperm 189748
fractions 189726
introduced 189604
computer 189546
minor 189470
occlusion 189376
adenosine 189100
assisted 189090
Serum 188911
salt 188901
surfaces 188831
placed 188766
bile 188747
AP@@ 188673
noise 188568
Comparison 188545
120 188427
deaths 188401
systolic 188364
correlations 188325
hr 188121
resources 188105
anesthesia 187970
pituitary 187915
confirm 187837
his 187637
circulating 187609
IR 187576
hypoxia 187503
par@@ 187487
rehabilitation 187461
0.0@@ 187459
crystal 187449
emission 187287
AT@@ 187188
89 187049
us@@ 186980
LDL 186926
99 186919
displayed 186810
thought 186799
assembly 186746
called 186706
hearing 186678
300 186636
vector 186574
mellitus 186561
ide 186549
str@@ 186548
fragments 186534
lymphocyte 186529
deletion 186518
younger 186501
87 186490
cent 186450
reliability 186399
Evaluation 186108
ELISA 185951
admitted 185889
toxin 185799
users 185778
sulfate 185759
allele 185572
mol 185403
li@@ 185323
serve 185264
og@@ 185158
validity 185118
estrogen 184873
AR@@ 184782
planning 184604
excretion 184505
emotional 184444
HA 184351
dual 184320
settings 184316
forming 184294
endoscopic 184039
ator 183921
investigations 183775
European 183725
pigs 183704
ED 183558
catheter 183477
SC@@ 183375
coefficient 183371
utilization 183356
height 183327
methylation 183208
schizophrenia 183184
hybridization 183137
98 183129
possibly 183089
cluster 183028
recommendations 182970
cytotoxic 182968
dementia 182898
trend 182888
0.3 182834
93 182819
2012 182663
ne@@ 182625
acetate 182540
removed 182452
0.02 182436
restricted 182314
mature 182308
organization 181976
Alzheimer 181737
zinc 181416
ed@@ 181266
super@@ 181242
stay 181094
cAMP 180933
isolation 180843
tube 180723
treating 180614
synaptic 180471
aqueous 180390
characterize 180361
retention 180310
94 180306
2000 180288
qualitative 180252
AF 180060
detailed 180042
vaccination 179913
ME@@ 179904
dehydrogenase 179880
aims 179702
fluorescent 179553
inclusion 179474
controlling 179468
Con@@ 179274
receive 179180
CS 178994
subjected 178994
pharmacological 178909
frequencies 178882
gradient 178770
blocked 178705
intra 178685
particle 178678
nodes 178635
IGF 178588
phosphatase 178556
hybrid 178417
demonstrates 178398
z 178335
ata 178288
perform 178251
synthase 178224
delay 178141
broad 178063
× 178037
cytochrome 178029
PT@@ 177956
me@@ 177950
simultaneously 177843
suspected 177716
considerable 177687
P1 177625
pairs 177606
91 177587
immediately 177567
separate 177520
facial 177447
varying 177347
potentials 177281
Di@@ 177269
feature 177264
6.@@ 177262
regulating 177204
SC 177161
ly 177144
Disease 177124
fact 177122
ter@@ 177054
catalytic 177021
language 176962
Thirty 176919
AA 176710
Research 176621
ite 176516
CH@@ 176490
woman 176482
SE 176412
medial 176296
barrier 176266
electro@@ 176266
scan 176265
1.2 176245
reached 176222
speed 176209
availability 176208
obstruction 176135
symptomatic 176033
NMR 176026
immunity 175905
blot 175889
experiences 175883
blind 175875
OF 175785
Hg 175764
bond 175732
AD@@ 175722
ically 175671
assessing 175636
locus 175583
A1 175573
background 175520
differentiated 175457
ative 175368
rural 175281
infant 175263
interferon 175082
150 175016
original 174937
aggregation 174885
special 174678
comparative 174638
driven 174621
reduces 174587
DA 174581
Expression 174577
th 174553
embryos 174470
perception 174399
bias 174366
zone 174327
numerous 174174
embryonic 174070
ig@@ 174041
antimicrobial 174017
bypass 173981
nuclei 173981
taking 173639
spectra 173615
400 173488
sera 173392
esophageal 173259
O2 173211
97 173121
More 173083
sh@@ 172994
physician 172974
cycles 172962
TB 172929
heavy 172911
segments 172857
probability 172810
equivalent 172672
proved 172595
tumours 172536
changed 172517
Many 172404
includes 172392
retrospectively 172318
nitric 172300
lipoprotein 172269
mucosa 172169
involves 172126
Ex@@ 172125
phenomenon 172057
RE@@ 171939
own 171890
Fe 171834
CP 171794
heterogeneity 171746
preparations 171706
articles 171578
demographic 171453
released 171451
skills 171445
dorsal 171390
glutamate 171356
explained 171343
modeling 171201
prevented 170977
viability 170929
7.@@ 170879
GH 170873
LC 170803
subsequently 170650
causing 170600
coupling 170484
ological 170416
electrophoresis 170328
ent@@ 170127
progress 170123
Five 170104
lowest 170032
rest 170032
AIM 170019
CO@@ 170018
angiography 169996
mo@@ 169949
reporting 169934
restriction 169869
Cu 169836
ventilation 169800
pig 169534
attenuated 169519
adjacent 169513
theoretical 169495
simulation 169383
cytoplasmic 169309
fields 169306
PI 169128
Participants 169094
disability 168959
ET 168841
implicated 168639
African 168596
immediate 168417
RR 168315
influenza 168071
amide 168040
ized 167949
AC 167943
urban 167922
St@@ 167911
policy 167814
Early 167813
identifying 167795
polymer 167793
December 167764
kinetic 167672
.001 167579
regard 167508
distributed 167341
AL@@ 167262
steroid 167202
efforts 167198
adenocarcinoma 167117
sp 167106
sub 166997
ases 166876
HPV 166817
untreated 166752
detectable 166654
recruited 166645
microg 166577
volunteers 166558
dialysis 166490
squamous 166416
minimum 166406
Type 166399
initially 166301
hemorrhage 166273
limitations 166235
q@@ 166183
traits 166066
uses 166039
reperfusion 165962
depressive 165955
staff 165922
fever 165907
lo@@ 165779
referred 165574
Conclusions 165569
vesicles 165554
direction 165361
w 165280
feedback 165052
constructed 164992
po@@ 164925
cartilage 164804
adaptation 164766
CR@@ 164734
Micro@@ 164725
steps 164690
laparoscopic 164656
TR@@ 164632
ip@@ 164299
alter 164262
composed 164199
acting 164141
entire 164138
um@@ 164129
rabbits 164092
my@@ 164038
autoimmune 164010
sinus 163940
once 163888
bind 163780
monitored 163717
composite 163685
mitochondria 163659
ep@@ 163470
chloride 163395
sets 163304
ography 163148
centers 163121
advantages 163112
SA 163082
concerning 163032
fl@@ 163013
elevation 162973
South 162914
2.0 162831
evaluating 162780
Acute 162469
potassium 162463
spleen 162407
uterine 162317
ter 162264
expansion 162230
collection 162172
1.1 162161
shorter 162154
mixture 162127
putative 162102
simultaneous 162051
predominantly 162031
became 161879
LV 161726
advances 161722
standardized 161717
exist 161585
insertion 161564
PR 161554
thereby 161377
injections 161375
consisting 161363
hypertensive 161333
epilepsy 161311
PC@@ 161293
ocular 161274
thoracic 161251
regimen 161179
En@@ 161154
overexpression 161119
susceptible 161084
adrenal 161013
biology 160965
recipients 160947
cleavage 160938
DS 160800
0.4 160760
phases 160756
SI@@ 160641
De@@ 160581
carcinomas 160524
tive 160248
loading 160161
relaxation 160107
donors 160084
depending 160081
though 159996
traumatic 159871
PL@@ 159866
PO@@ 159821
Each 159819
ligands 159807
opioid 159707
qu@@ 159635
AIDS 159618
extension 159574
cavity 159448
negatively 159253
Blood 159212
vessel 159093
contraction 159070
vi@@ 158938
integration 158724
episodes 158684
extremely 158655
depends 158648
glutathione 158597
ium 158571
te@@ 158559
cutaneous 158544
diastolic 158513
complement 158464
bearing 158436
os 158304
pretreatment 158218
SP@@ 158174
practical 158044
mis@@ 157958
ill 157789
maturation 157766
variance 157766
peritoneal 157720
angiotensin 157669
utilized 157641
mapping 157566
tasks 157548
generate 157517
Following 157377
polymorphisms 157337
cytotoxicity 157237
grown 157155
EEG 157134
sc@@ 157099
pathogens 157095
Children 156928
spine 156921
1.3 156871
recovered 156778
plasmid 156698
mucosal 156697
ings 156676
define 156673
VEGF 156620
utility 156602
PR@@ 156566
hydroxy@@ 156526
If 156520
surveillance 156502
regeneration 156456
loop 156454
personal 156451
curves 156442
pathogenic 156317
Is 156311
deposition 156302
Such 156199
consider 156187
guided 156153
validation 156123
AM@@ 156108
2010 156103
correct 156059
focal 156039
pro 156001
always 155971
0.@@ 155954
incorporation 155919
dry 155902
Ar@@ 155876
ib@@ 155819
counts 155709
Un@@ 155671
asymptomatic 155668
insights 155600
subunits 155572
thi@@ 155514
transgenic 155426
2017 155372
separated 155308
reflect 155293
operating 155274
under@@ 155257
color 155227
Association 155211
abuse 155197
drinking 155156
precursor 155156
enzymatic 154921
hypo@@ 154758
Neuro@@ 154626
twice 154612
chains 154602
Assessment 154587
layers 154584
version 154476
candidate 154315
thrombosis 154313
voltage 154304
HF 154246
macrophage 154140
METHOD 154128
Primary 154096
correction 154096
charge 154063
temperatures 154018
mostly 154017
AB@@ 153912
itis 153775
increasingly 153598
Ac@@ 153470
section 153412
ES 153395
STUDY 153393
ons 153371
L1 153295
residents 153265
ines 153113
interface 153003
continued 152999
adjuvant 152977
indirect 152869
requiring 152738
aureus 152678
ER@@ 152535
to@@ 152528
PE@@ 152514
supplementation 152414
take 152411
lumbar 152335
valuable 152307
apoptotic 152298
CNS 152198
aggressive 152141
deficits 152064
predicting 151990
inferior 151867
parameter 151853
maintain 151850
permeability 151734
communities 151698
question 151634
teeth 151603
give 151572
issue 151524
professional 151448
Patient 151435
A2 151407
worldwide 151275
categories 151274
plate 151167
indices 151149
attributed 151094
T2 151084
scientific 151075
dec@@ 150884
cold 150868
nearly 150827
orientation 150765
mobility 150562
hemoglobin 150533
Cl 150504
arrest 150382
influences 150316
relapse 150168
LH 150098
Previous 150055
biosynthesis 149918
ators 149772
inner 149760
2011 149723
mmol 149682
implants 149633
errors 149605
existence 149602
predictor 149543
auditory 149461
requirements 149459
movements 149456
CD8 149432
clones 149402
manifestations 149362
0.6 149282
$ 149276
emerging 149267
options 149218
regulates 149153
FA 149147
gold 149084
operated 148921
Long 148798
nutritional 148784
tobacco 148759
nM 148740
repeat 148725
spread 148699
Their 148650
excess 148645
residue 148598
ablation 148552
mmHg 148552
improvements 148539
sclerosis 148511
Dis@@ 148383
live 148326
af@@ 148321
bodies 148303
preliminary 148261
remission 148250
SETTING 148236
HD 148235
1000 148210
pelvic 148199
sepsis 148094
no@@ 147966
pneumonia 147958
column 147951
ies 147861
corneal 147854
foot 147757
software 147741
Japanese 147617
gap 147596
placement 147455
1,@@ 147412
positions 147403
hippocampal 147350
NK 147311
spectral 147182
‑ 147045
feasibility 146957
11@@ 146945
greatly 146857
Case 146854
DC 146748
express 146663
hem@@ 146549
estimation 146522
3.5 146488
Risk 146448
easily 146448
room 146311
0.8 146309
ester 146200
Molecular 146112
limits 146023
smokers 145984
TS 145949
intrinsic 145895
simulations 145854
1.6 145728
allergic 145691
ance 145667
etiology 145609
stimulating 145544
EC@@ 145539
decreasing 145488
Use 145314
lacking 145303
1.4 145201
ane 145111
onic 145060
promoting 145033
reasons 144970
E2 144969
green 144914
se 144892
copper 144837
trends 144831
clusters 144708
D1 144705
circulation 144647
offer 144565
Doppler 144555
lipids 144527
reversed 144513
0.03 144471
introduction 144464
inducing 144421
department 144369
classes 144348
her 144308
educational 144286
,000 144260
lactate 144237
absolute 144135
weak 144118
gut 144087
perspective 143827
CO2 143720
HS 143574
bp 143558
antagonists 143548
interviews 143520
unusual 143474
examinations 143408
inter 143374
translation 143322
loci 143310
Changes 143267
responsive 143259
thin 143255
ism 143150
arginine 143089
medications 143043
Ca@@ 143037
ides 142968
hormones 142952
homeostasis 142938
methodology 142871
DM 142855
regular 142803
pa@@ 142802
axial 142787
protease 142784
CT@@ 142714
ri@@ 142697
Plasma 142486
resting 142362
tin 142278
malignancy 142194
ROS 142147
PD@@ 142130
guinea 142116
gestation 142086
CL@@ 142076
indicators 142058
Development 142011
ra@@ 141992
Pre@@ 141963
delivered 141944
nutrition 141895
Chronic 141894
correlate 141878
2- 141847
seizures 141791
parts 141777
barriers 141766
phenotypes 141685
challenging 141625
trans 141509
Evidence 141468
MMP 141360
link 141349
photo@@ 141343
degeneration 141316
hypothesized 141296
am 141216
databases 141205
robust 141151
capillary 141079
steady 141043
PP 141040
undertaken 140929
1.@@ 140831
oxidase 140820
cystic 140803
Also 140561
true 140457
ial 140404
gl@@ 140343
el 140336
IN@@ 140335
ant@@ 140272
ants 140251
commercial 140174
distress 140152
adaptive 140118
glycoprotein 140090
yielded 140073
none 140053
mal@@ 140032
pathogen 139991
hazard 139948
biopsies 139937
classical 139894
analytical 139893
substances 139830
alveolar 139744
next 139664
MI 139646
already 139541
participation 139521
testosterone 139451
car@@ 139374
fatigue 139346
fewer 139331
inactivation 139313
income 139215
gave 139025
grafts 139008
discovery 138907
Six 138896
labeling 138839
acquisition 138810
differed 138803
Recently 138786
microscopic 138738
artificial 138645
compliance 138619
flap 138594
professionals 138556
heterogeneous 138513
gestational 138430
initiated 138357
radi@@ 138340
Multiple 138316
typically 138296
evident 138222
edema 138186
ver@@ 138141
eth@@ 138086
input 137942
items 137931
contributes 137873
filtration 137856
Low 137802
insight 137714
Per@@ 137695
First 137606
display 137605
reveals 137530
izing 137414
frontal 137377
Hz 137361
neutral 137289
providers 137272
awareness 137239
beyond 137218
ren@@ 137202
1.8 137191
contents 137129
OA 137087
concomitant 137062
SR 136945
adjustment 136892
AS@@ 136861
se@@ 136846
all@@ 136844
ear 136820
protocols 136740
seem 136733
heparin 136702
parent 136640
NA 136627
born 136488
hippocampus 136401
progesterone 136394
respond 136379
Ds 136310
CC 136272
≤ 136195
reviews 136077
consensus 136073
Care 135932
complicated 135844
parental 135810
depletion 135788
malaria 135753
weighted 135737
amplification 135724
person 135661
Its 135639
HBV 135606
SM@@ 135452
adsorption 135374
entry 135359
outer 135300
HPLC 135236
highlight 135133
ks 135100
interpretation 135077
neither 135015
determinants 135014
Other 134973
phot@@ 134969
activator 134964
met 134960
detecting 134929
GABA 134919
HDL 134883
Bi@@ 134788
film 134779
optic 134770
duct 134660
inhibiting 134591
lens 134530
platelets 134508
clinicians 134441
immunodeficiency 134441
ity 134407
epidermal 134391
relevance 134281
closure 134262
up@@ 134217
itself 134172
portion 134151
modifications 134119
prevalent 134045
ABSTRACT 134027
improves 134019
AIMS 133970
sheep 133958
hospitalization 133927
AM 133920
structured 133751
col@@ 133735
proliferative 133688
undergo 133682
F1 133666
dissection 133535
rectal 133526
IC@@ 133499
compression 133481
sought 133224
preventing 133208
ut@@ 133151
raised 133111
immunoglobulin 132984
hydrolysis 132930
uc@@ 132905
anatomical 132904
avoid 132846
0.9 132824
proven 132814
screened 132762
diffuse 132654
PATIENTS 132641
Forty 132638
precise 132519
be@@ 132450
cloned 132387
amin@@ 132370
hair 132365
similarity 132182
tin@@ 132116
reading 132106
attitudes 132101
Me@@ 132095
pylori 132005
fungal 131904
enriched 131838
CR 131819
unilateral 131716
pair 131679
creatinine 131672
stent 131617
aneurysm 131563
lost 131551
colony 131525
DR 131444
NO@@ 131358
Cl@@ 131306
portal 131297
digital 131266
option 131188
refractory 131055
acts 131043
advantage 131012
pe@@ 130966
oph@@ 130849
needle 130834
embryo 130823
percutaneous 130763
excluded 130724
Non 130697
agonists 130669
environments 130663
exogenous 130626
subtypes 130594
identity 130511
BM@@ 130508
correlates 130476
combinations 130425
observational 130296
PG@@ 130288
vaginal 130279
array 130254
pilot 130198
0.7 130062
μg 130051
DI@@ 130026
transcripts 130013
Total 129989
B1 129919
AN@@ 129902
2.2 129857
net 129828
implemented 129811
PM 129809
cortisol 129785
translocation 129746
IC 129729
guide 129727
ex 129700
sis 129641
technical 129640
pure 129619
abundance 129447
cut 129385
Cells 129347
homologous 129327
01 129304
visits 129289
king 129282
SF 129267
offers 129161
fall 129079
leaves 129063
pr@@ 129006
Parkinson 128994
plaque 128877
morphine 128684
genotypes 128652
limiting 128641
promotes 128589
WORDS 128544
speech 128495
tension 128484
beam 128432
reductase 128366
ad 128283
author 128276
fundamental 128236
BC 128215
obstructive 128194
subjective 128035
SI 127945
represented 127928
ways 127807
survivors 127781
dimensions 127723
dosage 127675
Significant 127634
4.5 127616
coverage 127534
changing 127504
Protein 127484
MA 127465
leaf 127435
scales 127327
ing@@ 127307
unchanged 127301
alization 127292
consists 127290
turn 127166
substantially 127097
excision 127084
surrounding 127078
Control 127009
supporting 127009
LA 127008
diets 127007
allowing 127001
aid 126980
supports 126953
exists 126901
electrode 126824
CF 126747
Zn 126742
sizes 126742
activating 126689
ogenesis 126630
probes 126539
adolescent 126433
cr@@ 126432
DE@@ 126361
fine 126332
subset 126320
consistently 126285
CL 126269
caspase 126248
created 126237
T3 126143
TRUNCATED 126141
chromatin 126091
micro 126047
simulated 125981
concern 125973
transduction 125945
ectomy 125921
vision 125920
1.7 125896
blue 125884
elicited 125810
8.@@ 125734
transfusion 125456
indications 125437
concerns 125421
evolutionary 125416
resource 125323
participated 125322
cirrhosis 125313
Sh@@ 125281
chromosomal 125048
PT 124973
rarely 124958
Th@@ 124934
RNAs 124911
preterm 124889
rs@@ 124720
q 124701
incubated 124687
epidemiological 124560
D2 124444
resolved 124442
endocrine 124410
metabolite 124399
30@@ 124375
hydro@@ 124335
occupational 124257
coated 124099
transformed 124069
false 124023
regimens 123995
rheumatoid 123986
2D 123971
2.1 123967
intracranial 123961
feasible 123923
ors 123918
deviation 123876
P2 123874
team 123846
intestine 123789
scans 123634
m2 123510
member 123437
spin 123411
quantum 123359
DR@@ 123321
complexity 123294
international 123217
rejection 123214
elimination 123196
genus 123151
estradiol 123112
encoded 123055
trained 123016
mesenchymal 122996
motility 122975
PM@@ 122931
stained 122918
rec@@ 122900
Current 122899
sympathetic 122898
attachment 122799
3.0 122716
solvent 122713
project 122692
infiltration 122672
girls 122657
junction 122627
adipose 122604
2.4 122497
decades 122455
ness 122444
anemia 122442
supply 122427
Par@@ 122408
absent 122393
instability 122355
Inter@@ 122203
alleles 122170
downstream 122044
0.04 122034
pronounced 121969
indicator 121925
parasite 121905
PI@@ 121894
TI@@ 121864
reversible 121815
ian 121727
Ph@@ 121675
carriers 121667
Between 121612
System 121503
Review 121478
secretory 121399
technologies 121384
teaching 121373
COPD 121314
subcutaneous 121294
ics 121260
hepatocellular 121258
AMP 121254
aorta 121226
alkaline 121217
decisions 121200
fasting 121189
mineral 121100
situation 121096
0.9@@ 121061
timing 121034
binds 121020
outpatient 121018
ang@@ 120944
black 120934
biliary 120927
plane 120904
closed 120810
res@@ 120738
.05 120674
serotonin 120562
adrenergic 120506
ality 120415
likelihood 120403
vaccines 120391
atherosclerosis 120226
IgE 120119
beginning 120057
difficulties 120045
vary 120034
carrier 120030
International 119917
MI@@ 119917
favorable 119844
G1 119800
annual 119711
starting 119710
films 119674
Ad@@ 119670
CI@@ 119665
chromosomes 119643
vehicle 119633
namely 119619
Ag 119606
Identification 119606
ographic 119529
start 119528
Under 119522
cytometry 119491
mother 119423
reach 119419
attempt 119387
discrimination 119387
Functional 119261
widespread 119215
ell@@ 119204
interact 119197
pump 119161
amyloid 119050
diagnoses 118990
managed 118947
monitor 118879
Surgical 118829
gen@@ 118778
blockade 118739
tertiary 118704
researchers 118602
Increased 118583
ser@@ 118568
γ 118549
chemistry 118535
PF@@ 118504
for@@ 118501
neutrophils 118490
.0@@ 118438
screen 118417
somatic 118337
angiogenesis 118333
rotation 118311
1.9 118302
nan@@ 118221
plastic 118195
25@@ 118186
engineering 118064
respondents 118049
hepatocytes 118046
hydrophobic 118005
regardless 117939
neutrophil 117933
carbohydrate 117923
fit 117862
alis 117822
bo@@ 117765
2009 117759
selectively 117711
modulate 117646
otic 117617
ethyl 117553
EGFR 117551
volumes 117549
Japan 117520
differentially 117509
pancreas 117482
intraoperative 117372
ke 117364
million 117342
recruitment 117325
cisplatin 117315
emerged 117221
histamine 117220
locations 117213
According 117191
prospectively 117156
involve 117133
electric 117124
Drosophila 117049
Women 117008
responsiveness 116877
S1 116873
ometric 116858
equilibrium 116820
Over 116805
ma@@ 116768
he@@ 116732
operations 116724
Index 116720
sensor 116720
maintaining 116644
ill@@ 116628
platform 116586
quantified 116586
Africa 116541
phenotypic 116513
immunohistochemistry 116482
idiopathic 116474
ensure 116383
ICU 116264
atypical 116217
postnatal 116211
MHC 116103
makes 116051
tic@@ 116022
glands 116016
June 115922
mitral 115905
Gy 115867
SL@@ 115850
NP 115802
IgM 115741
principles 115692
proper 115581
eating 115553
quantification 115472
ational 115400
greatest 115337
suffering 115319
sessions 115304
SE@@ 115254
ologic 115245
suppressor 115239
transfected 115238
RS 115207
mammary 115139
secreted 115132
representative 115101
histologic 115057
atrophy 115037
oxy@@ 114976
ongoing 114965
outside 114959
SN@@ 114866
acceptable 114863
emia 114848
follows 114797
rice 114785
construct 114783
consequence 114756
performing 114753
prophylaxis 114661
academic 114515
2.6 114510
peri@@ 114420
ment 114355
leg 114351
map 114350
ten@@ 114337
subgroup 114221
ose 114174
shared 114154
lungs 114093
echocardiography 114074
assessments 114073
ular 114064
loaded 114044
sequential 113982
MAIN 113944
interference 113926
CM 113923
MT 113865
endometrial 113812
immunohistochemical 113810
elucidate 113781
label 113756
3.2 113713
India 113713
preferred 113642
urea 113639
MD 113637
NS 113629
lobe 113623
accurately 113611
CRC 113577
pg 113549
Staphylococcus 113462
contamination 113454
stimulate 113421
newborn 113415
CN@@ 113371
ids 113327
questionnaires 113289
integrity 113274
efficiently 113265
ventral 113250
remodeling 113195
regulator 113184
malignancies 113116
withdrawal 113105
ev@@ 113068
online 113036
seed 113011
SF@@ 112939
Co 112917
proton 112914
ground 112889
linkage 112857
2.3 112844
corrected 112758
VA 112750
GM 112740
incorporated 112723
ulcer 112709
fibrillation 112694
omas 112687
surgeons 112634
actual 112630
Interestingly 112595
2,@@ 112513
enhancing 112502
biomarker 112416
Sub@@ 112374
des@@ 112356
produces 112303
superoxide 112293
CC@@ 112267
drainage 112257
abundant 112136
phosphorylated 112131
faster 111995
cumulative 111987
Genetic 111914
UK 111906
activate 111862
TE@@ 111833
route 111828
precision 111827
largest 111824
coefficients 111823
he 111762
GA 111728
ak@@ 111669
conformation 111666
comparisons 111628
TB@@ 111600
phenyl@@ 111595
summary 111590
MT@@ 111589
pathologic 111587
cysteine 111576
ca@@ 111553
subtype 111448
generalized 111443
substitution 111427
respective 111417
panel 111399
hypertrophy 111363
serine 111292
stomach 111253
stromal 111157
fresh 111046
tolerated 111043
PB@@ 111040
viable 110909
Pr@@ 110901
representing 110824
inducible 110761
ach@@ 110759
AL 110721
nerves 110702
vital 110680
interstitial 110644
derivative 110611
prominent 110591
abolished 110580
suicide 110558
complementary 110549
RO@@ 110522
demonstrating 110518
randomised 110492
cal@@ 110488
responded 110470
HC@@ 110401
overview 110351
glomerular 110230
readily 110230
country 110228
never 110161
9.@@ 110101
consideration 110097
Role 110095
ou@@ 110044
promoted 109967
premature 109954
Anti@@ 109921
Drug 109904
egg 109887
histone 109879
land 109861
race 109861
enhances 109853
brief 109777
miRNAs 109747
strand 109717
distributions 109713
enable 109701
forces 109687
automated 109649
if@@ 109637
K1 109554
atus 109532
hemodynamic 109520
depressed 109487
selectivity 109474
kappa 109386
tooth 109368
implanted 109351
predominant 109319
ionic 109316
diminished 109307
description 109286
effort 109279
worse 109246
myeloid 109243
mediate 109240
log 109225
AI 109215
polypeptide 109208
ati@@ 109192
endothelium 109189
calculations 109151
modalities 109151
studying 109142
27@@ 109067
tail 109033
shaped 109028
rupture 108998
disruption 108944
28@@ 108905
Br@@ 108898
onto 108828
disc 108764
dendritic 108743
deficit 108727
TA 108704
Salmonella 108698
quantify 108690
IgA 108622
min@@ 108597
3.1 108569
abilities 108556
tree 108454
cyst 108406
passive 108358
CRP 108333
just 108317
nmol 108317
standards 108317
mid 108312
preference 108199
monocytes 108104
competitive 108021
TH@@ 107982
Quality 107855
addressed 107747
dic@@ 107726
23@@ 107711
cattle 107703
autophagy 107634
yields 107631
SO@@ 107589
apical 107580
ta 107561
MR@@ 107502
SS@@ 107437
pregnancies 107409
bed 107405
cats 107393
infrared 107390
T4 107388
square 107383
participate 107324
computational 107300
North 107227
NSCLC 107202
OR@@ 107162
discovered 107160
ome 107094
iz@@ 107062
cytoplasm 106963
immunization 106961
walking 106961
perceptions 106953
cor@@ 106913
western 106844
PG 106827
instrument 106806
tion 106771
HC 106730
CS@@ 106727
tendon 106701
isoforms 106654
normally 106618
Single 106574
le 106571
lin@@ 106558
hydroxy 106517
mobile 106509
II@@ 106368
virulence 106317
processed 106241
2.8 106236
potency 106235
boys 106226
nutrient 106220
ker 106209
CAD 106208
comprised 106137
permanent 106124
placental 106074
considerably 106041
articular 106021
transporter 105994
TA@@ 105968
dissociation 105963
nurse 105781
accounted 105729
visible 105725
est 105657
Le@@ 105615
BM 105606
peroxidase 105576
genetically 105560
2008 105491
Cox 105451
LI@@ 105433
rom@@ 105409
blocking 105367
postoperatively 105339
formulation 105335
PH@@ 105329
porcine 105313
vertical 105274
principal 105267
benz@@ 105246
glass 105244
DM@@ 105224
critically 105211
pathophysiology 105208
otomy 105179
bands 105176
proportional 105172
ary 105168
reductions 105166
radiographic 105148
00 105142
kinases 105076
experimentally 105065
CM@@ 105007
carrying 104964
hematopoietic 104938
Fifty 104863
7.5 104808
TC 104779
offspring 104774
coagulation 104734
ADP 104638
Rs 104596
focusing 104596
March 104575
turnover 104482
immunological 104405
science 104401
recombination 104390
5.5 104389
overcome 104377
il 104369
seizure 104319
cocaine 104288
top 104185
Pseudomonas 104176
see 104166
considering 104148
acuity 104026
mid@@ 103968
started 103968
ov@@ 103965
return 103912
hom@@ 103908
Poly@@ 103895
00@@ 103861
lethal 103802
SM 103774
latency 103741
PKC 103736
subgroups 103697
Age 103692
steroids 103684
2.7 103595
pressures 103579
minute 103466
eligible 103441
depend 103428
2018 103425
oocytes 103386
adapted 103347
prenatal 103342
MP 103335
met@@ 103321
tor 103315
Trans@@ 103309
bl@@ 103247
AUC 103230
EGF 103191
blocks 103179
exon 103133
immunoreactivity 103124
5.0 103114
easy 103104
prostaglandin 103038
Inhibition 103001
visit 102993
definition 102970
ventricle 102956
Objective 102950
CV 102895
modes 102861
protect 102855
immun@@ 102844
apparently 102816
sham 102762
modern 102754
unaffected 102736
radiological 102628
Ts 102532
retained 102502
organism 102488
situations 102409
AI@@ 102407
modulated 102376
chamber 102368
equation 102346
SEM 102328
acidic 102327
phenyl 102302
alized 102298
VI 102282
Im@@ 102248
semi 102227
contralateral 102179
dye 102175
Hyper@@ 102154
alteration 102150
continue 102148
encountered 102115
kb 102032
C1 102027
feed 102019
Ten 101988
preventive 101954
hyperplasia 101942
recording 101841
He 101745
Survey 101738
bonds 101712
canal 101686
impacts 101635
syndromes 101567
NPs 101565
cis 101473
decade 101427
text 101365
fatal 101314
HB@@ 101305
registered 101302
familial 101279
-2 101272
ATPase 101271
mononuclear 101227
Self 101212
irradiated 101202
125 101079
3- 101044
optimized 101014
powerful 100997
psychosocial 100965
substituted 100953
topical 100892
Mon@@ 100809
av@@ 100798
24@@ 100783
Tr@@ 100777
institution 100769
tended 100742
ax@@ 100727
signalling 100721
1- 100656
roots 100588
BD 100587
practitioners 100575
CH 100478
retina 100468
Gene 100439
oids 100390
cysts 100382
homology 100375
plasticity 100260
contributing 100219
isolate 100211
autologous 100202
su@@ 100193
2.9 100160
Cd 100125
dys@@ 100125
180 100117
MO@@ 100061
conformational 100059
yr 100042
del@@ 100006
weekly 99980
programme 99893
wheat 99824
Non@@ 99815
0.005 99793
IM@@ 99788
sensing 99772
sugar 99758
Factors 99741
Taken 99663
searched 99639
compartment 99605
reflex 99588
Center 99586
prescribed 99580
3,@@ 99551
M1 99544
canine 99467
Society 99464
glaucoma 99432
ylation 99421
hormonal 99389
highlights 99309
ECG 99306
anatomy 99295
Within 99244
facilities 99214
exhibits 99157
atic 99097
idae 99055
macro@@ 99023
AG@@ 98963
Due 98959
aut@@ 98915
bronchial 98857
discussion 98846
neuron 98842
TG 98833
rated 98825
buffer 98785
record 98776
SR@@ 98731
odi@@ 98726
shoulder 98677
wk 98653
salivary 98616
former 98611
exact 98606
candidates 98575
ds 98566
reticulum 98506
labelled 98471
reason 98441
3.4 98437
aromatic 98343
ps 98320
digestion 98307
cows 98293
dog 98282
radial 98279
ents 98270
accepted 98257
pool 98237
yn@@ 98221
ometry 98176
inside 98127
4.0 98120
modality 98101
expressions 98099
trait 98082
contributed 98033
industry 98030
sarcoma 97927
Fs 97853
differentiate 97794
static 97759
satisfactory 97745
frame 97715
capture 97672
fistula 97664
Characterization 97662
climate 97662
architecture 97654
Com@@ 97608
severely 97607
breathing 97536
ni@@ 97531
Test 97529
July 97345
detail 97340
demand 97337
conduction 97336
PV 97329
difficulty 97259
May 97254
phylogenetic 97250
unrelated 97227
create 97180
guidance 97180
Col@@ 97108
releasing 97098
EN@@ 97048
erythrocytes 97046
IP 97015
stiffness 96961
purification 96951
tubular 96942
stronger 96917
larvae 96910
scattering 96903
ru@@ 96867
asked 96860
disturbances 96853
CMV 96813
mRNAs 96799
aeruginosa 96771
paired 96742
pancreatitis 96717
combining 96660
fibroblast 96658
video 96562
max 96512
excessive 96489
Herein 96474
pleural 96467
yr@@ 96439
cultural 96427
uro@@ 96416
MD@@ 96256
hospitalized 96253
returned 96200
κB 96177
opportunities 96086
requirement 96073
sol@@ 96064
ub@@ 96028
Management 96021
EF 96010
enables 95978
personality 95967
redox 95954
WT 95950
3.7 95947
motif 95934
connectivity 95931
SLE 95882
ens 95823
protected 95820
acetylcholine 95801
neonates 95773
Mo@@ 95765
androgen 95718
Ap@@ 95676
den@@ 95645
concurrent 95614
nicotine 95561
currents 95467
displacement 95442
com@@ 95412
ecological 95409
mono@@ 95403
None 95387
vertebral 95361
excitation 95349
coordination 95333
CP@@ 95312
LD 95286
PS@@ 95191
flux 95141
uncommon 95119
CB@@ 95109
metals 95094
lymphoid 95080
i.v. 95065
chicken 95044
session 95000
ligament 94952
staging 94913
renin 94901
ACE 94897
pneumoniae 94875
br@@ 94791
opathy 94766
indication 94751
PSA 94745
but@@ 94735
SH 94695
optimization 94692
2007 94625
orally 94597
Different 94493
spontaneously 94491
superficial 94465
2005 94401
foods 94385
neoplastic 94384
aerobic 94373
supplemented 94372
out@@ 94368
Ne@@ 94353
man@@ 94346
spp 94331
leukocyte 94321
cerebellar 94290
germ 94256
nodules 94255
ised 94241
ast@@ 94240
linking 94234
item 94230
muscular 94212
Department 94176
Seven 94148
oste@@ 94138
pent@@ 94128
dysplasia 94087
systematically 94045
Fe@@ 94037
NT 94028
0.002 94024
saturation 93984
testicular 93958
IL@@ 93956
110 93953
category 93915
exclusively 93873
Model 93872
physiology 93859
weights 93787
radio@@ 93783
surgeon 93755
effector 93706
restored 93700
analogues 93671
insufficiency 93644
concepts 93583
lineage 93573
too 93571
width 93548
histology 93510
Time 93509
4.2 93497
declined 93476
empirical 93469
clarify 93422
eu@@ 93398
alpha@@ 93393
April 93351
6.5 93299
flexible 93283
MC 93254
instead 93237
Ser@@ 93228
vectors 93214
injured 93201
follicular 93169
so@@ 93165
overweight 93160
aspiration 93158
GSH 93091
antitumor 93070
equally 93028
0.8@@ 93024
fruit 92986
Given 92983
rhythm 92979
ART 92938
isation 92927
tically 92911
filter 92905
sense 92843
plan 92806
referral 92798
believed 92797
reflux 92736
Similar 92724
embedded 92712
analogue 92695
CE 92675
der 92670
Eight 92669
_ 92669
opposite 92642
sucrose 92624
algorithms 92622
rRNA 92617
14C 92585
library 92562
B2 92529
rank 92517
slight 92508
2001 92476
4,@@ 92465
dl 92463
29@@ 92419
2A 92377
headache 92330
fitness 92319
3.6 92307
gradually 92269
orbital 92263
accelerated 92261
aneurysms 92246
Subjects 92200
tics 92192
marine 92150
Gs 92133
ice 92126
000 92120
tone 92098
acetic 92072
bipolar 91985
acetyl 91947
approved 91917
RF 91902
1999 91899
conditioned 91877
utilizing 91877
dense 91875
transferase 91863
fertility 91853
stere@@ 91838
R1 91834
colitis 91817
shear 91816
tendency 91806
tor@@ 91804
ard 91789
Europe 91780
object 91759
anomalies 91747
English 91741
1990 91726
catalyzed 91713
surveys 91703
1A 91616
usefulness 91616
undergone 91593
Heart 91563
kidneys 91540
thrombin 91527
och@@ 91454
leptin 91449
Na@@ 91392
Tumor 91323
2006 91319
glial 91317
emphasis 91299
and@@ 91295
exposures 91259
ethnic 91221
swelling 91178
hearts 91165
ella 91093
arthroplasty 91069
90@@ 91055
conservative 91042
helpful 91026
lupus 90958
&apos;@@ 90894
controversial 90854
atoms 90852
Central 90846
NMDA 90786
Experimental 90777
distinguish 90734
usual 90673
locally 90625
periodontal 90615
driving 90614
RI@@ 90607
Synthesis 90584
translational 90572
1998 90566
immunofluorescence 90544
gait 90536
600 90535
fer@@ 90516
statistics 90413
share 90411
birds 90397
transmembrane 90392
ym@@ 90379
colonic 90352
Outcomes 90345
nitro@@ 90310
H2 90272
reporter 90263
patch 90220
pseud@@ 90185
cap@@ 90184
reflected 90169
miRNA 90161
P3 90145
lifestyle 90100
inactive 90086
mar@@ 90076
upregulated 90060
ideal 90056
BMD 90046
RP 90039
alignment 90029
PL 90020
Surgery 89995
perioperative 89981
dark 89921
Nevertheless 89892
immuno@@ 89787
Sp@@ 89762
HR@@ 89755
pharmacokinetic 89747
antiviral 89724
cessation 89718
CoA 89670
lu@@ 89650
My@@ 89636
anticancer 89606
neuropathy 89604
NS@@ 89600
Quantitative 89600
served 89546
mood 89431
hypothalamic 89420
fourth 89412
clone 89394
mandibular 89364
possess 89318
ost@@ 89288
triggered 89256
MM@@ 89214
idine 89180
7.4 89177
division 89140
opportunity 89054
26@@ 89012
MAP 89008
dr@@ 89005
GR@@ 88986
Similarly 88971
recordings 88969
ve@@ 88924
electrodes 88891
acoustic 88878
Australia 88876
dexamethasone 88846
HE@@ 88815
MAPK 88807
lymph@@ 88720
SU@@ 88705
waves 88694
BA 88666
preservation 88639
0.7@@ 88608
centre 88604
usage 88591
analgesia 88580
SNPs 88559
ical 88544
offered 88501
Questionnaire 88500
attached 88460
balloon 88453
cyt@@ 88444
transferred 88443
ana 88393
phen@@ 88291
prescription 88270
ankle 88243
AF@@ 88223
user 88167
examining 88157
partly 88150
Future 88090
LE@@ 88073
genomes 88050
pore 88043
anion 88018
Detection 87988
dosing 87963
SW@@ 87928
SDS 87924
NC@@ 87876
70@@ 87837
eg@@ 87828
influencing 87799
attempts 87795
alanine 87730
meal 87688
Ms 87678
Sixty 87666
hemodialysis 87660
preserved 87659
paradigm 87632
examples 87614
Pl@@ 87598
investigating 87577
st 87564
forward 87555
neoplasms 87539
insufficient 87495
IF@@ 87490
Cr 87441
glioma 87423
RA@@ 87421
cytosolic 87418
Akt 87409
cohorts 87393
AB 87383
cy@@ 87339
extensively 87328
ch 87294
Gram 87288
pooled 87282
Am@@ 87262
1995 87259
CE@@ 87246
mediators 87239
opening 87232
Asian 87222
precursors 87215
youth 87200
est@@ 87120
again 87090
1997 87086
socioeconomic 87051
-- 86953
ethylene 86940
ve 86902
State 86857
son 86839
Bio@@ 86800
functionally 86795
Qu@@ 86778
Bacillus 86770
epidemiology 86761
Wistar 86743
immunotherapy 86724
ence 86708
enter@@ 86670
L. 86657
ac 86620
olfactory 86609
nano@@ 86599
upstream 86596
3.9 86585
4.1 86580
ADHD 86575
COVID 86572
gram 86514
prosthesis 86455
distant 86451
EM@@ 86441
university 86382
GP 86369
themselves 86340
0.00@@ 86327
anaerobic 86299
Differences 86295
COX 86292
FSH 86281
box 86281
amplified 86278
September 86263
goals 86253
ultrasonography 86237
aspect 86236
ganglion 86216
sound 86189
PubMed 86096
connected 86073
ha@@ 86046
threatening 86027
6.0 86003
dramatically 85997
assist 85971
NE 85952
World 85936
covered 85935
monkeys 85929
axons 85926
pharmacokinetics 85923
0.25 85921
mixtures 85910
2002 85893
lowering 85891
125I 85876
S2 85874
osteoporosis 85869
tandem 85857
valid 85837
instruments 85818
becomes 85729
ta@@ 85722
defense 85714
chosen 85700
transcript 85697
extra 85687
haem@@ 85653
serial 85639
innate 85637
DISCUSSION 85627
helix 85611
Administration 85585
quite 85560
CVD 85559
U.S. 85507
ulation 85488
Impact 85470
biomass 85430
emergence 85396
expanded 85356
atomic 85344
circadian 85323
As@@ 85322
resin 85318
applying 85295
adjusting 85259
similarly 85248
contaminated 85242
C2 85201
ay 85197
Bone 85153
D3 85123
immunoreactive 85115
analog 85087
stored 85082
October 85037
graphene 85021
caregivers 85006
shifts 84996
specimen 84983
HM@@ 84965
emic 84963
inverse 84953
property 84932
relief 84920
eggs 84904
ppm 84865
retro@@ 84849
iso@@ 84822
ls 84817
Brain 84809
manual 84786
Mg 84778
defective 84775
PEG 84768
cigarette 84720
lysine 84698
configuration 84631
NC 84619
throughput 84619
ling 84606
1996 84604
progenitor 84587
ters 84499
elastic 84497
ovary 84475
terminus 84465
histopathological 84429
art 84422
GI 84400
table 84380
ments 84372
Arabidopsis 84371
sometimes 84356
took 84354
copy 84340
novo 84320
burn 84285
chemicals 84274
completion 84270
diarrhea 84262
Institute 84253
MSCs 84251
nucleotides 84243
DP 84236
fungi 84138
Novel 84137
clinics 84119
naturally 84105
anatomic 84096
Bcl 84084
microbiota 83996
NI@@ 83984
Therapy 83967
descriptive 83961
zero 83948
Median 83941
wt 83893
incomplete 83837
cardiomyopathy 83804
conductance 83778
comprising 83759
Medicine 83734
interview 83695
ogram 83678
GS 83671
grafting 83635
3.8 83607
scheme 83582
uniform 83568
season 83547
phospholipid 83450
cholinergic 83437
predictions 83418
contributions 83407
1a 83380
night 83325
seeking 83280
breeding 83258
sudden 83207
IR@@ 83191
hal@@ 83190
matching 83181
Hodgkin 83172
cur@@ 83167
4.8 83146
frozen 83085
cerevisiae 83072
scoring 83064
violence 83045
TSH 83024
microscope 83023
schools 82930
MDA 82922
neurologic 82892
Then 82881
2004 82863
deprivation 82830
5,@@ 82804
unable 82753
Northern 82745
cat 82745
constants 82734
NaCl 82726
aspartate 82724
granules 82719
leukocytes 82717
PTSD 82675
lip@@ 82661
erythrocyte 82660
rh@@ 82653
C3 82652
pal@@ 82611
syn@@ 82589
7.0 82531
chloro@@ 82527
Specific 82496
Hb 82473
perfused 82454
® 82454
3.3 82414
construction 82407
ASD 82404
ejection 82373
ist 82370
partners 82369
pres@@ 82350
intense 82346
140 82343
ile 82337
Cross 82335
atory 82316
phage 82308
magnesium 82298
ud@@ 82275
fibres 82264
tip 82258
WHO 82206
CKD 82197
G2 82192
anal 82190
cyclase 82149
CF@@ 82131
stratified 82114
MM 82082
Hence 82076
ge@@ 82055
heter@@ 82021
4.3 82014
lasting 82003
cyclin 81997
athletes 81996
sk@@ 81996
myocardium 81993
assumed 81977
waste 81961
Anti 81932
pre- 81927
HSV 81926
Brazil 81911
ocytes 81804
stabilization 81795
Cor@@ 81754
fashion 81743
E1 81725
ses 81688
discusses 81685
aro@@ 81635
finger 81634
ize 81631
cation 81630
words 81625
conjugated 81620
aspirin 81604
cues 81592
minimally 81582
ore@@ 81547
LT 81522
labor 81501
bulk 81487
MATERIAL 81474
numerical 81463
mammals 81415
competition 81414
ligation 81392
sal@@ 81323
hy@@ 81312
molar 81301
Candida 81263
TP 81227
transmitted 81223
glycine 81221
MB 81211
-3 81160
ur 81156
private 81121
restoration 81055
5.2 81052
idi@@ 80993
hex@@ 80981
Oral 80974
verified 80965
electrochemical 80920
inf@@ 80918
arising 80914
additive 80876
machine 80845
silver 80828
thresholds 80825
FINDINGS 80807
informed 80792
tracking 80758
PH 80754
mes@@ 80749
contractile 80741
encodes 80728
Activity 80716
mast 80680
TF@@ 80674
4.7 80654
meth@@ 80608
inadequate 80600
acetyl@@ 80598
immature 80576
EBV 80573
OUTCOME 80570
efflux 80538
atom 80519
fear 80447
DL@@ 80439
policies 80421
elective 80395
ends 80394
cranial 80387
mediating 80364
PF 80363
Comparative 80305
esters 80300
ACTH 80286
AML 80219
dimethyl@@ 80207
enrichment 80202
Mycobacterium 80178
industrial 80142
pollution 80123
continuously 80111
interpreted 80111
HL 80087
dL 80086
Multi@@ 80072
phosph@@ 80040
4.4 80039
prostatic 80017
circular 80014
optimum 80010
coping 80001
-5 79988
quantitatively 79968
ME 79949
TBI 79919
9.5 79914
ven@@ 79910
Information 79900
blotting 79898
22@@ 79895
tibial 79892
fluids 79888
Growth 79873
ering 79867
designated 79841
conditioning 79837
parasites 79836
generating 79830
allo@@ 79814
autonomic 79696
antibacterial 79668
8.5 79661
incident 79661
epigenetic 79649
maps 79638
sign 79610
separately 79573
hypoxic 79547
conservation 79541
remarkable 79483
4.6 79463
peroxidation 79434
H1 79420
shell 79368
80@@ 79316
polymers 79312
aemia 79309
DO@@ 79258
Immun@@ 79248
maxillary 79235
applicable 79232
autosomal 79166
cerebrospinal 79157
branch 79155
Findings 79115
sulf@@ 79107
persistence 79098
triple 79085
Canada 79073
moderately 79060
chemically 79030
Se@@ 79029
tRNA 79018
interesting 79007
giant 78980
.01 78964
ding 78933
enough 78931
ari@@ 78915
ech@@ 78894
endemic 78873
exclusion 78872
achieving 78849
der@@ 78842
cellulose 78830
gives 78830
she 78791
intermittent 78785
Phase 78717
transplanted 78698
purposes 78662
epidemic 78626
40@@ 78609
2003 78594
myosin 78574
1994 78562
elucidated 78558
perspectives 78553
ON@@ 78540
5.3 78537
50@@ 78454
polar 78441
ites 78411
lysis 78400
revision 78398
testis 78396
tro@@ 78357
inpatient 78348
promotion 78343
fetuses 78330
Met@@ 78322
recommend 78306
LS 78304
manipulation 78295
tau 78290
postpartum 78264
abnormality 78260
bonding 78239
Retrospective 78185
dermal 78137
biofilm 78108
massive 78100
flexion 78079
accumulated 78061
noninvasive 78048
tom@@ 78047
microorganisms 78024
behavioural 78023
crystals 78015
ran@@ 78011
Statistical 78007
ab 77980
list 77973
4- 77970
ambulatory 77958
Social 77956
101 77937
anaesthesia 77924
causal 77911
ea 77863
representation 77850
NE@@ 77813
CN 77789
courses 77771
diffraction 77699
Cochrane 77686
suspension 77637
integrin 77628
tachycardia 77614
ma 77597
NR@@ 77586
duodenal 77579
Prospective 77538
pharmaceutical 77538
adopted 77508
silica 77451
horizontal 77448
oriented 77419
ure 77411
inoculated 77392
ula 77388
assayed 77386
splicing 77367
tu@@ 77355
episode 77322
ving 77300
Prevalence 77284
relations 77269
ranges 77255
ros@@ 77244
focuses 77227
destruction 77205
lesser 77192
flu@@ 77170
filled 77153
pi@@ 77115
standing 77101
contractions 77094
latent 77090
IV@@ 77067
cure 77041
lifetime 77030
ago 76987
PTH 76985
Depression 76975
inserted 76974
450 76961
LP 76943
bacterium 76930
extremity 76909
transfection 76899
lipopolysaccharide 76858
sing 76837
5.6 76829
ke@@ 76827
carb@@ 76789
R2 76784
building 76769
definitive 76766
edge 76766
photon 76756
norepinephrine 76723
Sch@@ 76720
why 76705
nitrate 76695
joints 76668
disturbance 76652
EB@@ 76651
astrocytes 76602
porous 76572
USA 76549
cop@@ 76543
peaks 76528
Mn 76526
AE 76508
intra@@ 76502
~ 76494
engagement 76489
profiling 76486
surgically 76475
capsule 76470
μm 76465
analyzing 76441
converted 76410
perinatal 76404
sea 76393
recipient 76387
partner 76384
multicenter 76368
Pain 76345
sequenced 76341
meet 76322
suppress 76321
septic 76308
formulations 76275
connection 76269
interacting 76262
Ag@@ 76230
homogeneous 76228
examines 76179
nonlinear 76154
crude 76117
masses 76102
recognize 76089
AV@@ 76086
prolactin 76072
capability 76058
-induced 76039
Diabetes 76036
charged 76003
objectives 75990
heme 75960
suffered 75956
details 75943
reaching 75917
foreign 75884
Physical 75865
deterioration 75855
Imaging 75850
angi@@ 75827
stranded 75811
adenoma 75801
AG 75797
prevents 75792
pan@@ 75752
Cardiac 75732
financial 75723
phenomena 75703
discrete 75679
palliative 75636
August 75617
s.@@ 75587
Streptococcus 75575
oscopy 75564
val@@ 75552
Ni 75518
SOD 75498
chem@@ 75494
evaluations 75419
papillary 75416
BR@@ 75405
striatum 75398
can@@ 75382
Influence 75363
synergistic 75349
codon 75333
ities 75330
considerations 75316
picture 75297
ich@@ 75278
regulators 75262
mitotic 75235
validate 75228
IS 75226
establishment 75210
How 75203
postmenopausal 75153
5.8 75144
entity 75140
endoscopy 75114
anastomosis 75092
unstable 75085
umbilical 75075
ED@@ 75060
ensis 75031
ists 74998
extreme 74985
run 74945
Pb 74944
bu@@ 74926
illustrate 74907
replaced 74901
melatonin 74898
SH@@ 74890
select 74889
amino@@ 74833
ML@@ 74820
Renal 74788
5.4 74785
modulating 74684
Bo@@ 74682
enabled 74678
obvious 74666
insurance 74665
antigenic 74649
macular 74646
exploration 74572
-6 74524
PARTICIPANTS 74518
ulated 74490
constitute 74483
compatible 74471
student 74454
Understanding 74404
ass@@ 74381
SCC 74379
aggregates 74355
glycerol 74350
determinant 74344
gluc@@ 74335
ow@@ 74320
geometry 74308
catenin 74285
amines 74251
ingestion 74237
Report 74233
penetration 74211
mor@@ 74206
forced 74183
transforming 74128
owing 74088
Additional 74073
parietal 74069
neurodegenerative 74028
lumen 74022
ist@@ 74004
oxidized 73989
ERK 73955
directions 73944
intraocular 73930
radiographs 73912
ribosomal 73910
benzene 73906
ay@@ 73889
held 73874
attributable 73865
MB@@ 73835
comorbidities 73834
rule 73818
Diagnosis 73808
radicals 73808
GnRH 73791
principle 73786
peroxide 73732
contacts 73719
mV 73709
TR 73669
TT 73655
dimer 73647
era 73646
myeloma 73639
Gu@@ 73635
carcinogenesis 73614
130 73583
peer 73580
SNP 73564
folding 73500
attenuation 73469
slices 73457
hot 73453
ulcers 73445
HO@@ 73420
arise 73420
Post 73404
6.3 73373
septal 73355
ded 73319
ward 73300
Liver 73295
drop 73281
ganglia 73265
modify 73247
equations 73246
trigger 73231
fibrinogen 73224
asymmetric 73217
equipment 73173
ethical 73148
tracheal 73097
1992 73090
consistency 73069
hypothalamus 73062
ologically 73060
alcoholic 73051
yc@@ 73036
1993 73022
caries 73009
ys 73004
chromatographic 73002
sions 72963
sum 72949
shunt 72946
res 72928
analgesic 72910
pin@@ 72874
mo 72836
otherwise 72809
becoming 72790
160 72773
SB@@ 72772
formula 72765
C57BL 72746
ethyl@@ 72740
upregulation 72725
ise 72691
isoform 72678
au@@ 72647
kin@@ 72628
lithium 72627
ratings 72612
apply 72602
juvenile 72602
anesthetized 72537
exert 72523
dopaminergic 72520
immunosorbent 72503
calculation 72502
fin@@ 72453
rel@@ 72446
cataract 72412
stimulates 72405
ff@@ 72396
60@@ 72359
summarize 72355
105 72347
tim@@ 72256
Exposure 72254
bis 72223
running 72211
giving 72201
cul@@ 72188
preclinical 72153
attractive 72138
avoidance 72113
knockdown 72100
UC 72091
ologists 72089
polarization 72088
mediates 72050
onal 72040
6.8 72037
of@@ 72009
takes 71998
ang 71996
Al 71992
Nine 71980
ole 71960
ultimately 71957
RN@@ 71935
Short 71929
leakage 71921
counter@@ 71920
Direct 71908
surfactant 71897
RI 71891
meat 71860
asi@@ 71854
FT 71845
pos@@ 71844
pen@@ 71841
outbreak 71832
epitopes 71820
5.9 71805
iii 71801
drive 71795
At@@ 71769
drawn 71763
word 71722
uria 71714
6.4 71699
1β 71677
hence 71656
IU 71643
cardiopulmonary 71634
decay 71600
Even 71591
physiologic 71540
prone 71539
hosts 71537
ency 71525
Application 71524
angina 71510
inform 71501
Neither 71476
ols 71457
Through 71442
visualization 71438
HI@@ 71426
attempted 71403
subsets 71369
oplasty 71365
chlor@@ 71345
5.1 71341
gained 71333
immunosuppressive 71332
specialized 71330
SV@@ 71322
She 71313
HT@@ 71272
institutions 71264
resident 71246
epidural 71244
believe 71242
7.3 71230
attending 71206
ammonium 71195
Cal@@ 71170
migraine 71167
veins 71156
Su@@ 71141
evolved 71139
prove 71130
trimester 71118
ying 71111
acyl 71108
visceral 71096
plates 71065
aware 71046
-4 71017
attack 70981
Ab@@ 70966
epitope 70952
NF@@ 70930
ously 70899
His 70887
hamster 70887
cloning 70875
ale 70853
wounds 70842
blockers 70832
allogeneic 70825
fibro@@ 70825
histologically 70814
warranted 70807
osteoarthritis 70784
verbal 70778
M2 70762
ns 70759
thymidine 70731
ipsilateral 70718
trace 70716
Ki 70709
missing 70696
DF@@ 70677
0.003 70666
ND 70665
mouth 70615
cascade 70583
fluoride 70563
mu 70562
fecal 70550
trypsin 70536
Diagnostic 70533
extend 70515
ste@@ 70484
Life 70469
inversely 70467
allergy 70461
city 70458
sampled 70449
hydroxylase 70424
nephropathy 70402
losses 70401
historical 70381
respiration 70377
responders 70370
varies 70353
ina 70343
7.1 70297
ica 70290
Indian 70289
7.7 70287
VI@@ 70268
Be@@ 70259
facilitated 70244
ster@@ 70236
7.2 70230
ann@@ 70143
What 70105
allograft 70088
proportions 70087
enti@@ 70079
atherosclerotic 70051
smoke 70046
auto@@ 70018
switch 70016
incontinence 69990
Program 69975
Magnetic 69968
uric 69944
calculate 69921
quantity 69918
gr@@ 69909
5.7 69881
Saccharomyces 69846
excitatory 69833
ograms 69826
mi@@ 69818
Australian 69814
CK 69801
phenol 69796
ind@@ 69794
preferences 69789
PV@@ 69784
endoplasmic 69781
BS 69780
adhesive 69776
filaments 69773
OP 69770
conjunction 69756
glycogen 69745
prophylactic 69732
GO 69727
FDG 69714
erg@@ 69700
null 69700
criterion 69696
normalized 69659
Mar@@ 69645
stone 69634
uncertainty 69612
Various 69610
cognition 69609
ner 69593
Δ@@ 69583
incision 69582
developments 69572
conclusions 69567
activates 69561
LO@@ 69523
mil@@ 69514
rings 69509
transverse 69507
dioxide 69502
hard 69500
6.9 69494
ever 69474
Secondary 69472
General 69468
ionization 69466
rib@@ 69450
structurally 69450
objects 69436
inoculation 69416
form@@ 69411
Si@@ 69392
doctors 69388
tryptophan 69370
counseling 69367
limbs 69331
He@@ 69329
engineered 69305
PI3K 69280
twenty 69273
correctly 69253
observe 69253
TM 69216
P450 69213
colonization 69195
fragmentation 69190
arms 69147
slowly 69141
Cr@@ 69105
apparatus 69069
ocyte 69053
1991 69038
similarities 69028
cone 69010
6.2 68991
CHD 68986
responding 68914
eliminated 68906
psych@@ 68889
4.9 68887
reproducibility 68848
IN 68832
routinely 68822
filling 68818
Systematic 68766
ho@@ 68757
TH 68731
Multivariate 68728
envelope 68712
laboratories 68695
hernia 68641
malformations 68617
reflects 68615
exception 68611
belonging 68606
10.@@ 68596
abscess 68568
dilution 68562
iodine 68538
chi 68514
phosphorus 68501
inorganic 68492
Se 68486
liposomes 68478
Structural 68472
omes 68464
Germany 68458
agar 68458
EMG 68455
∼ 68447
oper@@ 68433
knockout 68426
EP 68418
dispersion 68405
kappaB 68395
PN@@ 68378
placenta 68360
monocyte 68345
essentially 68320
clustering 68298
horses 68270
constructs 68265
Raman 68248
relatives 68241
Trial 68239
Activation 68222
deoxy@@ 68217
multidisciplinary 68216
bioavailability 68202
describing 68201
overlap 68193
coherence 68172
reproducible 68161
tur@@ 68148
Food 68140
inc@@ 68125
LV@@ 68118
fused 68118
employing 68112
idea 68110
Breast 68071
equ@@ 68071
Small 68067
TF 68047
mitogen 68033
Syndrome 68024
les 68024
Rats 68010
seasonal 68008
adi@@ 67991
dairy 67982
preferentially 67975
expert 67967
fate 67935
Second 67929
survived 67914
predicts 67896
1,2 67894
slope 67892
ton@@ 67882
choline 67871
TM@@ 67869
mathematical 67851
termed 67850
mat@@ 67779
insect 67763
augmented 67757
s--@@ 67717
Factor 67705
HP 67693
ie 67685
Associated 67674
PK@@ 67666
Pulmonary 67653
tors 67652
ther@@ 67648
GTP 67643
eukaryotic 67631
damaged 67617
vomiting 67599
titers 67598
regarded 67595
February 67581
fertilization 67561
0.6@@ 67547
NH@@ 67532
alk@@ 67523
axonal 67511
ain@@ 67508
SCs 67499
aceae 67496
fluoro@@ 67492
MG 67487
November 67482
densities 67478
influx 67466
starch 67461
por@@ 67443
Mal@@ 67429
limitation 67399
views 67361
fibronectin 67350
PN 67346
ogen 67334
Design 67313
8.0 67304
immobilized 67299
wavelength 67296
flight 67262
sed 67250
azine 67243
ping 67232
adulthood 67230
homozygous 67225
adenomas 67206
Response 67205
cycl@@ 67198
AN 67196
helical 67185
fetus 67180
ectopic 67168
reversal 67163
Lung 67153
slower 67151
6.1 67136
analogs 67103
facility 67100
methionine 67082
mesenteric 67064
Adult 67056
OT 67053
microvascular 67052
averaged 67046
job 67046
olysis 67029
osa 67025
template 67016
dimension 66990
stabilized 66990
pic@@ 66989
plasminogen 66965
carry 66952
America 66945
distinguished 66885
ning 66874
admissions 66858
immunized 66845
promise 66845
methanol 66802
converting 66784
intubation 66784
parathyroid 66780
complaints 66778
sensors 66690
introduce 66670
transitions 66634
glucocorticoid 66568
explanation 66551
sw@@ 66547
PRL 66534
microenvironment 66503
poorer 66492
TCR 66479
IC50 66475
beliefs 66471
coating 66460
follicles 66428
psoriasis 66401
thromb@@ 66371
inherited 66368
MS@@ 66338
son@@ 66337
highlighted 66328
planned 66308
Tissue 66295
phospholipase 66289
ALS 66276
fermentation 66274
adding 66264
Dawley 66244
arrhythmias 66238
Ab 66233
GR 66223
leucine 66217
cre@@ 66212
TE 66210
herpes 66195
Twelve 66192
und@@ 66186
DN@@ 66184
registration 66176
bar@@ 66166
clamp 66153
reproduction 66153
affective 66126
domestic 66111
6.6 66109
Res@@ 66105
intraperitoneal 66102
siRNA 66076
Sprague 66075
Higher 66049
sensitization 66028
MEASURES 65992
methodological 65991
SV 65985
planar 65984
universal 65975
resuscitation 65973
dermatitis 65970
embolization 65960
infarct 65947
dataset 65945
manifestation 65934
mutated 65933
seeds 65928
fo@@ 65904
Potential 65903
saliva 65903
desired 65889
periodic 65886
osmotic 65885
code 65859
themes 65857
splenic 65849
800 65843
resected 65841
pul@@ 65832
RT@@ 65805
endotoxin 65798
circuit 65790
SA@@ 65785
ination 65778
market 65762
PB 65758
é@@ 65732
5p 65706
aria 65688
8.4 65680
zones 65678
ut 65670
transform 65653
moving 65635
7.6 65633
ID@@ 65610
ALL 65597
nucleic 65547
confined 65534
vestibular 65528
do@@ 65526
Electro@@ 65522
sized 65495
i.p. 65490
ON 65477
PP@@ 65462
mutagenesis 65443
IBD 65438
0.5@@ 65410
α@@ 65408
junctions 65382
conduct 65367
OC 65348
Golgi 65344
repetitive 65325
ID 65319
microgram 65272
vel@@ 65267
etc 65256
idal 65249
calibration 65239
har@@ 65234
submitted 65211
establishing 65197
arch 65193
EM 65192
SD@@ 65177
triglyceride 65176
DI 65175
ear@@ 65158
precipitation 65155
links 65128
plans 65120
Postoperative 65107
corticosteroids 65101
8.6 65062
careful 65061
law 65018
folate 64993
pretreated 64974
polyacrylamide 64973
beta@@ 64967
pigment 64967
meningitis 64966
Experiment 64963
microarray 64961
actively 64956
ly@@ 64956
pur@@ 64925
forest 64918
CB 64903
elongation 64902
inhalation 64894
RV 64859
minimize 64859
biomedical 64856
round 64852
genetics 64847
Crohn 64829
FI@@ 64827
1H 64812
embolism 64793
named 64779
F2 64777
assembled 64768
profound 64768
2019 64767
depleted 64758
HF@@ 64748
glucagon 64738
detector 64724
ambient 64706
striatal 64702
commercially 64696
nor@@ 64696
ot 64689
cycling 64669
itation 64668
prosthetic 64648
H2O2 64638
Together 64635
trunk 64606
curative 64605
flexibility 64564
vulnerable 64562
dramatic 64551
ching 64534
laryngeal 64531
scored 64510
Cy@@ 64452
aberrant 64432
hypersensitivity 64410
pulses 64387
glycol 64378
acet@@ 64372
hemorrhagic 64371
angioplasty 64349
oth@@ 64328
NADPH 64322
Seventy 64319
kinds 64314
rose 64301
margin 64274
narrow 64248
suture 64243
clonal 64241
pacing 64222
Gal@@ 64191
fibrous 64172
ogen@@ 64168
p.@@ 64157
hypotheses 64150
FU 64072
scaffold 64070
Consequently 64064
fluctuations 64053
Male 64038
ECs 64033
probable 63999
8.2 63996
El@@ 63994
olytic 63973
ful 63966
marginal 63961
38@@ 63949
promoters 63948
7.8 63946
angles 63943
fil@@ 63943
For@@ 63932
repeats 63925
Differential 63924
top@@ 63919
mechanistic 63914
participating 63900
Southern 63889
11.@@ 63888
PK 63888
optimize 63871
borne 63854
sl@@ 63844
beta1 63811
0.2@@ 63808
bolus 63801
doxorubicin 63799
integral 63798
glutamine 63795
Efficacy 63791
overlapping 63756
geographic 63733
MIC 63719
AV 63715
0.06 63701
datasets 63690
Specifically 63679
16S 63670
estimating 63643
lowered 63634
prefrontal 63600
crystalline 63575
8.3 63568
killing 63557
tre@@ 63557
scaffolds 63538
mer@@ 63522
Genome 63510
HO 63502
continues 63449
automatic 63421
silencing 63420
tional 63365
household 63351
lt 63345
we@@ 63344
N1 63335
infertility 63328
VE@@ 63310
deletions 63272
cerebellum 63253
connections 63228
bul@@ 63227
GE 63220
recall 63209
evidenced 63175
Arg 63143
path 63140
socio 63138
intravenously 63105
newborns 63097
ROC 63093
century 63092
dismutase 63081
inositol 63072
7.9 63064
6.7 63056
9.4 63028
{ 63024
9.6 63005
palsy 63003
biologically 62983
degenerative 62981
polymerization 62977
colonies 62975
nonspecific 62957
tis 62956
N2 62951
reg@@ 62950
blocker 62904
connective 62843
fur@@ 62843
sul@@ 62839
OCT 62837
di 62832
moiety 62821
Man@@ 62820
persisted 62820
cadherin 62801
Mice 62793
thymus 62787
gross 62760
personnel 62756
the@@ 62720
retinopathy 62718
synovial 62707
discharged 62705
plaques 62702
100@@ 62683
heterozygous 62655
progressively 62654
umb@@ 62646
manage 62641
seemed 62624
metric 62607
avian 62575
ath@@ 62534
8.8 62528
ether 62526
111 62519
p38 62519
provision 62518
Car@@ 62512
EA 62474
hazards 62437
reflecting 62427
remote 62389
organized 62374
scope 62368
oxygenation 62349
consumed 62344
lipo@@ 62317
Day 62300
are@@ 62282
But 62281
osi@@ 62251
hypotension 62237
acceptance 62236
gels 62236
Cu@@ 62200
Li@@ 62197
demands 62186
ris@@ 62179
PGE2 62173
motifs 62156
bioactive 62152
killed 62136
centres 62121
falls 62118
ologist 62112
propagation 62109
disulfide 62105
Performance 62103
neuromuscular 62080
Survival 62074
FF@@ 62060
ves 62058
bones 62056
descending 62047
antiretroviral 62015
constraints 61987
Ta@@ 61953
bridge 61948
categorized 61942
distances 61930
switching 61929
obtaining 61903
ACS 61894
retardation 61871
DCs 61853
otypes 61825
foci 61816
termination 61786
reacted 61760
cytology 61759
eric 61725
sen@@ 61725
} 61693
ances 61686
102 61670
retrograde 61662
ited 61614
aph@@ 61612
GFP 61599
Korean 61561
SHR 61546
hereditary 61506
olig@@ 61454
abortion 61440
topic 61440
fabricated 61439
anesthetic 61433
presumably 61425
ylated 61423
BALB 61402
cadmium 61379
accessible 61372
echo 61372
papers 61369
IOP 61350
rating 61347
proteolytic 61319
Large 61264
wastewater 61221
finally 61205
CAM 61198
genital 61197
Screening 61193
Gr@@ 61189
Fc 61169
CASE 61153
dust 61139
virtual 61137
0.3@@ 61135
screw 61130
wet 61103
ore 61091
GL@@ 61069
perforation 61069
aden@@ 61067
ion@@ 61049
multivariable 61041
QOL 61035
35@@ 61028
cardi@@ 61024
segmental 61016
morph@@ 61004
Those 60998
demonstration 60972
vasopressin 60971
facilitates 60966
mer 60953
ement 60952
Examination 60940
ved 60937
VT 60935
challenged 60905
walls 60900
plasmids 60897
pyruvate 60890
resorption 60885
ture 60881
positivity 60870
UR@@ 60860
statin 60816
German 60800
soils 60786
CD3 60745
intrac@@ 60735
copies 60714
Conversely 60712
Met 60702
played 60701
cleft 60687
schedule 60670
trac@@ 60646
compartments 60642
bases 60619
platinum 60612
ultrastructural 60610
Cognitive 60597
enc@@ 60584
French 60573
1988 60570
NH 60536
conjugate 60536
fell 60535
islet 60519
1989 60492
EE@@ 60482
Sal@@ 60477
rin@@ 60469
Stress 60467
dihydro@@ 60466
window 60466
fMRI 60458
bil@@ 60426
neuroendocrine 60423
Prevention 60388
bs 60380
heating 60379
pollen 60360
revascularization 60352
DF 60337
Mental 60304
border 60294
interacts 60291
know 60291
burst 60289
ubiquitin 60283
MV 60279
gaps 60273
White 60241
sil@@ 60232
1,3 60226
Introduction 60217
KO 60217
differs 60211
primers 60209
transporters 60179
mimic 60177
dilatation 60165
iv@@ 60159
messenger 60150
T2DM 60121
Web 60118
loc@@ 60114
Body 60105
nausea 60099
viscosity 60093
apnea 60091
classic 60082
Hydro@@ 60071
VAS 60071
constituents 60064
Or@@ 60061
Materials 60047
modelling 60047
MA@@ 60015
pmol 60014
bor@@ 60013
house 59998
mAb 59997
oncology 59969
kind 59955
spermatozoa 59944
projection 59919
shortening 59908
PCI 59887
albicans 59885
publications 59858
cer@@ 59855
mel@@ 59852
Global 59847
caffeine 59845
productivity 59843
infused 59841
Currently 59820
autism 59811
SO 59774
1,000 59773
autopsy 59771
ultraviolet 59739
lymphatic 59696
Stage 59683
intended 59675
phospholipids 59652
consent 59630
noradrenaline 59623
lengths 59613
stresses 59601
ole@@ 59587
UC@@ 59577
Increasing 59573
calves 59568
Organization 59564
cement 59561
fibrin 59559
tend 59554
experts 59527
tine 59498
mapped 59478
N- 59469
West 59462
eventually 59424
mobilization 59424
recessive 59406
esophagus 59390
lymphomas 59388
mercury 59375
raw 59364
graded 59360
habits 59350
H3 59335
arb@@ 59332
men@@ 59323
hepat@@ 59315
quin@@ 59268
P4 59247
Post@@ 59243
solubility 59232
Besides 59230
mentioned 59227
Lo@@ 59206
mumol 59204
Combined 59197
meeting 59176
therapeutics 59174
finite 59169
calcification 59163
univariate 59152
modulates 59130
proc@@ 59116
entered 59098
grow 59086
organizations 59080
37@@ 59075
electrophysiological 59067
let 59065
designs 59058
Wnt 59036
isotope 59029
disappeared 59026
SPECT 59009
balanced 59001
rin 58971
augmentation 58946
myelin 58911
FP 58905
covering 58891
uncertain 58889
anc@@ 58863
aldosterone 58822
Hem@@ 58790
103 58752
vesicle 58750
accounting 58741
Outcome 58738
azole 58727
33@@ 58719
HI 58709
handling 58706
managing 58693
Cap@@ 58691
Si 58683
killer 58683
diagnose 58680
μM 58664
typing 58653
impairments 58636
rod 58632
spent 58624
retrieval 58617
RCTs 58611
lambda 58606
wear 58598
lysosomal 58588
12.5 58562
Induced 58555
boundary 58551
Regulation 58537
104 58500
synthetase 58499
Science 58483
tively 58481
Insulin 58469
unc@@ 58469
players 58468
1α 58449
tel@@ 58435
powder 58432
CD34 58387
sulfur 58382
suggestive 58349
triglycerides 58336
spite 58328
provider 58325
voluntary 58319
ars 58311
DATA 58298
9.2 58291
causative 58273
β1 58248
branches 58244
competence 58237
terminals 58234
irreversible 58230
cyclophosphamide 58206
seconds 58174
DSM 58166
accounts 58151
gradients 58147
follicle 58144
began 58140
scenarios 58137
0.004 58123
CEA 58091
9.7 58077
HER2 58069
ising 58068
defining 58027
tetra@@ 58025
8.1 58023
Positive 58010
subcellular 58004
kept 57987
tongue 57987
Pediatric 57985
lip 57964
lives 57962
passage 57935
3p 57932
34@@ 57930
titanium 57922
advance 57919
blinded 57899
sia 57892
CV@@ 57881
Italy 57867
fibre 57864
legal 57861
DE 57857
Ni@@ 57856
carefully 57845
Score 57842
inactivated 57823
Canadian 57814
6,@@ 57790
ECM 57788
Ep@@ 57768
northern 57766
character 57755
southern 57753
osomes 57735
stones 57728
til@@ 57725
intermediates 57711
dB 57634
iliac 57607
conflict 57602
modest 57593
expectations 57583
9.8 57573
36@@ 57564
Rapid 57539
ammonia 57529
mediator 57529
lev@@ 57519
8.7 57510
relating 57507
Complete 57496
prescribing 57473
split 57469
OB@@ 57467
ICD 57457
immunoassay 57441
ethnicity 57436
glycosylation 57425
analyse 57422
sedation 57413
citrate 57398
individually 57398
uterus 57394
demographics 57390
Community 57389
spindle 57375
100,000 57351
Ig 57338
serves 57334
gu@@ 57322
2a 57318
concentrated 57292
GT 57270
spectroscopic 57253
coordinated 57238
arrays 57194
document 57179
la@@ 57164
123 57155
attacks 57152
nutrients 57149
Hispanic 57141
war@@ 57139
Eighty 57108
registry 57104
bro@@ 57100
DD 57092
impedance 57087
yt@@ 57072
cover 57061
menstrual 57061
ak 57058
remove 57056
Phot@@ 57050
cochlear 57043
Purpose 57034
gated 57022
sin@@ 57014
East 56998
act@@ 56989
endovascular 56988
faces 56983
exhibiting 56953
pulsed 56943
Au 56940
lact@@ 56901
rop@@ 56886
axillary 56876
segmentation 56867
differing 56853
chiral 56818
0.75 56790
enter 56784
ras 56777
built 56749
catalase 56749
afferent 56719
births 56709
cations 56701
gyrus 56692
consultation 56664
sexes 56653
9.3 56643
threat 56612
perhaps 56606
CAT 56602
CG 56599
Importantly 56575
symmetry 56568
interviewed 56567
lectin 56567
toc@@ 56567
Family 56566
dystrophy 56523
formal 56523
programmes 56521
microm 56517
sporadic 56510
UNLABELLED 56508
ified 56505
incorporating 56501
winter 56490
HbA1c 56456
luminal 56447
innovative 56427
catheters 56420
orth@@ 56395
stimulatory 56386
twin 56357
GI@@ 56345
Follow 56343
firing 56342
ton 56340
penicillin 56335
IA 56326
log@@ 56289
emotion 56283
sive 56270
deformity 56260
tw@@ 56256
oocyte 56240
spike 56233
web 56225
zebrafish 56216
microtubule 56215
eri@@ 56207
fr@@ 56165
SCI 56160
mTOR 56142
Hu@@ 56137
front 56137
Whereas 56133
popular 56128
Ns 56112
Mc@@ 56110
2,3 56094
0.15 56059
Americans 56053
bin@@ 56044
conductivity 56041
computerized 56038
QoL 56015
Severe 56015
inputs 56012
thick 56006
NOS 56003
soybean 55992
Method 55988
reasonable 55971
circumference 55968
PO 55960
employment 55957
py@@ 55937
RF@@ 55913
nucle@@ 55905
humoral 55898
BDNF 55888
7,@@ 55864
ocytosis 55861
lymphocytic 55847
brains 55834
bur@@ 55831
enamel 55827
circumstances 55818
lipase 55815
proinflammatory 55804
stationary 55781
paediatric 55780
biologic 55775
transcribed 55765
her@@ 55760
endpoint 55759
sided 55755
atopic 55751
participant 55748
polymorphic 55736
addressing 55718
IQR 55705
BI 55690
Randomized 55684
Level 55675
vol@@ 55662
modifying 55660
12.@@ 55650
urgent 55638
lavage 55622
sexually 55619
Km 55605
shifted 55597
trees 55580
omega 55569
propranolol 55567
antidepressant 55555
sediment 55555
ori@@ 55548
cu@@ 55547
0.4@@ 55535
autoantibodies 55519
monkey 55516
enabling 55513
sec 55486
deposits 55483
centered 55476
Infection 55468
irrespective 55463
projections 55446
CFU 55430
definite 55430
intr@@ 55427
HeLa 55425
Pol@@ 55408
relate 55394
ification 55370
poisoning 55359
1987 55336
institutional 55321
binary 55312
9.1 55268
grain 55268
Inventory 55257
mic 55245
Is@@ 55240
government 55234
minority 55232
preoperatively 55229
oscillations 55212
ai@@ 55191
retrieved 55190
supportive 55186
quantities 55182
receiver 55182
behind 55179
AMI 55176
Pro 55169
3,4 55165
indomethacin 55163
polypeptides 55135
kit 55120
nodal 55094
effusion 55084
fe@@ 55075
catalyst 55061
Iran 55033
02 55018
gallbladder 54995
asymmetry 54976
lineages 54971
5- 54958
granule 54951
ements 54950
Rh@@ 54943
crossover 54920
tracer 54913
saturated 54893
Knowledge 54883
prec@@ 54878
Te@@ 54869
gray 54829
society 54820
absorbed 54801
femur 54799
breath 54794
proline 54789
rap@@ 54748
Medicare 54742
propensity 54741
aldehyde 54737
Structure 54719
chick 54704
adenine 54691
plexus 54689
fractional 54681
ometer 54650
sensitized 54627
tumorigenesis 54617
written 54611
Levels 54601
0.08 54597
microsomal 54573
skull 54547
hCG 54534
conjugates 54529
radioactivity 54489
Binding 54475
briefly 54474
inherent 54452
FC 54436
brainstem 54436
Kaplan 54409
CCK 54396
counterparts 54376
ano@@ 54353
Ls 54350
fail 54347
cytosol 54344
amygdala 54342
ked 54337
ra 54327
conscious 54321
encephalitis 54311
helper 54304
toxins 54268
multidrug 54255
ory 54238
Hy@@ 54232
allergen 54232
antihypertensive 54232
constitutive 54224
IT@@ 54200
LE 54194
1B 54186
enhancer 54164
-ATPase 54161
1980 54143
Fourier 54134
chickens 54131
pass 54124
weakness 54113
NGF 54098
Hypo@@ 54093
-dependent 54076
ANOVA 54076
iti@@ 54068
adenovirus 54057
larval 54044
spherical 54041
BT 54040
kers 54032
Phosph@@ 54022
neoplasia 54002
sec@@ 54002
AE@@ 53991
hole 53991
MRSA 53989
MEDLINE 53986
Mg2 53983
ess@@ 53979
simplex 53979
Leu 53973
RBC 53969
lean 53969
amylase 53949
Plasmodium 53942
thrombocytopenia 53935
ineffective 53918
da 53912
inal 53909
publication 53903
senescence 53903
alkyl 53897
HD@@ 53875
ches 53872
antifungal 53857
Korea 53845
surveyed 53833
icity 53813
FS 53807
ery 53806
erythematosus 53799
osome 53786
reward 53780
PAH 53776
painful 53774
come 53764
priming 53763
onate 53742
preceding 53730
clinician 53728
0.07 53717
ze 53695
downregulated 53682
lipoproteins 53680
volatile 53679
atum 53678
falciparum 53653
motivation 53653
urethral 53653
Database 53650
monotherapy 53646
chitosan 53645
oncogene 53603
proteases 53603
brown 53592
consuming 53576
somatostatin 53565
unlikely 53558
bre@@ 53542
Visual 53510
rays 53499
Ver@@ 53498
guideline 53493
Nan@@ 53469
California 53439
AKI 53427
ended 53418
FL@@ 53386
acupuncture 53369
maize 53357
paclitaxel 53356
ferritin 53320
match 53317
pon@@ 53308
synapses 53298
sem@@ 53275
pathologies 53272
phenolic 53270
Ser 53255
identifies 53255
sharing 53254
Therapeutic 53236
106 53228
loads 53219
mol@@ 53218
Asia 53180
unexpected 53161
Part 53158
HIF 53156
chronically 53145
NAD 53134
1985 53128
ets 53101
corn 53084
radius 53079
monolayer 53055
solar 53053
9.0 53048
tubules 53044
behaviours 53010
summarizes 53003
remarkably 53000
MCF 52997
coil 52991
cough 52991
Correlation 52990
ACh 52988
Controlled 52985
expiratory 52968
procedural 52962
Population 52935
mating 52935
lived 52928
islets 52912
learned 52912
thrombus 52884
codes 52872
glycoproteins 52856
allocated 52846
epinephrine 52846
126 52839
108 52836
tus 52820
Meier 52782
roph@@ 52774
hemisphere 52747
illustrated 52711
intron 52709
8.9 52706
aer@@ 52704
48@@ 52701
LR 52692
away 52686
livers 52682
repression 52672
GD 52670
cesarean 52669
ascites 52638
cGMP 52638
GG 52635
Safety 52634
c.@@ 52623
plasty 52617
pu@@ 52613
agricultural 52611
rodent 52596
oside 52586
Ss 52582
herein 52577
Class 52574
inhaled 52566
ili@@ 52561
Experiments 52560
epsilon 52559
axon 52552
lactation 52544
LL@@ 52539
collaboration 52522
Laboratory 52517
olds 52512
downregulation 52511
summer 52484
degraded 52481
put 52472
rigid 52459
Fl@@ 52440
inv@@ 52433
Mortality 52425
sports 52423
Zealand 52410
iform 52410
LDH 52408
natriuretic 52408
Child 52387
Ma@@ 52365
theories 52352
microsomes 52343
perceptual 52342
depolarization 52335
Xenopus 52334
Sequence 52321
vaccinated 52304
fifth 52291
calmodulin 52287
Network 52269
temporary 52251
virtually 52246
mixing 52240
Gly 52237
initiate 52224
back@@ 52215
BR 52206
pp@@ 52202
calf 52197
bilirubin 52183
zo@@ 52173
grading 52168
College 52162
ordered 52154
med 52149
PMA 52145
sufficiently 52134
indicative 52131
meaningful 52126
scar 52119
Local 52101
tubulin 52101
catheterization 52092
caudal 52055
sides 52055
Implications 52029
diagnosing 52028
methotrexate 52026
adequately 52015
05 52012
PFS 52007
inappropriate 51996
ge 51986
adolescence 51977
flav@@ 51957
corticosterone 51940
tubes 51940
attitude 51933
histidine 51932
45@@ 51915
dilated 51908
tal@@ 51904
1.0@@ 51899
145 51895
polysaccharide 51891
oscopic 51887
phospho@@ 51887
programmed 51884
emissions 51879
Helicobacter 51878
agreed 51863
neutralizing 51862
transl 51862
swine 51861
ir 51852
alters 51841
Fas 51839
EMT 51836
fi@@ 51830
continuing 51826
THE 51820
flaps 51817
adrenoceptor 51812
Meth@@ 51800
ver 51800
corpus 51794
expenditure 51770
LI 51753
departments 51731
myocytes 51729
att@@ 51725
interfere 51723
C4 51722
cooling 51721
About 51713
phorbol 51696
elicit 51687
IM 51683
hydrochloride 51679
ax 51667
reagents 51657
Meta 51620
A3 51617
GFR 51609
cationic 51596
1beta 51591
quickly 51589
exponential 51585
immunosuppression 51584
IS@@ 51571
AU@@ 51556
deliver 51552
ok@@ 51531
sional 51523
Gl@@ 51514
omics 51502
Nor@@ 51495
extra@@ 51495
strongest 51483
13.@@ 51477
antisense 51464
yellow 51463
musculoskeletal 51444
⋯ 51440
Electron 51434
fructose 51430
arachidonic 51426
1986 51417
rational 51384
intensities 51370
encephalopathy 51347
kerat@@ 51343
HS@@ 51321
PAF 51316
Fr@@ 51315
venom 51297
concerned 51291
discriminate 51282
rs 51276
possibilities 51273
span 51262
exceeded 51255
grades 51245
cerebrovascular 51244
digestive 51237
Tri@@ 51227
characterised 51227
ere@@ 51226
disseminated 51214
ca 51202
stents 51202
1b 51197
endothelin 51179
IT 51124
displays 51099
PCA 51096
lactic 51091
neoplasm 51089
asis 51081
stratification 51072
exploratory 51070
vas@@ 51067
pose 51052
Glu 51040
tivity 51038
electrolyte 51036
spring 51031
BW 51021
accessory 51015
Initial 51008
verify 51008
positioning 51002
decompression 51000
sa@@ 50980
angiogenic 50975
enteric 50975
suppresses 50975
CRF 50966
silicon 50962
adenylate 50958
ine@@ 50958
hetero@@ 50955
Coronary 50954
implement 50951
summarized 50951
go 50949
Glu@@ 50946
tight 50942
gra@@ 50919
applicability 50909
Injury 50908
Before 50898
tal 50894
ICC 50889
thymic 50887
accomplished 50885
CTL 50878
endometriosis 50878
pyridine 50843
ment@@ 50818
eliminate 50812
spot 50812
pneum@@ 50808
tropical 50806
TD 50801
Rec@@ 50800
traffic 50800
Pt 50789
taste 50786
thereafter 50784
Maternal 50782
dislocation 50764
medi@@ 50760
presentations 50754
H2O 50741
ductal 50738
eng@@ 50720
wrist 50720
arg@@ 50717
lim@@ 50708
intrauterine 50702
propofol 50693
-7 50689
phenylalanine 50688
allelic 50680
France 50665
patency 50664
protects 50664
rules 50659
epileptic 50646
keratinocytes 50643
breakdown 50639
comorbidity 50638
polyclonal 50636
115 50631
oses 50625
parenteral 50614
Surface 50598
drivers 50586
phantom 50580
serological 50574
den 50564
confocal 50558
nano 50554
Pre 50553
electrophoretic 50516
medicinal 50516
Determination 50514
hematoma 50510
luciferase 50498
ler 50492
ure@@ 50478
organ@@ 50477
exerted 50452
reconstructed 50447
Psych@@ 50437
ty 50435
sludge 50434
rescue 50426
APC 50415
specified 50414
NG 50399
otropic 50399
radioactive 50385
telephone 50383
add 50382
Addition 50354
Eleven 50342
SBP 50340
vertebrate 50337
1R 50334
gonadotropin 50299
cat@@ 50294
sts 50294
Registry 50273
particulate 50273
grouped 50247
creating 50229
locomotor 50205
habitat 50193
discontinuation 50181
cyst@@ 50178
ens@@ 50174
sector 50168
amniotic 50165
ending 50158
bromide 50150
microglia 50149
CK@@ 50134
regurgitation 50129
Out 50122
fabrication 50119
tol@@ 50119
pathophysiological 50105
port 50096
antiserum 50070
hands 50070
safely 50060
forearm 50058
Vitamin 50032
cin@@ 50022
transferrin 49996
gingival 49982
monthly 49974
sur@@ 49972
crop 49965
confirming 49963
pharmacy 49962
neuroblastoma 49929
experiencing 49914
fungus 49901
breaks 49900
p21 49899
vulnerability 49896
Os@@ 49895
percentages 49879
yp@@ 49874
selenium 49871
breastfeeding 49853
restore 49852
Tra@@ 49842
RCC 49838
altering 49831
geographical 49831
abdomen 49828
ith@@ 49828
RB@@ 49812
ulcerative 49806
arrangement 49805
sequelae 49805
Preoperative 49795
overexpressed 49790
ALT 49786
leukemic 49759
psychosis 49759
margins 49747
RV@@ 49745
dimethyl 49742
Approximately 49734
assumption 49703
chart 49697
semen 49676
bundle 49658
primer 49643
deformation 49642
ultrasonic 49632
SUMMARY 49631
filament 49625
striking 49600
trafficking 49586
Ninety 49575
pivotal 49570
Aspergillus 49561
granulocyte 49558
prote@@ 49540
sy@@ 49516
orders 49514
interventional 49513
els 49512
Young 49511
BSA 49501
pol@@ 49500
Li 49484
cyclo@@ 49483
transcriptase 49475
claims 49468
outbreaks 49460
myel@@ 49442
SB 49433
L2 49431
dissolved 49429
LF 49414
executive 49414
Subsequently 49397
OSA 49391
corticosteroid 49390
olar 49387
disrupted 49380
NT@@ 49375
oides 49364
TEM 49363
exerts 49357
hydroxyl 49357
sole 49331
floor 49313
matrices 49294
boy 49292
genic 49289
consequently 49287
confirms 49264
PDGF 49261
faculty 49261
sagittal 49250
differentiating 49249
mit@@ 49235
granular 49229
onia 49226
aquatic 49201
dro@@ 49194
Unlike 49175
postsynaptic 49175
hierarchical 49161
ging 49149
ong@@ 49147
intercellular 49128
go@@ 49121
methylated 49117
differently 49113
K2 49109
107 49107
nude 49083
ischaemic 49080
guanine 49076
weakly 49076
Emergency 49066
supplement 49066
neuropsychological 49049
priority 49041
muscarinic 49037
chimeric 49024
scintigraphy 49020
Es 49015
PMN 49004
cytoskeleton 49004
suffer 49002
lat@@ 48991
aff@@ 48986
som@@ 48985
cyto@@ 48983
homes 48972
Bayesian 48965
Spain 48958
sheet 48958
Gen@@ 48950
oro@@ 48950
genera 48945
otype 48945
Mutations 48939
ce@@ 48936
Italian 48929
C3@@ 48921
apolipoprotein 48905
specialist 48905
arsenic 48897
salvage 48864
accordance 48844
ats 48819
SL 48813
APP 48812
EDTA 48798
insensitive 48796
sulph@@ 48794
Spanish 48791
geometric 48782
board 48777
TO@@ 48776
raise 48754
Dec@@ 48747
Radi@@ 48746
rearrangement 48743
hygiene 48739
emphasize 48707
PAI 48699
morning 48699
iv 48694
otoxin 48689
arrhythmia 48670
tear 48658
TL@@ 48622
extending 48622
LM 48604
Virus 48594
BL 48587
ately 48575
weaning 48566
investigators 48565
iNOS 48563
duplication 48540
suicidal 48533
ship 48525
osomal 48524
CRT 48494
dried 48494
TPA 48483
Chemical 48480
chance 48479
proteinuria 48479
Water 48477
CYP@@ 48461
Selective 48454
salts 48454
ural 48449
Phe 48446
aberrations 48439
Flow 48435
FGF 48409
comm@@ 48403
chemokine 48402
contrary 48401
rodents 48401
Major 48398
reliably 48397
aminotransferase 48374
Acid 48359
quinone 48354
Dietary 48353
scaling 48349
routes 48347
serotype 48336
Pharmac@@ 48332
recurrences 48306
intention 48286
Analyses 48279
judged 48264
fluorescein 48256
hydrogel 48254
ered 48251
satisfied 48232
polyethylene 48231
initiating 48230
ond@@ 48230
tric@@ 48221
Ala 48209
hepatocyte 48204
retin@@ 48200
capabilities 48198
om 48198
Internet 48196
Preliminary 48181
adherent 48180
stop 48179
Fifteen 48170
avoided 48159
Pa@@ 48158
aries 48158
energies 48157
extr@@ 48156
attributes 48153
cuff 48147
infusions 48143
indirectly 48121
college 48120
fen@@ 48117
sent 48114
conducting 48113
lamina 48110
disabilities 48092
opinion 48087
wards 48081
creatine 48071
flo@@ 48066
Vascular 48031
confounding 48023
PRO@@ 48003
ascending 47995
Vs 47984
haplotype 47981
dissolution 47968
DL 47966
bas@@ 47962
HB 47933
Relationship 47924
beads 47914
medicines 47908
oligonucleotide 47908
somewhat 47889
acceptor 47883
comp@@ 47880
CA1 47859
encapsulated 47855
im 47853
substitutions 47852
ket@@ 47851
Measurement 47843
dentin 47843
sn@@ 47840
facilitating 47836
NAFLD 47822
conceptual 47809
Ba@@ 47797
Enhanced 47793
medullary 47785
nanoparticle 47758
phosphatidylinositol 47746
neurones 47737
apo 47720
hydrophilic 47706
Metabolic 47699
32@@ 47682
Ras 47661
gp@@ 47655
enlargement 47653
Measurements 47640
ble 47639
hysterectomy 47624
thiol 47584
Her@@ 47578
taxa 47567
acy 47561
chemotherapeutic 47561
mesh 47554
covalent 47552
laparotomy 47549
origins 47549
Normal 47540
airways 47521
Another 47519
detachment 47511
ess 47499
omycin 47489
tea 47470
debate 47461
mtDNA 47445
Aβ 47431
MTX 47425
fractionation 47422
morphologic 47421
echocardiographic 47419
Ti 47413
contraceptive 47408
dissemination 47408
US@@ 47402
AKT 47391
2B 47353
RD 47349
Er@@ 47345
flat 47332
spec@@ 47328
cleaved 47313
confirmation 47305
outflow 47305
stroma 47299
Bs 47296
anth@@ 47286
curriculum 47281
inconsistent 47281
moment 47272
Cardiovascular 47270
131 47236
crisis 47232
mu@@ 47205
dem@@ 47187
pulp 47181
IF 47159
lattice 47150
MO 47148
spreading 47148
Sensitivity 47146
wood 47145
adducts 47130
harvested 47120
stressed 47086
excited 47079
visualized 47076
originating 47070
Considering 47067
adipocytes 47064
functionality 47062
divergence 47022
Ge@@ 47019
acceleration 47008
diameters 47007
MDR 47001
work@@ 46991
Upon 46984
amphetamine 46965
109 46962
radioimmunoassay 46959
biomechanical 46951
observer 46933
stream 46932
hypertrophic 46914
bic@@ 46875
couples 46875
timely 46859
aw@@ 46853
dominated 46847
compromised 46841
idin 46837
Little 46805
encode 46781
assistance 46767
exons 46765
tailored 46761
Sleep 46754
periodontitis 46754
fore@@ 46751
look 46751
normotensive 46723
BF 46720
pharmacologic 46717
atin 46684
rely 46677
truncated 46665
counting 46663
call 46655
MSC 46643
ital 46639
ming 46633
Ly@@ 46615
olic 46615
reagent 46614
sch@@ 46608
des 46605
1st 46596
methane 46578
RE 46573
CHO 46554
gradual 46554
decomposition 46548
aly@@ 46534
DH 46528
112 46508
enic 46503
actually 46485
π 46481
react 46479
SG 46476
girl 46476
ci@@ 46473
immobilization 46467
melan@@ 46458
hold 46444
totally 46438
acidosis 46433
1,4 46431
malformation 46418
harm 46407
Stroke 46402
circuits 46402
aris 46393
occipital 46380
Pe@@ 46377
title 46364
solvents 46349
Op@@ 46348
waters 46336
polyps 46329
ane@@ 46326
reflection 46319
drought 46317
ICAM 46315
hyperglycemia 46309
potentiation 46308
phagocytosis 46304
irregular 46302
update 46276
trajectories 46272
originally 46271
district 46267
dic 46256
LN 46251
ACL 46240
addiction 46234
antioxidants 46226
ease 46219
naive 46214
prostheses 46212
transplants 46209
felt 46204
metformin 46200
vocal 46199
brought 46188
endpoints 46180
ash 46156
today 46152
fitted 46125
Brazilian 46101
Hom@@ 46091
Systemic 46090
PCs 46080
accumulate 46068
tonic 46061
CAP 46060
BCG 46043
stain 46010
prompt 46008
-10 45992
thrombotic 45991
Resistance 45972
obi@@ 45954
monomer 45947
ifying 45945
,@@ 45942
England 45939
sigma 45936
Vi@@ 45928
03 45913
dilation 45904
AT1 45903
signature 45903
successive 45895
audi@@ 45892
paid 45891
titer 45888
GT@@ 45886
oxy 45881
derive 45876
scheduled 45866
VIP 45864
Lys 45861
retinoic 45861
99@@ 45856
spaces 45854
cholecystectomy 45843
instances 45841
anticoagulant 45833
AVP 45829
14.@@ 45819
Accordingly 45819
bilayer 45817
oncogenic 45817
cutoff 45815
circulatory 45811
mac@@ 45810
0.99 45784
manifested 45773
MCP 45767
oxytocin 45754
thermo@@ 45744
convenient 45735
interfering 45720
gi@@ 45675
JNK 45662
postulated 45648
128 45646
entirely 45630
implementing 45630
Cys 45616
neuroprotective 45616
STAT3 45614
anticoagulation 45605
glycemic 45601
ach 45599
Taiwan 45594
gran@@ 45579
inversion 45577
synthesize 45566
globulin 45551
tick 45549
IVF 45542
nephro@@ 45538
240 45534
failures 45532
transcriptome 45529
solely 45521
scenario 45516
Possible 45513
9.9 45503
landscape 45494
Whether 45491
excised 45488
epidermis 45484
ap 45473
labelling 45450
oesophageal 45446
attended 45425
revealing 45420
135 45417
Loss 45413
delays 45411
Yet 45407
supplements 45405
harmful 45403
HBsAg 45397
170 45394
pyramidal 45392
MK 45387
ster 45385
116 45384
tetracycline 45382
fac@@ 45380
build 45379
proteinase 45375
neur@@ 45367
lenses 45361
borderline 45359
fitting 45343
nov 45338
basement 45333
bio 45332
la 45328
viewed 45292
Au@@ 45287
psychotic 45281
disordered 45280
apart 45271
soon 45266
Pal@@ 45265
angiographic 45257
compensation 45254
chrom@@ 45244
rationale 45244
desirable 45239
elbow 45236
Left 45232
tablets 45228
phosphatidylcholine 45211
Oste@@ 45205
0.09 45192
sulphate 45174
vancomycin 45163
unlike 45152
aryl 45147
pi 45143
rac@@ 45142
efficacious 45137
helps 45134
vasculature 45121
contexts 45114
solitary 45104
bacteri@@ 45099
regularly 45099
strengths 45098
ide@@ 45093
eradication 45069
orb@@ 45065
vin@@ 45045
β@@ 45044
deleterious 45024
clients 45017
Ro@@ 45011
fly 45011
Th1 45002
cm2 45001
expensive 44998
extremities 44998
inability 44991
pil@@ 44985
WS 44978
medulla 44976
SK@@ 44973
I. 44942
creation 44942
Du@@ 44936
ys@@ 44920
microRNA 44917
get 44916
allocation 44915
suspicion 44912
HTLV 44908
regenerative 44908
spots 44908
PAGE 44904
micromol 44899
FM 44895
designing 44884
ecosystem 44884
sible 44883
office 44853
na@@ 44847
deposited 44828
distinctive 44799
lam@@ 44794
ick 44791
SN 44790
asthmatic 44773
oline 44771
ences 44770
pertussis 44763
pocket 44754
learn 44750
mic@@ 44749
subtilis 44746
din@@ 44735
Baseline 44731
dead 44731
Ang 44723
amp@@ 44722
doped 44722
Min@@ 44721
lac@@ 44711
metrics 44702
worm 44696
alive 44695
dengue 44695
lab@@ 44691
lidocaine 44683
contemporary 44681
nitrite 44680
meaning 44675
BB 44665
pandemic 44659
stretch 44647
paraffin 44631
Intra@@ 44623
vena 44614
osyl 44610
ASA 44609
pollutants 44605
reserve 44601
interactive 44593
negligible 44593
physicochemical 44593
postural 44584
SK 44573
ultra 44573
valves 44557
myc 44553
opathies 44551
ICP 44546
ads 44535
battery 44532
electrostatic 44529
201 44520
Black 44519
ET@@ 44517
parametric 44510
hydration 44509
York 44471
positron 44459
missed 44453
ovulation 44448
mind 44447
accident 44446
Urinary 44432
malnutrition 44427
qPCR 44423
functionalized 44422
break 44420
biphasic 44418
Function 44409
deficiencies 44406
atmospheric 44403
wire 44403
122 44388
racial 44371
hybrids 44367
Down 44366
warfarin 44364
amongst 44363
proximity 44363
heterologous 44362
develops 44361
SES 44360
wider 44360
proteasome 44355
subpopulations 44343
osteotomy 44327
escape 44325
ening 44284
generic 44279
MTT 44272
advice 44256
supernatant 44253
2R 44251
pat@@ 44242
Light 44234
aur@@ 44228
Syn@@ 44208
palate 44188
eal 44184
fu@@ 44182
hypothermia 44181
septum 44181
semantic 44170
Mr 44166
izes 44155
shed 44152
diagnostics 44151
SUBJECTS 44137
immunoprecipitation 44134
155 44130
hemodynamics 44113
Trials 44103
lag 44095
GF 44092
fruits 44092
organizational 44084
discomfort 44083
ICA 44080
Related 44080
₂ 44079
leukaemia 44064
nickel 44054
GBM 44045
patches 44032
RSV 44031
Po@@ 44005
proliferating 43999
canonical 43985
linearly 43973
NCT0@@ 43970
Isolation 43957
0.10 43956
military 43954
argue 43947
pyrid@@ 43947
ric@@ 43923
Th2 43911
sphincter 43906
2b 43903
cured 43903
CBF 43890
pyr@@ 43888
endocarditis 43878
triggers 43878
illnesses 43865
emb@@ 43863
possesses 43847
amid@@ 43814
tion@@ 43809
intravascular 43806
necessarily 43792
sion 43791
Del@@ 43782
NB 43778
cervix 43771
notion 43769
zed 43751
utilize 43750
thickening 43734
microtubules 43733
bis@@ 43728
Free 43725
checkpoint 43725
aggregate 43723
hydrolase 43713
polarity 43703
VIII 43695
puncture 43695
microns 43687
Induction 43685
detrimental 43681
surgeries 43673
carboxyl 43672
tia 43668
adoption 43667
MEASUREMENTS 43664
MY@@ 43662
overload 43661
Peripheral 43647
parasitic 43639
Bu@@ 43634
polymeric 43624
Arg@@ 43618
favor 43616
Samples 43614
nose 43603
accessibility 43596
04 43590
permits 43583
air@@ 43582
corresponded 43573
We@@ 43563
Caucasian 43546
exploring 43538
track 43538
style 43537
-8 43532
tunnel 43529
freezing 43516
ip 43515
ulating 43509
DA@@ 43507
aggression 43489
Flu@@ 43487
freeze 43480
ACC 43455
disparities 43454
CoV 43451
Bacterial 43450
chondrocytes 43450
2,4 43449
3A 43447
arteriovenous 43437
DT 43428
ie@@ 43428
Har@@ 43422
hypothyroidism 43420
ANP 43407
grass 43403
ense 43402
REGISTRATION 43399
ue 43384
deviations 43367
batch 43364
segregation 43364
progenitors 43363
wh@@ 43345
kcal 43331
sedentary 43323
module 43322
ading 43316
0.006 43314
Lower 43313
mediastinal 43313
na 43313
icul@@ 43309
LL 43303
horn 43295
composites 43284
AK@@ 43272
alizing 43266
babies 43254
ote 43250
contractility 43242
alternatives 43226
incremental 43222
herbal 43218
epidemiologic 43213
osteosarcoma 43179
114 43178
deduced 43175
suppressing 43174
disappearance 43164
MDD 43149
glioblastoma 43148
existed 43143
e- 43121
reservoir 43118
rearrangements 43114
Delta@@ 43112
documentation 43106
Ob@@ 43098
GF@@ 43095
cytomegalovirus 43093
innervation 43093
dependently 43092
BMP 43089
permit 43077
nocturnal 43060
metallic 43053
neurotransmitter 43050
ious 43037
read 43027
analytic 43016
Indeed 42996
SARS 42982
filters 42974
diabetics 42970
cigarettes 42944
pine 42944
rising 42941
lin 42939
WM 42938
fuel 42938
carbonyl 42937
outpatients 42935
works 42931
Asp 42920
hyperactivity 42913
myo@@ 42899
imbalance 42898
chemo@@ 42891
off@@ 42886
uni@@ 42875
expanding 42874
hypoglycemia 42874
nic@@ 42870
loops 42869
IX 42867
Tyr 42859
modeled 42858
NA@@ 42857
tical 42850
yielding 42838
dodecyl 42831
sputum 42830
8,@@ 42821
Val@@ 42813
subclinical 42812
cam@@ 42792
stepwise 42789
naloxone 42775
vir@@ 42772
Sweden 42770
yst@@ 42768
sparing 42765
galactose 42762
gains 42758
employees 42755
catalysis 42739
rheumatic 42736
od 42734
124 42720
Groups 42718
tolerability 42717
refractive 42707
surviving 42704
te 42702
spatially 42697
specialists 42688
thalamic 42685
amplitudes 42684
down@@ 42681
voice 42676
duplex 42675
proof 42668
TOF 42659
oz@@ 42658
3a 42655
FISH 42653
Histological 42631
1alpha 42630
amputation 42618
trophic 42609
entities 42602
tightly 42602
biosynthetic 42580
AH 42578
lytic 42561
presumed 42549
Classification 42533
PCa 42522
tamoxifen 42510
generates 42506
avoiding 42500
imply 42496
prepare 42493
teams 42493
tolerant 42490
road 42474
3T3 42462
assumptions 42446
du@@ 42438
Not 42434
physically 42421
H2@@ 42410
Immunohistochemical 42408
move 42406
definitions 42400
39@@ 42373
ML 42366
Netherlands 42360
Fourteen 42354
phyto@@ 42349
operatively 42337
Mexico 42333
NADH 42320
tinib 42306
06 42300
Incidence 42296
siblings 42294
Pres@@ 42289
radiography 42279
0.12 42276
ageing 42275
Previously 42271
constitutes 42260
Successful 42258
Tc 42258
estrogens 42258
FR 42255
Anxiety 42248
Female 42239
tant 42229
EV@@ 42203
ger@@ 42198
ileum 42184
gastro@@ 42171
inguinal 42170
@ 42167
Longitudinal 42162
expand 42134
1984 42122
photosynthetic 42111
microspheres 42101
ef@@ 42100
insects 42085
choices 42073
Standard 42069
plots 42053
path@@ 42052
enlarged 42051
deal 42041
Service 42030
broader 42027
vesicular 42008
Whole 42003
selectin 41987
pesticides 41982
µg 41978
simply 41966
robotic 41957
Grade 41954
67@@ 41943
CLINICAL 41931
unnecessary 41931
ischaemia 41927
nucleoside 41922
Ir@@ 41915
PCOS 41915
interplay 41906
MCI 41892
extinction 41887
conditional 41884
Complex 41867
twins 41861
necessity 41856
cross@@ 41850
ram@@ 41835
antisera 41832
hand@@ 41826
School 41817
realistic 41813
CpG 41810
ham@@ 41810
dextran 41804
GVHD 41802
eb@@ 41801
evolving 41800
Hyp@@ 41799
dependency 41799
Des@@ 41789
regime 41789
RPE 41788
hematological 41779
--a 41777
accidents 41768
GST 41766
paralysis 41763
emulsion 41762
precisely 41760
eosinophils 41759
emphasized 41747
plateau 41741
cles 41736
anol 41729
Bur@@ 41727
machinery 41713
thirty 41712
verapamil 41706
Stimulation 41695
covariates 41695
clinicopathological 41690
inate 41688
Isolated 41686
relies 41667
1.25 41655
omatous 41652
Older 41645
tidal 41644
CsA 41639
vis@@ 41634
coded 41631
colour 41617
places 41609
0.98 41607
Does 41602
topics 41600
DD@@ 41596
Computed 41593
ash@@ 41590
waist 41590
ong 41580
1.00 41575
Pi 41561
47@@ 41560
Ultrasound 41549
captured 41543
trim@@ 41539
City 41532
disk 41522
op 41519
diver@@ 41512
Few 41504
alised 41499
histopathology 41494
integrating 41492
RC 41490
allergens 41484
Pi@@ 41483
apo@@ 41481
09 41475
ade 41472
intakes 41470
immunologic 41463
assi@@ 41451
Education 41448
victims 41442
silicone 41415
catalysts 41402
collateral 41395
implies 41384
potentiated 41375
normalization 41367
ketamine 41364
ures 41361
NPY 41351
mechanics 41350
orthodontic 41348
comorbid 41344
microbiome 41329
stool 41327
CHF 41321
engaged 41318
VR 41308
MF 41304
intellectual 41304
Ox@@ 41293
selecting 41285
Consistent 41276
HE 41274
integrate 41273
angular 41255
ZnO 41250
obstetric 41247
Å 41242
cardiomyocytes 41238
patent 41224
Failure 41214
Skin 41213
enes 41209
tran@@ 41197
gentamicin 41193
Ig@@ 41185
• 41180
casein 41179
pacemaker 41178
57@@ 41172
rotational 41169
dist@@ 41163
hemolytic 41157
117 41144
exercises 41143
generations 41143
anticipated 41140
docking 41135
Complications 41134
OM 41126
congestive 41118
projects 41118
necrotic 41117
sustainable 41110
chip 41100
132 41095
vast 41094
adsorbed 41093
flows 41081
HCl 41079
Muscle 41070
determines 41054
representations 41049
coming 41045
elegans 41044
nephrectomy 41042
preceded 41041
omorph@@ 41039
Hepatitis 41035
Inc 41034
fibrils 41034
FEV1 41033
sediments 41021
hor@@ 41012
FDA 41002
anomaly 40992
concordance 40985
depended 40969
compensatory 40956
occasionally 40953
ned 40941
DG 40936
radiologic 40932
peri 40924
stores 40922
toxicities 40912
parenchyma 40906
Natural 40904
E3 40902
Nursing 40886
Interaction 40882
Individual 40848
sheath 40837
Pretreatment 40835
thorough 40819
presynaptic 40811
carnitine 40807
polarized 40805
excluding 40802
Cohort 40797
ulate 40793
Individuals 40782
doctor 40775
sac 40773
MN 40768
700 40761
penetrating 40752
Clostridium 40746
129 40742
CABG 40740
opioids 40737
otypic 40736
hematologic 40733
infancy 40727
endurance 40723
0.95 40716
bony 40711
Prior 40709
KD 40704
haemoglobin 40701
dispersed 40700
immunostaining 40694
Up 40692
microwave 40684
BV 40681
cytogenetic 40675
monolayers 40665
ths 40661
brachial 40646
laminin 40641
mismatch 40641
Exercise 40639
directional 40634
rhinitis 40634
pseudo@@ 40624
competing 40623
dimers 40623
neoadjuvant 40622
residence 40617
X2 40616
Collectively 40608
acted 40608
rectum 40607
And 40604
ABC 40589
fa@@ 40570
Fre@@ 40567
AEs 40561
IGFBP 40556
Receptor 40546
survive 40539
transit 40539
GPs 40510
Endoscopic 40498
leuk@@ 40495
RH 40493
int@@ 40490
approval 40467
NPC 40465
QT 40461
oxidant 40455
haplotypes 40454
updated 40451
amides 40443
lymphoblastic 40437
tetr@@ 40430
0.85 40409
113 40400
Elevated 40398
Respiratory 40397
pelvis 40388
15.@@ 40383
zing 40379
LT@@ 40374
antenatal 40372
nodule 40367
Reg@@ 40364
cue 40363
genotyping 40362
revised 40361
correspond 40359
Cd@@ 40358
worsening 40345
def@@ 40333
Adults 40327
.0001 40313
aerosol 40313
prostatectomy 40304
consciousness 40298
centrifugation 40273
underlie 40270
cry@@ 40267
secreting 40267
row 40266
trajectory 40257
flies 40248
sonography 40243
Red 40241
our@@ 40234
fluorouracil 40221
reciprocal 40221
TI 40217
Monte 40214
branched 40205
operator 40199
excitability 40195
phyt@@ 40182
Characteristics 40175
constitutively 40159
cultivation 40152
maturity 40148
bicarbonate 40141
350 40138
Cl- 40138
disp@@ 40137
km 40136
intramuscular 40130
Ti@@ 40111
incorporate 40106
Sixteen 40099
skill 40099
Cyt@@ 40096
teachers 40096
TRIAL 40095
ACT 40094
vasculitis 40088
SMA 40086
© 40085
importantly 40084
Are 40079
Obesity 40077
security 40072
olog@@ 40071
threonine 40059
preeclampsia 40057
4,5 40050
hum@@ 40050
phyl@@ 40050
juice 40031
vibration 40030
velocities 40029
AO@@ 40028
mine 40027
boundaries 40020
metalloproteinase 39993
aluminum 39982
Mass 39979
Public 39976
histopathologic 39973
cyan@@ 39969
lies 39967
cos@@ 39966
omy@@ 39953
Relative 39947
ish 39946
tubule 39938
stressors 39935
stabilizing 39931
notably 39923
Carlo 39918
confer 39899
imp@@ 39896
menopausal 39886
TRH 39881
Diseases 39867
therm@@ 39862
thalamus 39861
tle 39851
erc@@ 39833
Cerebral 39832
consumers 39824
comprises 39822
sharp 39813
ze@@ 39810
translated 39807
Dynamic 39806
progressed 39806
07 39805
Spontaneous 39802
CML 39786
properly 39785
Br 39776
LA@@ 39775
Tn@@ 39771
127 39768
carboxy@@ 39764
sterile 39748
Mod@@ 39742
long@@ 39739
-2@@ 39736
lot 39733
Cer@@ 39724
age- 39679
collaborative 39676
ethics 39674
frog 39645
removing 39642
121 39640
febrile 39626
columns 39624
phon@@ 39617
berg 39616
entr@@ 39614
75@@ 39600
0.96 39599
camera 39595
anions 39592
Alcohol 39565
End@@ 39560
cyclooxygenase 39560
whilst 39549
resultant 39541
posed 39530
Sol@@ 39525
psychometric 39522
118 39520
X1 39516
oti@@ 39510
ely 39505
GP@@ 39498
von 39495
ball 39485
suppressive 39480
sarcoidosis 39477
smear 39472
ogens 39465
whereby 39464
0.007 39450
isomers 39450
wing 39450
highlighting 39438
simulate 39437
portions 39435
NK@@ 39425
Nuclear 39418
So 39393
hamsters 39389
Sex 39386
Thirteen 39376
ancy 39373
Calcium 39369
counter 39361
gal@@ 39358
CAR 39356
seminal 39353
microsatellite 39350
proteolysis 39348
bel@@ 39345
fentanyl 39344
preferential 39343
-1.@@ 39342
Disorders 39324
Mediterranean 39313
tuning 39312
cooperation 39308
homogeneity 39293
readmission 39282
testes 39282
MF@@ 39278
papillomavirus 39249
name 39239
Reduction 39229
anus 39229
0.97 39224
Real 39220
ND@@ 39208
VD 39194
disturbed 39187
ders 39182
supine 39178
engage 39173
ute 39172
istic 39169
pools 39169
shapes 39161
Ste@@ 39157
ecosystems 39157
forensic 39156
acceptability 39150
-di@@ 39146
Radiation 39140
t1 39134
treadmill 39130
Lin@@ 39123
cava 39118
Sc@@ 39117
transiently 39096
A4 39095
indexes 39088
Ed@@ 39085
acutely 39083
Aut@@ 39053
indole 39045
mann 39044
transported 39035
ileal 39025
backbone 39016
hyperthermia 39015
subarachnoid 39007
Medicaid 39005
simplified 39003
ö@@ 39002
inated 38993
ophilic 38987
Mi@@ 38984
BBB 38981
Disorder 38973
hol@@ 38969
Monitoring 38965
don@@ 38965
consist 38932
cow 38931
BE 38923
scarce 38917
achievement 38916
08 38902
Logistic 38898
detergent 38897
anaemia 38892
Sn@@ 38891
Committee 38888
Bax 38882
prey 38876
Overexpression 38848
isometric 38847
quantitation 38840
River 38839
ce 38832
die 38831
ices 38830
otoxic 38829
format 38827
ff 38826
Pearson 38815
replace 38809
ene@@ 38800
arousal 38793
HepG2 38790
continuity 38782
neuropathic 38781
aqu@@ 38775
belong 38775
La@@ 38771
9,@@ 38770
Lys@@ 38770
stopped 38757
dermat@@ 38752
collecting 38747
dysregulation 38746
Bre@@ 38729
infiltrating 38726
laparoscopy 38715
49@@ 38714
Epstein 38700
Next 38692
GLP 38683
parenchymal 38683
rhythms 38680
solving 38679
tins 38667
collect 38663
inheritance 38660
vertebrates 38655
tation 38653
cornea 38651
histocompatibility 38651
Symptoms 38650
Mat@@ 38637
Objectives 38636
measles 38617
colonoscopy 38611
Active 38598
mimicking 38598
210 38593
Swedish 38583
VTE 38577
subtle 38570
ord@@ 38568
grew 38565
corresponds 38563
morphologically 38547
Clinic 38542
ylo@@ 38540
ially 38532
neutropenia 38526
Barr 38521
trigeminal 38502
CLL 38496
modules 38486
Py@@ 38484
thirds 38483
acetylation 38482
clock 38481
ties 38477
hyp@@ 38472
organelles 38457
icin 38451
lysozyme 38447
ox 38446
favourable 38435
TV 38417
genesis 38414
ears 38410
mandible 38408
Lewis 38407
gliomas 38406
trabecular 38395
peritonitis 38391
0.008 38387
fractionated 38371
haemorrhage 38371
surrogate 38366
133 38358
http 38331
1982 38326
neuroimaging 38302
Average 38301
Environmental 38299
atropine 38294
covalently 38293
cooperative 38286
explicit 38277
ara 38269
sociodemographic 38266
symmetric 38258
eti@@ 38253
waiting 38252
accompanying 38251
workplace 38251
coat 38240
ascorbic 38238
antipsychotic 38215
formalin 38213
EE 38211
GB 38211
Responses 38208
performances 38197
valent 38194
anes 38185
o- 38183
ECT 38179
overexpressing 38175
arin 38170
MV@@ 38162
cyclosporine 38162
mandatory 38153
choroidal 38148
Cat@@ 38147
xyl@@ 38145
endometrium 38140
ino 38136
clustered 38131
British 38121
ABA 38111
scalp 38110
People 38105
ubiquitous 38102
RNase 38097
proteomic 38097
nitros@@ 38090
intoxication 38086
Learning 38079
Cre@@ 38077
labour 38070
primed 38059
Sw@@ 38057
otrophic 38056
bottom 38045
Immune 38041
aetiology 38038
pressor 38028
check 38027
divergent 38023
curvature 38021
geriatric 38020
FOX@@ 38011
AST 37992
Simultaneous 37991
relapsed 37985
ovirus 37984
homocysteine 37980
erythroid 37976
Regional 37972
mucus 37970
physiologically 37968
oligonucleotides 37962
pseudo 37957
Improvement 37941
Cellular 37935
ureteral 37916
discrepancy 37900
formulated 37900
interfaces 37900
tomato 37900
HA@@ 37893
otoxicity 37893
Os 37890
bending 37888
PHA 37874
stigma 37870
catecholamine 37862
144 37859
libraries 37853
prototype 37853
virulent 37850
PDT 37846
glycosylated 37844
lic@@ 37791
Ac 37784
dom@@ 37781
DH@@ 37758
VP 37754
0.94 37749
13C 37749
manufacturing 37749
resolve 37742
AFP 37739
capillaries 37732
mosquito 37725
brush 37724
DHA 37722
REM 37719
ataxia 37715
1983 37712
deoxy 37712
vegetables 37706
eph@@ 37705
splice 37696
220 37692
Dutch 37688
cosmetic 37686
FO@@ 37672
fol@@ 37668
ES@@ 37664
histories 37654
neurotrophic 37649
AOR 37646
stenting 37640
tomographic 37630
Literature 37628
diseased 37628
lining 37624
calcitonin 37623
Continuous 37611
measurable 37597
quasi 37596
1p 37593
calls 37589
aligned 37588
Laparoscopic 37586
one@@ 37575
tam@@ 37575
investigates 37568
coordinate 37553
Nigeria 37544
tears 37544
Adverse 37543
fibrotic 37536
semi@@ 37532
mini 37528
bonded 37525
LM@@ 37523
illustrates 37507
ocytic 37507
sedimentation 37500
ellar 37486
δ 37473
warm 37470
xenograft 37465
0.93 37464
99m 37459
union 37458
anis@@ 37443
cannabis 37442
pyro@@ 37441
guanosine 37438
ik@@ 37437
ecology 37433
ules 37431
ducts 37430
swimming 37420
macroscopic 37419
oils 37419
specialty 37417
Cases 37406
operational 37404
sickle 37404
funding 37401
0.92 37379
Animals 37379
thromboembolism 37377
opposed 37368
Rel@@ 37366
arc@@ 37365
icus 37361
Stem 37358
tures 37349
tac@@ 37337
germination 37333
pec@@ 37327
Training 37321
displaced 37321
ga@@ 37321
nifedipine 37318
rous 37314
came 37307
sel@@ 37304
leaving 37301
leak 37298
reinforcement 37296
137 37293
C6 37284
hospitalizations 37284
answer 37281
Dose 37280
endo@@ 37279
hypothesize 37279
extracorporeal 37278
LOS 37270
horse 37270
AO 37257
VE 37254
ped 37249
attentional 37247
seek 37232
antidepressants 37231
protecting 37218
attenuates 37216
para@@ 37216
explores 37215
NAC 37209
undetectable 37209
combine 37202
appropriately 37176
46@@ 37173
Mechanisms 37171
tensile 37164
cope 37149
Leishmania 37120
Pd 37113
condensation 37112
Phen@@ 37105
internalization 37103
gamma@@ 37087
rectomy 37083
gs 37077
44@@ 37062
droplets 37059
manifest 37059
responsibility 37059
analogous 37055
naïve 37054
decarboxylase 37038
vitreous 37035
methylene 37032
silent 37030
231 37029
morphogenesis 37019
Investigation 37010
pharmacists 37000
bet@@ 36992
ciprofloxacin 36985
dedicated 36975
osteogenic 36969
Project 36959
note 36957
pharmac@@ 36954
maze 36946
Prognostic 36942
dominance 36941
ode 36941
theta 36933
reality 36930
sorting 36929
serotypes 36917
ceramic 36913
suspensions 36909
Biological 36903
curcumin 36894
0.89 36886
Improved 36880
0.88 36872
triggering 36870
Over@@ 36862
journals 36856
tetrahydro@@ 36852
0.83 36845
seedlings 36843
cities 36841
gam@@ 36840
EPO 36839
conflicting 36826
plan@@ 36825
preserving 36824
impacted 36822
inpatients 36820
Surprisingly 36813
Mis@@ 36812
Oc@@ 36809
press 36807
tra@@ 36797
expectancy 36796
Src 36792
somatosensory 36791
To@@ 36789
UL@@ 36789
pharyngeal 36787
trich@@ 36785
Double 36765
emptying 36762
119 36758
j 36755
diploid 36749
positioned 36743
valvular 36743
icular 36731
phone 36730
Vol@@ 36722
Glucose 36719
Mes@@ 36715
administrative 36715
imid@@ 36713
™ 36709
nationwide 36684
cytoskeletal 36682
kin 36679
Dental 36676
Pan@@ 36674
ulus 36669
RAS 36662
Common 36661
donation 36653
EV 36643
Reduced 36643
encourage 36641
sugars 36623
farm 36617
Em@@ 36597
ostomy 36578
compromise 36572
rip@@ 36562
transgene 36553
ultimate 36546
instrumental 36527
adjunct 36526
AMPK 36521
ales 36518
periphery 36501
SIGNIFICANCE 36489
traditionally 36488
blast@@ 36485
6- 36482
CON@@ 36482
isoproterenol 36477
regulations 36469
V1 36464
0.91 36462
infective 36460
transducer 36438
MC@@ 36428
Path@@ 36417
drying 36412
Production 36408
conception 36408
tibia 36406
exacerbation 36400
scientists 36396
satellite 36393
0.86 36386
flora 36386
attained 36378
Spinal 36375
oligosaccharides 36373
branching 36371
signatures 36366
ast 36357
endocytosis 36352
modulus 36351
distinguishing 36348
interpersonal 36345
gastrectomy 36339
editing 36338
elusive 36332
1,25 36327
globally 36327
anthropometric 36324
rDNA 36324
synchronous 36324
PU@@ 36322
ERK1 36312
MN@@ 36309
deleted 36306
observers 36306
zer 36296
melanogaster 36290
emotions 36281
microbiological 36275
Lactobacillus 36273
atrium 36269
Inflammatory 36263
Notably 36260
biotin 36258
Ha@@ 36257
99mTc 36253
percentile 36248
practitioner 36245
dyspnea 36238
TLR4 36237
trade 36235
arteri@@ 36233
sup@@ 36232
ete 36227
encouraging 36226
mitosis 36212
conformations 36205
Plant 36198
superfamily 36197
138 36188
diaphragm 36183
pores 36183
puberty 36182
latest 36178
Super@@ 36171
seropositive 36165
Myocardial 36161
configurations 36161
mal 36160
Delta 36159
activators 36158
0.87 36156
Rating 36156
indeed 36154
interquartile 36154
globin 36153
Meanwhile 36148
heavily 36144
irrigation 36144
16.@@ 36134
contaminants 36134
osseous 36130
Sil@@ 36128
walk 36128
Hepatic 36121
phasic 36116
habitats 36112
grafted 36106
shortened 36106
sensation 36091
tracts 36079
neo@@ 36078
midline 36056
DN 36054
impair 36052
colon@@ 36051
leadership 36051
dyes 36038
ventilatory 36027
0.13 36022
0.11 36020
river 36020
ome@@ 36015
qualitatively 36013
eastern 36008
informative 36004
microRNAs 35985
managers 35984
FA@@ 35983
Pacific 35976
alisation 35976
primates 35975
discontinued 35973
commitment 35966
consumer 35965
theophylline 35956
conjugation 35951
discussions 35951
methodologies 35950
ather@@ 35948
hel@@ 35943
FV 35936
AMD 35930
dysphagia 35925
Hb@@ 35919
arch@@ 35905
expertise 35904
political 35899
10.5 35890
Gly@@ 35887
ental 35880
lists 35878
manganese 35877
Subsequent 35874
duodenum 35873
0.78 35859
asc@@ 35856
introducing 35848
hi@@ 35835
0.14 35826
mannose 35822
PBMC 35815
AAA 35814
caregiver 35814
pedicle 35798
PKA 35795
characterizing 35790
career 35777
hope 35773
tica 35772
Practice 35771
TG@@ 35766
iodide 35753
raising 35753
Interleukin 35738
Negative 35732
ADC 35731
collapse 35730
prop@@ 35726
butyl 35722
competent 35719
prim@@ 35715
proteomics 35704
Fil@@ 35702
ascertain 35696
HV 35686
persist 35672
ciliary 35669
intelligence 35663
-9 35658
Regarding 35642
Hs 35631
hydrocarbons 35631
clonidine 35629
artifacts 35625
pathogenicity 35625
arity 35624
vagal 35616
ozone 35610
CPR 35588
ographically 35587
DFT 35583
VC 35573
Gastric 35566
EMBASE 35557
luteal 35549
stochastic 35546
Though 35543
FH 35536
Intervention 35534
O1 35520
Eighteen 35519
ger 35505
Like 35498
Cur@@ 35493
Behavior 35492
nitr@@ 35478
olin 35475
radiology 35475
addresses 35472
burns 35469
problematic 35461
SG@@ 35458
PCP 35449
Prote@@ 35449
reconstituted 35447
weaker 35444
PAR@@ 35438
PPI 35434
PAP 35414
thinking 35413
rhesus 35407
thermodynamic 35394
vari@@ 35384
polar@@ 35383
izations 35374
Congenital 35362
solved 35352
PTEN 35347
0.84 35345
telomerase 35316
slice 35311
thesis 35311
ater@@ 35306
IMPLICATIONS 35302
pneumococcal 35297
posture 35295
UA 35294
Gal 35293
alternate 35291
KA 35288
CY@@ 35281
Mor@@ 35277
neurotoxicity 35272
platforms 35267
PLA 35265
anionic 35265
volumetric 35265
B3 35248
0.16 35246
iod@@ 35241
alkyl@@ 35240
exclusive 35240
foundation 35240
CGRP 35227
mineralization 35222
germline 35218
INTERVENTIONS 35207
uncomplicated 35205
ba@@ 35189
illin 35189
MAP@@ 35180
discharges 35179
Biochemical 35176
sport 35172
MDS 35165
ALP 35157
resilience 35141
transc@@ 35140
sparse 35133
cathepsin 35130
freshwater 35128
perturbation 35127
0.0 35123
ley 35117
blunt 35115
desorption 35114
oic 35113
nested 35112
subcutaneously 35107
190 35104
doc@@ 35090
0.35 35072
BO@@ 35065
compact 35060
ulnar 35060
adapt 35055
associate 35044
screws 35044
repressor 35043
aryl@@ 35037
raises 35030
Saudi 35024
glucocorticoids 35024
vasoconstriction 35023
chi@@ 35022
tan@@ 35012
atr@@ 35010
households 35006
elling 34997
osus 34993
instrumentation 34984
capacities 34980
strict 34973
nodular 34964
0.82 34963
starvation 34963
stri@@ 34963
spray 34959
parotid 34958
Nrf2 34957
IQ 34947
Rat 34945
SAH 34943
packed 34940
affinities 34938
Formula 34933
CRISPR 34929
unfavorable 34928
55@@ 34908
gastrin 34908
Multi 34899
sted 34893
0.90 34886
prescriptions 34885
ain 34884
BL@@ 34882
unsaturated 34882
ogenetic 34879
attenuate 34878
compositions 34851
insoluble 34846
coherent 34840
reactivation 34840
island 34837
NH2 34836
serving 34835
vir 34834
phy@@ 34833
Tel@@ 34826
ell 34823
freedom 34823
individualized 34823
osin 34820
crops 34817
poses 34817
ovaries 34814
carcinogenic 34810
nicotinic 34807
steel 34802
cytosine 34801
micelles 34800
passed 34800
Advanced 34798
1981 34794
travel 34793
diazepam 34790
biased 34787
farms 34787
penile 34767
stems 34763
altitude 34762
O3 34757
bFGF 34756
cofactor 34750
methoxy@@ 34740
package 34739
sciatic 34736
realized 34735
insomnia 34734
comprise 34733
Hal@@ 34732
NL@@ 34730
beats 34728
sign@@ 34719
homogenates 34715
PLC 34712
cobalt 34710
figures 34708
LD@@ 34705
taxonomic 34704
mosaic 34702
nasopharyngeal 34700
ber@@ 34699
TNF@@ 34696
primate 34691
inverted 34683
technological 34678
0.45 34674
IP@@ 34672
0.80 34669
equine 34664
SCD 34661
province 34660
mask 34658
nos@@ 34649
atively 34648
Students 34647
dium 34647
neuropeptide 34636
sacrificed 34635
bactericidal 34631
A549 34625
marital 34614
oxo 34612
torque 34610
pups 34607
esterase 34605
bradykinin 34601
FD 34600
200@@ 34593
ented 34587
neph@@ 34586
Numerous 34584
Mg@@ 34576
Nutrition 34574
bar 34569
fossa 34568
metry 34566
Kidney 34551
kD 34548
uncontrolled 34548
adiponectin 34547
cultivars 34543
EL@@ 34539
tremor 34537
linker 34529
additionally 34528
exclude 34527
blast 34524
hu@@ 34523
bring 34520
Platelet 34501
ods 34501
Late 34485
beef 34482
tocopherol 34482
ry 34475
forebrain 34472
sterol 34472
VS 34469
smears 34468
itr@@ 34453
KS 34442
pin 34440
crest 34437
carbohydrates 34433
Notch 34426
determinations 34416
classify 34411
Associations 34404
139 34403
ises 34403
bite 34399
originated 34395
cirrhotic 34389
0.76 34386
telomere 34378
noticed 34376
0.81 34370
hydr@@ 34366
charges 34363
broadly 34356
possessed 34355
1.01 34349
gating 34348
goats 34348
spores 34341
packing 34334
suited 34316
carbonate 34314
parity 34309
EVIDENCE 34306
oxygenase 34306
Unit 34304
ule 34301
acquire 34296
silico 34291
substitute 34290
sheets 34287
troponin 34274
diarrhoea 34267
2,2 34258
sin 34250
KCl 34244
Effective 34240
ola 34238
titration 34234
s.c. 34232
Kingdom 34224
accelerate 34223
hydrogels 34222
personalized 34220
That 34194
solve 34173
Rb 34172
odon@@ 34172
10.0 34169
instance 34156
Behavioral 34150
lncRNAs 34134
uninfected 34134
plain 34133
Glyc@@ 34132
alize 34128
lambs 34126
scavenging 34120
Immuno@@ 34114
10,000 34106
prolongation 34106
Sur@@ 34105
spanning 34093
Library 34092
menopause 34092
ura 34089
pole 34087
closer 34086
aided 34084
Eastern 34079
nail 34076
ocyt@@ 34073
junctional 34069
supernatants 34066
142 34054
texture 34050
Lipid 34049
molars 34044
sep@@ 34041
driver 34038
vapor 34038
buccal 34029
Men 34023
illumination 34020
lig@@ 34013
1.02 34008
Intr@@ 33999
faced 33998
ont@@ 33995
Fisher 33994
progeny 33991
Energy 33990
glia 33987
fire 33977
assignment 33967
acc@@ 33959
Experience 33958
amycin 33956
amorphous 33954
inspiratory 33953
Tg 33952
OD 33951
0.77 33936
nt 33936
izumab 33934
schizophrenic 33934
conjunctival 33931
Healthy 33922
prolapse 33922
ently 33918
Hel@@ 33915
EB 33912
DBP 33908
ful@@ 33902
distinction 33897
undifferentiated 33896
HRV 33879
mining 33878
ple 33878
keeping 33875
MetS 33870
mucin 33868
daytime 33861
vulgaris 33856
colloidal 33850
nanotubes 33846
omic 33842
MH 33838
radiologists 33837
Properties 33823
immunogenicity 33823
Approach 33810
Partial 33804
destructive 33804
xanthine 33801
lacks 33800
134 33793
Qualitative 33792
tilt 33773
rough 33772
165 33759
Sec@@ 33755
monocytogenes 33751
oid@@ 33743
newer 33734
alloy 33731
vacuum 33730
triphosphate 33726
residential 33725
potato 33721
suboptimal 33721
stabilize 33720
caution 33718
tablet 33717
fill 33715
alb@@ 33712
Kd 33705
11.2 33692
Highly 33692
fying 33686
afferents 33685
SPSS 33677
e.@@ 33676
interpret 33676
trib@@ 33664
transitional 33663
abl@@ 33659
replicated 33655
B6 33644
propyl 33641
Rho 33638
Instead 33636
Ra@@ 33627
deeper 33611
VII 33606
versatile 33605
mutagenic 33599
feet 33598
mammography 33592
Prostate 33591
Formation 33588
Unfortunately 33585
dor@@ 33570
Bro@@ 33565
ples 33564
recommendation 33552
osteoblasts 33547
Carcinoma 33546
dendrites 33536
overt 33536
0.74 33520
outline 33513
Once 33512
Linear 33510
hepatoma 33510
glyc@@ 33509
pericardial 33506
LR@@ 33504
galactosidase 33498
acti@@ 33495
beat 33492
Haem@@ 33478
osine 33477
nu@@ 33473
Mu@@ 33469
Membrane 33467
otyping 33467
ti 33462
VF 33457
intraperitoneally 33449
schemes 33449
ei@@ 33445
acetabular 33438
transfusions 33430
adenocarcinomas 33418
concentrate 33417
fos 33407
yg@@ 33406
recycling 33405
retain 33399
locomotion 33390
FI 33379
disposition 33379
jaw 33379
Bor@@ 33361
onium 33360
flavonoids 33357
facing 33341
ire 33335
B4 33328
gelatin 33326
skeleton 33316
moisture 33315
hepatectomy 33310
plantar 33308
HGF 33302
adaptations 33299
ruptured 33293
0.71 33291
Mit@@ 33291
0.79 33290
da@@ 33289
stated 33288
0.18 33274
entering 33261
my 33259
catecholamines 33257
ably 33253
AChE 33246
postprandial 33241
seq 33239
pac@@ 33231
amin 33225
positional 33222
ogenicity 33220
helped 33216
FR@@ 33207
housing 33206
repeatedly 33206
MG@@ 33205
holding 33204
knees 33203
Fos 33190
psychiatry 33187
Key 33183
worms 33181
uclear 33177
elution 33176
UT@@ 33162
ein 33159
stakeholders 33157
143 33147
granulosa 33147
methyltransferase 33135
dig@@ 33131
alpha- 33128
trapping 33124
confounders 33122
multiplex 33115
deprived 33114
cruciate 33110
chemokines 33106
Az@@ 33102
del 33097
ne 33092
atically 33089
lactamase 33076
entropy 33068
eta 33047
tap@@ 33041
symptomatology 33036
ouabain 33035
Demographic 33034
175 33031
outlined 33028
0.65 33025
preserve 33020
SER@@ 33019
enkephalin 33014
legs 33012
jugular 33007
replicate 32997
BN 32994
lay 32994
ey@@ 32989
prednisolone 32986
pharmacology 32983
CX@@ 32978
eter 32976
coastal 32970
homolog 32962
inexpensive 32962
uniformly 32956
earliest 32951
0.73 32949
bacteremia 32949
FL 32947
quenching 32943
occupied 32928
Combination 32919
nitro 32913
amyl@@ 32908
twelve 32905
BRCA1 32900
approximate 32892
suspended 32892
CG@@ 32885
reactor 32884
μ@@ 32882
automatically 32877
Carbon 32873
washing 32868
ticks 32866
restenosis 32865
ect 32863
gn@@ 32860
anisotropy 32859
147 32856
broth 32854
wise 32849
benzyl 32847
inus 32834
cel@@ 32830
proteome 32826
antim@@ 32822
pyrene 32822
1.03 32819
atives 32818
posttraumatic 32809
somat@@ 32809
gondii 32802
Distribution 32801
fair 32796
Embase 32791
hydrocephalus 32791
PFC 32784
ORs 32781
FN 32778
medically 32778
duc@@ 32772
Province 32767
ame@@ 32764
programming 32764
C5 32762
consolidation 32759
dop@@ 32756
indoor 32756
ribose 32755
constrained 32754
dentate 32748
thyro@@ 32746
missense 32740
caring 32734
HSP@@ 32723
oedema 32708
permitted 32705
rot@@ 32703
scattered 32699
153 32697
Chi 32697
dealing 32696
adduct 32681
dot 32680
monomers 32665
ACs 32662
delivering 32660
0.17 32658
ky 32655
biofilms 32650
rights 32647
specificities 32645
agencies 32644
dots 32644
anomalous 32638
intramolecular 32634
BK 32633
biom@@ 32630
intolerance 32629
Sexual 32623
TION 32612
TN@@ 32600
acid@@ 32598
oyl 32574
carboxylic 32571
enrollment 32570
10,@@ 32568
Student 32562
continuum 32552
orthopedic 32547
appearing 32544
shoot 32540
trap 32533
disadvantages 32528
iasis 32518
0.50 32510
baby 32510
ICH 32501
eness 32500
operon 32498
FF 32494
cultivated 32489
Comparing 32475
otherapy 32474
music 32471
dy@@ 32465
odes 32464
stably 32461
searching 32453
agarose 32452
Systems 32449
independence 32447
literacy 32438
Hypertension 32432
recover 32432
radiofrequency 32431
Str@@ 32422
cutting 32418
reoperation 32417
phosphodiesterase 32416
retest 32416
far@@ 32404
freely 32401
scoliosis 32401
traction 32401
low@@ 32395
136 32391
repertoire 32380
intrahepatic 32368
cro@@ 32356
elevations 32356
Heter@@ 32350
modulators 32350
collective 32349
FE@@ 32345
IBS 32343
erosion 32340
EX@@ 32336
mastectomy 32324
begin 32321
convenience 32320
explaining 32320
Jun 32311
undergoes 32310
HRP 32306
familiar 32289
CD44 32264
exploited 32263
immunoblotting 32263
retroperitoneal 32256
piglets 32255
SMC 32248
1.05 32244
aggregated 32239
van@@ 32235
glandular 32224
ophthalmic 32207
eling 32206
makers 32204
etes 32198
RB 32195
psychopathology 32195
Oxidative 32186
mission 32186
Mn@@ 32185
outgrowth 32178
extends 32167
opathic 32152
arises 32150
amyloidosis 32146
occasions 32141
panic 32131
2nd 32127
PPV 32124
compares 32120
Ia 32115
ched 32107
erythro@@ 32107
rhin@@ 32107
Open 32101
é 32093
4A 32087
cage 32086
capsular 32086
thyroxine 32083
Val 32081
gonadal 32080
ref@@ 32079
glomerulonephritis 32078
Mouse 32069
Me 32065
spar@@ 32061
enz@@ 32058
charts 32054
ams 32053
mutational 32045
neutralization 32045
prednisone 32044
agglutination 32042
benzo 32040
unexplained 32039
1,0@@ 32029
gravity 32029
attracted 32025
typhimurium 32011
initiatives 32005
chlorophyll 32003
que 32002
gh@@ 32000
lactose 31997
occult 31991
oxides 31991
playing 31987
searches 31987
approximation 31985
microfluidic 31982
sters 31981
Animal 31980
melting 31980
radio 31980
0.009 31979
56@@ 31975
154 31971
thaliana 31969
0.20 31967
Klebsiella 31963
chemotactic 31954
eNOS 31953
inyl 31953
desensitization 31952
electrons 31950
durations 31936
1.04 31935
mechanically 31931
dissected 31929
retroviral 31907
stock 31907
Can 31906
17.@@ 31903
bundles 31901
bupivacaine 31901
refined 31901
eosinophil 31899
histochemical 31898
BNP 31891
Ger@@ 31884
leg@@ 31883
audit 31881
opportunistic 31871
suggestions 31871
cast 31866
water@@ 31859
Percutaneous 31850
impairs 31847
game 31840
BMT 31834
frames 31832
vers 31830
sor@@ 31827
rhiz@@ 31823
layered 31821
CBT 31817
latex 31811
chloroplast 31810
Enter@@ 31803
Genes 31801
dielectric 31801
Severity 31800
So@@ 31792
Lymph@@ 31782
Sup@@ 31775
residency 31773
Physicians 31769
inducer 31762
explains 31760
141 31758
NP@@ 31756
distortion 31753
conver@@ 31750
ribosome 31750
monomeric 31749
disclosed 31748
-based 31746
gate 31745
facilitation 31718
CSA 31713
dehydration 31713
BG 31711
FTIR 31706
Dual 31698
roc@@ 31685
ai 31684
purity 31683
cotton 31680
leave 31679
forty 31678
uveitis 31671
aiming 31667
Intravenous 31666
frailty 31662
Mechanical 31661
3rd 31657
DFS 31656
lncRNA 31653
AQ@@ 31650
&apos;t 31648
modulator 31648
anorexia 31642
B12 31640
gastritis 31639
glycolysis 31628
Aim 31621
scopy 31621
ato 31620
combines 31619
Significantly 31616
Register 31614
haloperidol 31608
methicillin 31607
ESRD 31593
DOX 31592
otitis 31590
Mitochondrial 31589
esteem 31579
lying 31577
diethyl@@ 31574
Measures 31573
Laser 31571
lor@@ 31569
ation@@ 31566
NR 31563
protein@@ 31561
Zn@@ 31559
0.67 31550
Pregnancy 31546
monophosphate 31539
ventilated 31537
liter 31535
delta@@ 31530
0.025 31529
MHz 31526
receptive 31518
Republic 31517
thymocytes 31514
declines 31512
Recovery 31511
draw 31493
polysaccharides 31492
chorionic 31486
isoelectric 31477
repaired 31476
productive 31467
moieties 31466
friendly 31462
veterinary 31462
benzodiazepine 31459
hist@@ 31451
GABAergic 31446
Purkinje 31443
0.72 31437
fundus 31426
niche 31426
Oncology 31425
lacked 31419
152 31411
para 31408
vimentin 31406
yolk 31403
arthroscopic 31402
MCA 31400
theoretically 31399
NSAIDs 31396
Sodium 31396
efficiencies 31391
versions 31386
Bal@@ 31382
146 31377
proposes 31374
clean 31369
excreted 31368
postmortem 31367
Recombinant 31360
coronal 31360
11.5 31359
Bilateral 31359
Go@@ 31359
On@@ 31350
strictly 31350
cef@@ 31348
polymorphonuclear 31344
mul@@ 31334
PRP 31323
Cost 31317
not@@ 31300
capsaicin 31298
crown 31294
litter 31292
mas@@ 31290
welfare 31285
emergent 31283
adversely 31278
vo@@ 31277
EP@@ 31276
au 31266
narrative 31266
ual 31264
18.@@ 31262
documents 31260
Surveillance 31259
bean 31253
cavities 31248
Epidemiology 31245
ulf@@ 31244
antagonism 31241
fifty 31238
undergraduate 31231
mix 31225
atrioventricular 31223
therapists 31220
quick 31216
kHz 31207
straight 31206
Nurses 31195
strips 31195
rapamycin 31193
erythropoietin 31181
purine 31178
chloroquine 31177
methoxy 31176
chromium 31175
TIMP 31170
Conventional 31168
pyrimidine 31167
MET 31162
0.22 31156
hep@@ 31150
EUS 31148
flanking 31144
P2@@ 31137
vegetation 31131
alin 31126
notable 31125
iter@@ 31116
ush@@ 31115
pigmented 31112
F4 31109
glyco@@ 31099
Tc@@ 31098
eg 31097
permeable 31095
plot 31089
valence 31085
ank@@ 31079
meter 31078
apex 31074
BA@@ 31073
Trp 31073
twofold 31068
humidity 31063
GMP 31059
logical 31059
allografts 31052
primitive 31043
All@@ 31039
Cry@@ 31038
NHS 31038
Medline 31034
Neonatal 31034
CCR@@ 31027
biotic 31026
www.@@ 31024
characters 31019
phthal@@ 31001
Centre 30999
MPa 30999
Danish 30991
0.70 30989
sion@@ 30989
mia 30979
BAL 30978
sial@@ 30975
UT 30968
ail 30967
ologies 30959
sarcomas 30947
ulin 30947
arranged 30942
TL 30941
tax@@ 30940
chicks 30934
multifactorial 30932
CPB 30931
BPD 30929
electromagnetic 30929
agree 30922
che@@ 30922
kal@@ 30911
Coun@@ 30905
supplied 30901
tuberculous 30900
muc@@ 30897
cytometric 30890
jet 30890
hydrox@@ 30888
displaying 30878
operate 30877
rotavirus 30874
phagocytic 30857
navigation 30855
0.33 30849
encephal@@ 30848
PAHs 30847
eral 30844
tex@@ 30842
Interactions 30839
Lim@@ 30838
Bel@@ 30837
tagged 30835
parenting 30831
everyday 30828
ARDS 30821
resembling 30820
methacrylate 30818
ile@@ 30799
interfacial 30799
partum 30786
ploidy 30785
ococcus 30784
QTL 30778
peric@@ 30777
comfort 30776
immunoglobulins 30769
Carb@@ 30761
IHC 30756
Diabetic 30751
contextual 30737
inoc@@ 30735
neurodegeneration 30733
spacer 30730
carbon@@ 30725
algae 30722
worked 30709
offering 30707
Special 30706
168 30705
elastase 30701
Plas@@ 30690
aded 30690
moral 30687
clarified 30681
Rob@@ 30679
Services 30678
delirium 30678
embry@@ 30678
Neural 30677
Lp 30676
Frequency 30675
physi@@ 30674
spiral 30670
dwelling 30668
DU@@ 30667
asing 30662
anastomotic 30660
Mid@@ 30657
thromboxane 30657
writing 30657
alternating 30647
bac@@ 30645
F3 30644
analytes 30642
energetic 30641
onin 30641
MK@@ 30635
sister 30633
nosocomial 30630
dihydroxy@@ 30627
biogenesis 30626
cal 30625
diaz@@ 30624
mediation 30612
dropped 30610
CTA 30607
CIs 30606
dol@@ 30601
meals 30599
inferred 30594
glutamic 30587
extensor 30578
NAME 30575
intra- 30575
harvesting 30569
constipation 30555
ition 30550
longevity 30550
statins 30548
mitogenic 30546
intracerebral 30544
choose 30542
influenzae 30538
acetone 30525
1D 30523
APS 30515
odal 30515
NHL 30512
discrepancies 30506
poultry 30506
CPT 30496
OCD 30496
phag@@ 30494
VL 30492
γ@@ 30489
ened 30488
carries 30484
subcortical 30480
spor@@ 30479
0.21 30476
hydroxyapatite 30475
EL 30474
microbes 30474
atmosphere 30473
Fluorescence 30465
Critical 30452
hydrocarbon 30451
syphilis 30445
difficile 30442
nigra 30437
veterans 30435
pluripotent 30434
pointed 30431
HRQoL 30420
Angi@@ 30417
visually 30417
secretions 30415
AP1 30405
collagenase 30395
meiotic 30394
belongs 30387
lets 30387
sitting 30385
occlusive 30382
implying 30381
ich 30365
trout 30365
bra@@ 30362
Antibodies 30357
inference 30355
norms 30344
maximize 30333
annually 30326
Do 30325
lobes 30321
uring 30320
vasodilation 30319
Vibrio 30317
osteoblast 30317
foam 30315
BP@@ 30312
inotropic 30310
Guidelines 30303
EG@@ 30296
thigh 30287
stand 30281
thio@@ 30280
lasted 30274
eosinophilic 30273
MIP 30272
faecal 30266
phi 30266
0.24 30265
salinity 30258
BCR 30252
constriction 30252
haemat@@ 30249
extrinsic 30248
DES 30245
pesticide 30236
neurogenic 30235
Thr 30231
regards 30231
Pressure 30229
plas@@ 30225
atresia 30224
Vmax 30218
HG@@ 30217
HG 30211
Chem 30202
cap 30199
REVIEW 30193
epithelia 30191
feed@@ 30191
nas@@ 30191
degrading 30188
genomics 30188
psychotherapy 30185
VO2 30183
adrenaline 30175
viewing 30175
filtering 30168
gases 30166
VLDL 30163
Healthcare 30158
adine 30158
RM 30157
ils 30156
swallowing 30156
Mac@@ 30142
Out@@ 30136
soci@@ 30136
streptozotocin 30136
keep 30134
formaldehyde 30127
trachea 30127
Validation 30124
Ga@@ 30123
Swiss 30123
ectomized 30114
eli@@ 30114
PAR 30113
effluent 30109
scal@@ 30108
flexor 30098
train 30094
feces 30091
plic@@ 30089
Thyroid 30086
Thi@@ 30084
files 30070
grains 30069
topography 30063
Iron 30062
Weight 30062
Norway 30057
increment 30055
ergic 30053
EN 30050
coenzyme 30049
serous 30045
Sym@@ 30035
scanner 30030
Can@@ 30029
probing 30029
descriptions 30027
droplet 30027
vit@@ 30027
inbred 30022
35S 30021
BPA 30020
Ru@@ 30020
Modified 30017
embryogenesis 30017
holds 30016
recognised 30013
torsion 30012
Support 30005
TO 29998
basolateral 29997
AIS 29995
Fo@@ 29994
AGE 29987
Mel@@ 29987
Dys@@ 29986
emphasizes 29979
retarded 29979
calculating 29974
Fetal 29972
ampicillin 29969
neutron 29962
robustness 29961
morphometric 29955
# 29950
hoc 29942
imag@@ 29942
amb@@ 29941
adopt 29935
dispersal 29930
Inf@@ 29929
big 29913
pay 29901
Targeting 29893
thrombolysis 29890
T2D 29889
Mexican 29888
Rot@@ 29885
Aff@@ 29883
comes 29881
0.19 29880
resections 29880
savings 29869
suitability 29869
utero 29862
Middle 29858
visu@@ 29858
Sea 29857
Daily 29855
predisposing 29851
acr@@ 29850
0.32 29849
ocele 29847
subpopulation 29845
explants 29843
Ontario 29837
V2 29837
tile 29833
Hol@@ 29832
zeta 29832
QRS 29828
ues 29823
immunomodulatory 29821
ania 29820
Photo@@ 29817
predisposition 29815
D4 29814
fairly 29814
TKA 29812
hydroxylation 29812
mortem 29810
ible 29804
bi 29800
IGF@@ 29791
0.23 29789
crossing 29787
ace@@ 29781
HFD 29780
CU@@ 29777
bilaterally 29775
Chem@@ 29766
harboring 29761
ame 29755
exc@@ 29754
acetyltransferase 29743
PTC 29740
Strategies 29738
5A 29734
Seventeen 29734
mentation 29730
perturbations 29720
char@@ 29715
saving 29711
dying 29709
La 29706
Genomic 29705
TU@@ 29703
plex 29697
GDM 29696
hematocrit 29696
calc@@ 29694
varieties 29693
MAC 29678
feelings 29677
appendicitis 29676
Motor 29673
chemotaxis 29671
1979 29669
2C 29668
abstinence 29666
propionate 29663
jaundice 29661
myco@@ 29659
Ec@@ 29657
ust 29654
Main 29649
0.55 29634
brachytherapy 29628
Metal 29623
1.06 29619
itable 29617
900 29614
0.68 29606
trache@@ 29604
Act 29603
Concentrations 29589
etic 29588
dissociated 29583
tricuspid 29583
CFTR 29582
L4 29579
graphic 29575
fluor@@ 29570
k1 29565
confers 29564
Chlamydia 29559
fails 29557
Sepharose 29553
easier 29544
ged 29541
sus 29540
dosages 29539
xanth@@ 29538
Pancreatic 29534
cle 29532
0.000 29525
diluted 29517
0.66 29516
PCNA 29515
endonuclease 29515
listed 29512
Models 29500
ow 29500
desire 29497
exceeding 29494
rou@@ 29494
prostaglandins 29493
xenografts 29489
effectors 29479
client 29475
oli@@ 29475
advancement 29469
etiologies 29468
multimodal 29463
profession 29456
BC@@ 29452
episodic 29448
orthopaedic 29448
catalyzes 29444
alginate 29434
sulfide 29428
Effectiveness 29425
assurance 29415
pol 29400
Iso@@ 29397
Cys@@ 29396
neighboring 29396
vegetable 29395
elemental 29394
DVT 29387
hyperparathyroidism 29385
Trypanosoma 29377
karyotype 29375
RFLP 29372
aemic 29372
keto 29372
mimics 29371
Cervical 29370
capsid 29359
sensorimotor 29350
denervation 29334
sensitivities 29329
Ho@@ 29320
Testing 29319
stretching 29319
EPR 29315
discs 29301
rine 29299
TiO2 29298
79@@ 29290
es--@@ 29289
SCT 29284
gathered 29284
pouch 29282
ora 29281
low- 29276
Optical 29273
msec 29272
0,@@ 29268
atal 29268
radiolabeled 29267
coll@@ 29265
MSM 29257
nat@@ 29244
pressing 29238
phosphates 29236
148 29225
predominance 29208
0.63 29207
rim@@ 29202
sigmoid 29202
try 29199
taurine 29192
Malignant 29189
transcranial 29185
vasoactive 29182
Ker@@ 29181
integrative 29181
speaking 29179
substantia 29174
quarter 29168
chromat@@ 29161
evaluates 29158
placing 29158
restorations 29156
County 29154
convergence 29152
Advances 29150
151 29148
Internal 29141
fluxes 29136
forskolin 29125
occupation 29124
encapsulation 29118
0.56 29117
RELEVANCE 29114
205 29113
eGFR 29113
trust 29111
psychology 29110
localize 29109
cholera 29104
genotyped 29102
MMC 29092
aver@@ 29089
quantifying 29089
controversy 29088
omet@@ 29086
butyrate 29084
indistinguishable 29084
export 29080
DBS 29077
erythromycin 29077
Modulation 29071
alc@@ 29071
C.@@ 29069
tried 29068
isi@@ 29064
thym@@ 29064
0.69 29063
obviously 29063
Streptomyces 29062
bacteriophage 29062
Lip@@ 29057
RCT 29050
reinforced 29047
south 29042
immunogenic 29039
Improving 29033
tase 29031
cruzi 29022
caudate 29018
osum 29018
uscular 29010
succinate 29006
antagonized 29002
Region 28999
tionally 28996
immunocompromised 28981
18F 28978
diurnal 28975
igh@@ 28975
Form 28971
vitamins 28970
harmonic 28968
rest@@ 28968
32P 28964
alpha1 28962
pap@@ 28962
Patterns 28959
Med@@ 28957
wedge 28957
etoposide 28954
aOR 28947
imidazole 28944
0.28 28934
0.64 28924
ligase 28923
Equ@@ 28921
subacute 28917
anaesthetic 28909
photosynthesis 28905
sym@@ 28903
going 28899
sit@@ 28896
micron 28889
Sa@@ 28883
sounds 28883
ass 28880
156 28875
nec@@ 28874
freshly 28866
0.26 28864
kill 28864
Con 28861
patterning 28861
plant@@ 28853
warming 28853
Intracellular 28843
sentinel 28843
mentally 28842
HPA 28841
ewes 28835
Sim@@ 28833
PW@@ 28827
onucle@@ 28827
360 28821
io 28813
Antibody 28812
ü@@ 28812
nanostructures 28810
antic@@ 28809
umin@@ 28809
polycystic 28807
discriminant 28805
Cl2 28801
lation 28798
polyunsaturated 28794
Ther@@ 28786
antiplatelet 28782
prothrombin 28776
ingredients 28775
Interventions 28771
Rab@@ 28771
halothane 28771
PRE@@ 28768
tem@@ 28761
Phylogenetic 28760
multifocal 28757
Optimal 28756
transferases 28755
vid@@ 28754
biocompatibility 28749
ep 28748
stressful 28745
inic 28740
Arterial 28739
herpesvirus 28735
Thailand 28734
permeation 28728
doing 28727
No@@ 28724
Stre@@ 28721
Atlantic 28719
BRAF 28713
lysosomes 28713
TT@@ 28706
blasts 28702
transposition 28700
spir@@ 28698
adequacy 28692
Ax@@ 28689
Transient 28689
attendance 28688
em 28680
oxin 28678
partition 28678
explanations 28672
alleviate 28669
ater 28662
photoreceptor 28662
inase 28658
autonomous 28657
printed 28656
ken 28647
elasticity 28644
itic 28637
references 28635
nociceptive 28619
Peri@@ 28617
MALDI 28610
Status 28604
LEVEL 28599
0.62 28591
emerge 28589
arian 28588
nematode 28578
Maximum 28577
interrupted 28577
53@@ 28573
lamellar 28572
topoisomerase 28569
oblasts 28567
Uro@@ 28562
messages 28562
... 28560
electrocardiogram 28558
ps@@ 28558
oligomers 28553
isoflurane 28550
ry@@ 28550
peaked 28547
filamentous 28546
turned 28541
occluded 28540
Bar@@ 28538
consequent 28533
PCL 28518
biases 28516
olive 28514
ensuring 28508
hemat@@ 28503
hips 28494
lum@@ 28486
probabilities 28482
coronavirus 28481
M. 28475
reconstructions 28473
Fer@@ 28465
partitioning 28465
recognizing 28464
abscesses 28455
ulceration 28452
59@@ 28447
Aden@@ 28447
XR 28447
ha 28446
58@@ 28441
inone 28441
Mag@@ 28436
p16 28431
Joint 28430
2,6 28427
inspired 28426
oscope 28426
estrus 28423
i.@@ 28423
ram 28413
Mo 28412
barley 28410
ventricul@@ 28408
bcl 28407
graph 28407
Orth@@ 28405
granulocytes 28399
secrete 28398
autonomy 28396
Biol 28387
peers 28387
bioinformatics 28384
quercetin 28379
bim@@ 28376
prompted 28374
adiposity 28366
ali@@ 28361
chron@@ 28359
latencies 28358
qRT 28350
43@@ 28348
Childhood 28348
filtered 28348
vic@@ 28348
emphysema 28336
HSCT 28334
urs 28333
tactile 28329
R3 28328
diaphragmatic 28327
serotonergic 28319
chloramphenicol 28318
beams 28311
comprehension 28311
multifunctional 28310
accumbens 28307
Computer 28305
marks 28304
devoid 28296
folds 28294
implication 28285
Repeated 28283
ROM 28281
195 28280
CPP 28277
Independent 28272
lab 28269
inte@@ 28251
Correction 28248
inward 28248
psycho@@ 28246
malondialdehyde 28238
tinnitus 28238
Apoptosis 28235
mucous 28231
oly@@ 28230
ultrastructure 28229
alkaloids 28224
ideas 28216
autoimmunity 28214
MU@@ 28210
tings 28210
Rates 28204
Schwann 28202
belief 28198
stein 28193
Prim@@ 28189
itor 28188
ingested 28186
B7 28185
planes 28185
ysi@@ 28185
luteinizing 28183
ocy@@ 28183
unsuccessful 28180
app 28179
beta2 28177
redistribution 28177
incidences 28175
message 28174
Aging 28172
infectivity 28171
bath 28169
Abnormal 28166
eukaryotes 28165
prof@@ 28164
repl@@ 28162
VO 28154
A.@@ 28153
End 28150
osed 28140
strands 28140
constituent 28139
fidelity 28139
nephritis 28136
capsules 28134
minimizing 28134
bronchoalveolar 28130
master 28128
osteo@@ 28128
ensi@@ 28118
LG@@ 28113
ka 28106
fistulas 28104
masked 28101
SY@@ 28097
adhesions 28094
Electronic 28093
sciences 28093
ug@@ 28093
anger 28092
ancient 28081
otrop@@ 28078
org@@ 28074
sti@@ 28073
ESI 28072
LTP 28068
cDNAs 28066
EPA 28056
Eu@@ 28056
oring 28053
Comprehensive 28051
reconstructive 28050
Listeria 28048
oll@@ 28048
C18 28045
ornithine 28044
grip 28041
iness 28038
catabolism 28036
aids 28035
0.36 28034
frameworks 28032
TN 28028
ionizing 28027
bird 28012
ICS 28005
chol@@ 28005
oin@@ 28002
implantable 28001
oles 27997
Univariate 27995
Beta 27992
jejunal 27992
unless 27990
dia 27989
fix@@ 27989
foot@@ 27988
shifting 27988
cut@@ 27977
repressed 27975
adrenoceptors 27971
switched 27971
ary@@ 27965
Spearman 27958
sun@@ 27958
opiate 27953
ulates 27949
gar@@ 27948
abiotic 27942
osp@@ 27941
dichroism 27936
Wiley 27932
ifies 27929
adjustments 27927
149 27923
HP@@ 27911
pineal 27910
BD@@ 27909
labile 27906
ECMO 27899
rostral 27897
192 27886
Cam@@ 27885
gp 27877
pit@@ 27876
T1@@ 27871
Leu@@ 27870
Almost 27863
0.27 27861
izer 27858
p1 27858
repetition 27858
Oxygen 27856
combat 27855
ascorbate 27852
ishing 27852
oblique 27850
Good 27846
fusions 27846
bridging 27844
cingulate 27842
BI@@ 27825
42@@ 27822
gest@@ 27814
aled 27812
awake 27808
Recurrent 27801
encounter 27791
ribosomes 27791
thalassemia 27789
lifespan 27787
brom@@ 27784
deliveries 27778
Ad 27777
Endothelial 27765
Third 27765
0.30 27764
paralleled 27762
reflexes 27762
interdisciplinary 27757
regimes 27757
seasons 27755
restrictions 27753
cephal@@ 27749
ovine 27745
vibrational 27745
0.38 27742
len@@ 27741
ign@@ 27734
1.73 27731
regi@@ 27725
intent 27724
174 27721
neurodevelopmental 27719
lactating 27718
lys@@ 27716
0.48 27714
imine 27713
willingness 27713
Treg 27711
YAG 27711
wor@@ 27704
metabolized 27703
OG 27695
intraepithelial 27693
rigorous 27692
squares 27692
eclampsia 27689
healed 27681
schedules 27674
odor 27673
ication 27670
dichloro@@ 27667
employ 27666
L3 27665
neovascularization 27641
microglial 27636
Neu@@ 27635
senior 27635
Trauma 27633
topological 27623
77@@ 27619
OL 27619
counselling 27617
SV40 27604
nanoscale 27597
S3 27595
blindness 27583
0.58 27582
neurogenesis 27579
66@@ 27575
NIH 27555
clade 27549
Sk@@ 27546
0.42 27543
workload 27533
pars 27532
religious 27529
ades 27528
Descriptive 27525
shedding 27525
port@@ 27524
ays 27521
sutures 27519
solubilized 27517
multicentre 27516
detoxification 27515
ups 27513
etal 27504
0.34 27497
ovariectomized 27497
deformities 27494
Prediction 27490
acetylcholinesterase 27485
atin@@ 27471
leprosy 27471
dan@@ 27470
Campylobacter 27469
stereotactic 27464
OV@@ 27459
1.07 27457
sequ@@ 27457
toluene 27457
185 27448
homologue 27444
epi@@ 27440
occlusal 27429
carotene 27427
AbstractText 27426
1975 27422
RNAi 27420
celiac 27415
shortly 27410
steatosis 27409
biodiversity 27404
LBP 27400
allosteric 27400
mosquitoes 27398
Pap@@ 27396
onc@@ 27394
sphere 27380
ts@@ 27379
000@@ 27378
MBP 27376
topology 27373
0.61 27372
Temperature 27369
ventilator 27369
nit@@ 27358
1.08 27357
Regression 27357
Lack 27355
azol 27348
bred 27347
lium 27341
und 27339
acu@@ 27337
optimizing 27334
Gender 27331
imposed 27331
subscales 27330
bulb 27326
vegetative 27322
moved 27314
trainees 27309
Re 27302
besides 27297
photo 27297
IIIa 27295
mesangial 27288
granulomatous 27285
sam@@ 27283
noncoding 27275
burg 27271
mitigate 27271
sorption 27265
ardi@@ 27252
gemcitabine 27252
Actin@@ 27251
spikes 27251
symmetrical 27245
Kinetic 27241
inclusions 27239
wine 27239
0.54 27237
Enzyme 27235
eluted 27223
station 27222
typ@@ 27221
RIA 27217
gg@@ 27217
tox@@ 27213
Reaction 27211
keratin 27210
Comparisons 27209
tants 27207
Acet@@ 27201
crystallization 27201
Por@@ 27200
H4 27197
manipulated 27192
hop@@ 27186
0.52 27180
Muc@@ 27170
0.60 27169
restraint 27161
steroidal 27160
chapter 27157
Physi@@ 27156
damaging 27155
yro@@ 27152
omatosis 27148
Purification 27144
auto 27144
Proteins 27140
hypercholesterolemia 27134
advantageous 27130
azide 27130
huge 27124
cholinesterase 27113
indigenous 27111
looking 27109
opyr@@ 27107
13.5 27102
atable 27101
opath@@ 27093
worker 27086
concurrently 27085
11.1 27084
osteomyelitis 27082
ALA 27073
omer@@ 27072
exceed 27059
exosomes 27059
prime 27059
Field 27058
interneurons 27058
collections 27057
SSc 27055
buffered 27048
paternal 27041
bal@@ 27040
var 27040
analy@@ 27032
Morphological 27030
kary@@ 27028
FGF@@ 27025
Eth@@ 27024
Decreased 27019
constituted 27019
folic 27016
bios@@ 27007
NIR 27005
Rhod@@ 27005
couple 27005
Mechanism 27004
interested 27003
bioassay 27002
0.31 27000
terminated 26999
glycer@@ 26993
groundwater 26991
predictable 26991
terrestrial 26990
granul@@ 26985
digoxin 26974
logy 26971
THA 26969
midazolam 26966
Lu@@ 26965
acetonitrile 26955
Gaussian 26953
IgG1 26953
STEMI 26947
streptococci 26947
perfect 26944
Change 26941
DP@@ 26938
eri 26937
AMPA 26926
prerequisite 26925
costly 26923
.02 26919
ath 26919
sialic 26916
Lab@@ 26911
cleaning 26904
projected 26903
Pen@@ 26901
PCC 26900
Developmental 26899
you 26891
aesthetic 26888
Intensive 26882
art@@ 26882
set@@ 26882
closing 26879
Deep 26877
exacerbations 26859
DMSO 26855
cited 26851
lessons 26845
capital 26844
possessing 26841
supervision 26840
aor@@ 26839
distraction 26839
fied 26838
suc@@ 26838
father 26834
migratory 26834
err@@ 26830
ung@@ 26827
SO4 26826
320 26824
mirror 26823
ochemical 26821
177 26818
consultations 26816
oxalate 26815
Veterans 26814
restrictive 26811
packaging 26806
Mul@@ 26800
harvest 26799
standardised 26799
0.53 26794
ici@@ 26794
0.43 26793
cell@@ 26792
lun@@ 26791
resemble 26787
WBC 26781
bevacizumab 26776
sick 26776
ble@@ 26767
BE@@ 26754
smallest 26744
1978 26729
transportation 26726
ERG 26722
GTPase 26718
TRAIL 26718
ther 26713
0.40 26710
chloro 26710
intractable 26710
CIN 26709
0.46 26695
Phy@@ 26687
Iranian 26685
fos@@ 26684
Efficient 26683
T2@@ 26675
pulsatile 26668
gly@@ 26662
157 26653
chaperone 26653
bariatric 26646
retinol 26644
assume 26643
antagonistic 26635
adjunctive 26634
Loc@@ 26632
graph@@ 26627
Antimicrobial 26625
Aortic 26624
Gd 26623
thromboembolic 26622
0.44 26619
insignificant 26614
lob@@ 26610
vul@@ 26608
ceramide 26607
CXCL@@ 26600
0.57 26596
bol@@ 26595
Spatial 26590
tiv@@ 26589
ESR 26583
spin@@ 26581
isomer 26580
sibility 26579
Smoking 26576
genotoxic 26570
13.3 26569
omeric 26564
HH 26563
Traditional 26560
flex@@ 26555
Turkey 26552
Modeling 26550
IOL 26546
radionuclide 26545
dermis 26543
Sar@@ 26541
TLR 26541
cancerous 26538
analgesics 26537
patellar 26537
PDA 26532
compressive 26532
synchronization 26531
infrequent 26528
ureter@@ 26528
necrotizing 26525
ards 26524
reviewers 26524
mite 26519
quartile 26518
adipocyte 26513
eable 26513
Head 26512
nephrotic 26511
PAS 26509
squ@@ 26506
transmitter 26506
liquids 26504
disrupt 26500
cytological 26498
calorimetry 26492
WKY 26487
chambers 26485
izable 26481
PDE@@ 26480
ker@@ 26477
0.59 26474
Intestinal 26473
0.37 26471
GBS 26471
LVEF 26470
Cycl@@ 26467
sixth 26465
erythema 26456
offset 26454
PAD 26451
myopia 26446
reconstitution 26446
acinar 26445
supr@@ 26443
digested 26442
lethality 26438
ectin 26435
pea 26435
0.29 26431
pot 26427
microstructure 26424
trisomy 26423
INTERVENTION 26422
Nineteen 26421
erian 26420
locate 26415
sequentially 26412
Top@@ 26407
arthro@@ 26407
sa 26406
electrospray 26405
centr@@ 26403
sy 26401
guiding 26397
portable 26395
izers 26392
zes 26388
sickness 26385
tracing 26385
asbestos 26384
FE 26378
monoamine 26377
conductive 26373
robot 26368
neurite 26366
erectile 26365
with@@ 26365
PC12 26362
metabol@@ 26362
biophysical 26360
captopril 26360
2020 26357
Sertoli 26356
rabies 26351
HSA 26350
cho@@ 26346
obacter 26346
sen 26346
WC 26336
cas@@ 26335
PTX 26333
selen@@ 26328
UDP 26324
Very 26324
denture 26322
ocom@@ 26322
capsul@@ 26319
normative 26319
conferred 26317
leaders 26317
phenylephrine 26314
north 26313
infantile 26308
Removal 26299
considers 26295
immunocytochemistry 26294
atization 26290
hemolysis 26290
advancing 26289
Poisson 26287
trachomatis 26285
12,@@ 26281
CREB 26277
UTI 26277
antiproliferative 26270
CCL@@ 26268
neglected 26260
counted 26259
pathy 26258
remainder 26256
checked 26255
bronch@@ 26253
ock@@ 26252
OP@@ 26251
ANG 26246
contour 26246
ERP 26242
PAC 26242
arrival 26241
overnight 26241
CAS 26240
Alterations 26239
Ter@@ 26239
bit@@ 26239
plac@@ 26238
prot@@ 26237
intrathecal 26234
hs 26226
gen 26218
acrylic 26217
hardness 26215
helping 26213
alcohols 26212
Mann 26205
arization 26196
azol@@ 26188
hydroxide 26183
dentists 26179
Men@@ 26178
sonographic 26165
contraception 26164
coffee 26163
vinyl 26160
OX@@ 26159
cyanide 26154
Amino 26147
0.47 26144
IE 26142
moder@@ 26141
surrounded 26131
BPH 26125
crani@@ 26122
impossible 26121
medic@@ 26114
ClinicalTrials.gov 26113
iris 26113
plo@@ 26112
ony 26104
granuloma 26100
Bis@@ 26097
thorax 26097
CPAP 26096
0.39 26091
PLA2 26086
opinions 26086
peptic 26081
PBS 26076
printing 26072
paramagnetic 26064
paroxysmal 26058
QU@@ 26055
talk 26051
eus 26048
absorbance 26047
ascertained 26043
65@@ 26042
0.51 26041
islands 26034
0.41 26031
infertile 26026
breed 26025
modi@@ 26025
Circulating 26023
SIS 26016
craniofacial 26015
standardization 26012
solute 26010
ABP 26009
Species 26009
relapsing 26009
oleic 26008
price 26008
Pseud@@ 26006
Identi@@ 25998
extrac@@ 25998
offs 25994
plex@@ 25994
Peak 25987
posing 25981
edges 25979
disc@@ 25975
exit 25973
macromolecules 25972
tization 25969
ish@@ 25968
Anterior 25967
tetanus 25966
Parents 25962
158 25959
Area 25958
Disability 25958
plasia 25956
punc@@ 25953
midbrain 25949
hallmark 25948
originate 25948
Atrial 25945
motions 25944
orange 25943
amic 25941
med@@ 25940
GFAP 25934
sustain 25930
HL@@ 25928
transparent 25927
Adolescents 25919
belonged 25911
oestrogen 25909
after@@ 25903
syngeneic 25903
immersion 25901
minus 25900
zation 25896
Ru 25894
mAbs 25893
DV 25885
ib 25881
→ 25878
twitch 25875
methan@@ 25872
marijuana 25871
covers 25870
Dynamics 25868
mp@@ 25867
dural 25866
shaft 25863
yltransferase 25855
166 25854
ploid 25853
sophisticated 25851
osteoclast 25850
Abs 25849
ria 25849
eligibility 25842
folded 25831
falling 25830
arose 25825
Hor@@ 25813
iterative 25813
280 25810
Predictors 25804
arly 25804
vian 25804
docetaxel 25803
gaze 25801
Identifying 25800
Site 25800
0.49 25797
resveratrol 25791
rods 25790
splenectomy 25787
debridement 25786
osyl@@ 25780
pron@@ 25780
proteoglycan 25778
visualize 25777
gre@@ 25775
Cas9 25774
tensor 25770
equipped 25765
172 25764
EMS 25764
thousand 25757
1.09 25756
ographical 25751
CDC 25750
RESULT 25743
submucosal 25742
methadone 25738
Fc@@ 25736
IIb 25731
mono 25725
Intrac@@ 25722
atinib 25722
paucity 25716
164 25714
MPO 25711
206 25707
chondro@@ 25704
propyl@@ 25704
hypoplasia 25701
heads 25700
Ros@@ 25699
TK 25699
asp@@ 25697
linearity 25697
eleven 25695
soy 25689
ARC 25685
CXCR4 25684
KEY 25680
MAO 25676
COS 25672
ress 25671
thoracotomy 25667
eyelid 25664
Assessing 25659
Gra@@ 25658
lignin 25655
eled 25653
encouraged 25653
reorganization 25653
jejunum 25646
Altogether 25642
infiltrate 25642
feel 25640
Asp@@ 25639
M3 25638
ok 25638
flowering 25636
implicit 25636
read@@ 25636
carbachol 25623
Abdominal 25620
ograph 25618
IO@@ 25617
⁻ 25617
dates 25615
MAb 25609
ventricles 25604
enteral 25602
married 25602
secre@@ 25600
livestock 25597
etiological 25593
washed 25592
ection 25590
Task 25587
mannitol 25585
ere 25581
AA@@ 25580
super 25577
facile 25576
pepti@@ 25569
uridine 25565
mut@@ 25560
icidal 25556
pairing 25552
itated 25549
melanomas 25540
leishmaniasis 25539
pubertal 25537
lamin@@ 25533
caloric 25531
real@@ 25529
ished 25525
preventable 25524
CDs 25522
clo@@ 25514
nucleation 25511
wind 25510
uk@@ 25509
162 25507
PCB 25504
Sem@@ 25503
store 25502
labels 25501
larynx 25501
copolymer 25494
aa 25493
ace 25493
grey 25492
Pt@@ 25490
Tur@@ 25480
ketone 25480
Sen@@ 25479
Strain 25474
dyslipidemia 25473
instructions 25473
ghrelin 25472
Cir@@ 25469
ycin 25467
fathers 25466
ocul@@ 25462
Myc 25461
scatter 25453
worth 25450
cs 25446
companies 25445
HM 25444
readers 25443
safer 25442
Clinically 25441
esophag@@ 25441
escence 25440
compensated 25431
washout 25431
Ethiopia 25430
cavernous 25429
marketing 25427
neuropsychiatric 25421
230 25418
ARF 25418
synapse 25415
Tor@@ 25414
monoxide 25414
neglect 25414
instruction 25412
helices 25407
clon@@ 25406
appetite 25405
Whitney 25404
preschool 25404
Medi@@ 25397
impl@@ 25396
sing@@ 25389
hypothetical 25387
DNAs 25386
mutual 25384
goat 25382
elsewhere 25370
invited 25360
selec@@ 25356
dynamical 25353
jec@@ 25352
unidentified 25352
fuc@@ 25350
rooms 25342
Hep@@ 25341
INTERPRETATION 25340
nuclease 25340
vicinity 25340
salmon 25336
gauge 25330
corrects 25325
roughness 25322
basilar 25320
rain 25316
heated 25313
10.3 25310
Targeted 25310
Centers 25309
piece 25306
pitch 25306
MP@@ 25305
Likewise 25304
vasodilator 25303
GD@@ 25293
OVA 25290
teri@@ 25287
eliminating 25286
kes 25286
acetaminophen 25283
dep@@ 25282
rib 25282
STZ 25281
cc 25276
circum@@ 25276
Nucle@@ 25275
LY@@ 25273
arrested 25270
verification 25269
clot 25268
Intraoperative 25267
C3H 25258
bleomycin 25257
alcoholism 25253
lympho@@ 25253
paw 25253
Extracellular 25249
kn@@ 25248
Mutation 25247
motoneurons 25246
approached 25243
0.000@@ 25241
piper@@ 25241
spermatogenesis 25241
DG@@ 25235
adjust 25235
chromatic 25234
carpal 25231
Ga 25229
anum 25227
ually 25227
kPa 25225
favored 25219
olol 25215
zers 25215
Memory 25213
journal 25203
tends 25202
ticus 25198
ums 25195
C. 25179
devastating 25178
opened 25178
beds 25176
HRT 25169
ced 25168
divalent 25163
spore 25163
reticular 25162
feeling 25156
Death 25151
Preparation 25151
Haemophilus 25150
vehicles 25150
intermolecular 25147
Seg@@ 25143
cones 25141
trip@@ 25141
epicardial 25133
osyltransferase 25124
pA 25111
Under@@ 25105
infrastructure 25103
proposal 25103
Pb@@ 25098
electrically 25095
orthogonal 25091
Graves 25089
stains 25087
ours 25085
bright 25082
Mil@@ 25077
Poly 25076
heroin 25075
19.@@ 25068
cadaveric 25067
Incubation 25066
urothelial 25064
alities 25060
acne 25056
anim@@ 25056
begun 25056
AAV 25050
Thromb@@ 25044
ALK 25042
inium 25039
leuc@@ 25038
CONTEXT 25037
replic@@ 25036
een 25032
coatings 25030
emitting 25027
preconditioning 25025
splitting 25023
soleus 25013
fertile 25012
ama 25005
Sciences 25004
204 24997
orph@@ 24995
tial 24993
tomy 24993
Denmark 24992
prog@@ 24989
PRESENTATION 24988
tips 24988
E.@@ 24983
cyclosporin 24982
16.7 24980
priorities 24977
chlo@@ 24976
omycosis 24975
intimal 24974
reasoning 24967
underestimated 24966
Dig@@ 24963
transformations 24961
narrowing 24958
meg@@ 24957
dividing 24956
breeds 24954
itus 24953
159 24952
plausible 24952
disaster 24950
nea 24950
evolve 24949
elled 24947
neighborhood 24941
Viral 24939
deployment 24936
DRG 24935
techn@@ 24931
PARP 24928
prion 24924
STR@@ 24922
tris@@ 24921
HU 24909
UVB 24907
elin 24907
NLR 24903
disparity 24903
Protection 24901
kinematics 24900
va 24899
ANALYSIS 24898
ock 24898
augment 24893
reserved 24891
MPs 24890
peroxisome 24890
Fu@@ 24889
perc@@ 24878
cath@@ 24877
Until 24876
L5 24874
Nec@@ 24869
Greater 24867
evaluable 24864
Simple 24862
un 24860
connecting 24858
comparatively 24857
choosing 24855
stricture 24849
HDAC@@ 24845
oscillatory 24840
186 24839
oblastic 24835
hidden 24833
utilizes 24833
crossed 24831
ylene 24829
FNA 24826
Symptom 24824
acro@@ 24820
haemodynamic 24817
embol@@ 24815
renewal 24813
setup 24808
2,000 24804
86@@ 24803
etiologic 24794
whites 24792
hemostasis 24791
yel@@ 24790
clinicopathologic 24789
denaturation 24789
icum 24788
begins 24787
struc@@ 24787
rendered 24786
consecutively 24781
supplemental 24777
nal@@ 24776
participates 24772
Psychological 24766
Lac@@ 24761
carboxy 24759
rotator 24759
bromo@@ 24757
Sl@@ 24752
slides 24752
oncogenes 24750
Serial 24749
WD 24749
person@@ 24742
ectomies 24736
TC@@ 24735
obacterium 24732
mGlu@@ 24731
CD14 24730
Latin 24729
Image 24725
acin 24724
aromatase 24723
Mad@@ 24716
etr@@ 24715
ese 24713
CD40 24710
carboplatin 24709
Chemotherapy 24708
abrogated 24707
districts 24707
vis 24705
ected 24701
1.11 24699
investment 24697
tun@@ 24697
ocin 24694
canals 24690
TGF@@ 24685
edi@@ 24685
Dom@@ 24684
fingers 24683
surprisingly 24676
Fin@@ 24672
Hist@@ 24672
vap@@ 24667
fibrinolytic 24666
fulfilled 24666
1.12 24665
ser 24662
Right 24658
orthotopic 24656
inflamed 24654
appraisal 24653
elec@@ 24650
farmers 24650
sta@@ 24650
10.2 24645
ionophore 24645
mA 24643
Emerging 24640
lie 24639
resembles 24637
tis@@ 24632
insert 24631
parame@@ 24625
WI 24621
RG@@ 24620
poverty 24620
failing 24613
EC50 24612
opic 24607
supervised 24606
lipoxygenase 24603
GH@@ 24600
justified 24598
ationally 24595
tunable 24595
San 24594
astr@@ 24594
rituximab 24594
plasmon 24591
fic@@ 24587
amphotericin 24586
diol 24580
inspection 24580
pneumothorax 24577
sponge 24577
answered 24575
assuming 24573
ro 24569
ows 24568
cores 24567
Transplantation 24564
STS 24563
laws 24563
isotopic 24558
Direc@@ 24552
Toll 24550
compatibility 24542
33.3 24540
EU 24537
ADL 24535
SW 24530
202 24528
Rh 24518
chemiluminescence 24515
Gluc@@ 24512
sic@@ 24503
notes 24501
QI 24499
staged 24499
IMT 24498
Pac@@ 24498
clozapine 24498
1.10 24497
androgens 24497
Combining 24496
nationally 24487
1500 24481
ida 24481
bradycardia 24479
Less 24478
P450@@ 24478
disabled 24476
mot@@ 24476
HCT 24474
ature 24471
compulsive 24469
IB 24465
Extensive 24462
band@@ 24459
antral 24458
Mycoplasma 24457
synergistically 24455
relates 24446
AFM 24445
steric 24444
Fi@@ 24435
pers 24433
His@@ 24428
1.15 24426
spatiotemporal 24418
Green 24417
Epidemiological 24415
IgG4 24406
eless 24399
ack 24398
dipole 24397
oestradiol 24396
obacteria 24392
spectrometer 24381
Recommendations 24378
pot@@ 24378
acidification 24373
hollow 24372
agenesis 24370
impression 24370
hemi@@ 24369
injecting 24369
stratum 24367
carcinogen 24366
199 24363
MEK 24360
ADA 24358
182 24357
paradigms 24347
liposome 24346
.The 24344
14.5 24339
bridges 24334
Vir@@ 24328
convert 24328
Rev@@ 24323
drops 24323
randomization 24321
arbitrary 24319
sand 24318
κ 24317
transduced 24316
pictures 24295
161 24293
richness 24292
porphyrin 24290
GlcNAc 24284
wat@@ 24284
collabor@@ 24279
figure 24272
ias 24271
protons 24270
spectro@@ 24267
Uni@@ 24265
choroid 24261
paracrine 24261
HCs 24260
microcirculation 24257
relapses 24256
technically 24256
14.3 24254
stom@@ 24254
C2@@ 24252
Mut@@ 24252
Generation 24248
burnout 24247
Hong 24241
net@@ 24241
tural 24236
gyr@@ 24235
permissive 24234
PAC@@ 24230
prost@@ 24225
Temporal 24221
Tyr@@ 24221
Saharan 24219
kel@@ 24219
gence 24217
hexam@@ 24211
groove 24208
syncope 24207
weed 24206
VP@@ 24199
supra@@ 24199
IIa 24197
bee 24197
oric 24192
mole 24190
Rem@@ 24188
simulating 24187
OB 24185
onyl 24185
pad 24185
Fol@@ 24184
Infants 24183
compensate 24179
mesothelioma 24172
5th 24171
trapped 24169
Knee 24167
saphenous 24163
therapist 24163
Intra 24158
rumen 24151
sha@@ 24150
visited 24149
neonate 24148
188 24146
cytologic 24145
astic 24143
banding 24140
London 24136
ticular 24135
aminobutyric 24133
delineate 24133
oxal@@ 24132
Mb 24126
linoleic 24125
hyper 24119
VH 24113
PBMCs 24111
ung 24104
Leydig 24101
QDs 24100
Force 24094
ulatory 24091
glomeruli 24088
1977 24087
ix 24087
TNM 24085
triplet 24084
tes 24079
Eye 24076
Th 24076
db 24075
ATCC 24073
devised 24069
nervosa 24068
Signaling 24064
PSC 24056
friends 24055
4a 24053
unaltered 24052
discover 24047
herniation 24047
maintains 24045
shrinkage 24042
axes 24038
van 24037
unprecedented 24036
clotting 24035
Finland 24032
assemblies 24031
succin@@ 24029
g.@@ 24027
sp. 24025
idene 24024
gener@@ 24023
10.6 24022
uremic 24022
temporally 24015
Heat 24014
RBCs 24014
think 24014
ACR 24013
iatrogenic 24013
omers 24013
1.13 24007
DTPA 24005
plasmin 24005
260 23998
293 23998
overdose 23997
thorac@@ 23997
Triton 23989
ysin 23988
Organ@@ 23987
mucinous 23982
µm 23981
LIF 23980
Olig@@ 23977
10.4 23976
thyroidectomy 23971
reacting 23962
shot 23957
sarcoplasmic 23952
sev@@ 23951
PDE 23949
1.14 23948
trophoblast 23947
001 23939
2D3 23937
nanomaterials 23935
incidental 23932
ini 23926
custom 23924
10.8 23918
oate 23915
electrolytes 23914
TUNEL 23913
0.015 23908
Mic@@ 23906
ral 23902
183 23899
Her 23898
imaged 23896
ensemble 23894
touch 23893
shares 23890
Lake 23888
ph 23888
pharmacodynamic 23887
remodelling 23880
rectus 23877
ycl@@ 23864
polys@@ 23861
replacing 23859
doubling 23858
iae 23855
CTX 23854
dimeric 23854
203 23852
biodegradable 23847
empty 23847
mutans 23845
unfolding 23843
autoradiography 23841
oligo@@ 23838
χ 23834
tot@@ 23831
Full 23826
tual 23825
photodynamic 23824
1976 23823
ail@@ 23819
defence 23819
red@@ 23818
ians 23817
substituents 23813
G3 23811
biosensor 23811
grid 23807
Mixed 23800
Involvement 23798
vag@@ 23798
167 23797
lactam 23791
Blue 23789
sibling 23786
averaging 23785
Vit@@ 23782
diuretic 23781
transfers 23777
accharide 23776
SRS 23772
extrusion 23772
thro@@ 23772
rescued 23767
Basal 23766
rhythmic 23754
joining 23750
enin 23749
GE@@ 23746
spo@@ 23735
specification 23734
tacrolimus 23734
ranked 23732
disciplines 23728
strategic 23724
SCID 23722
legislation 23722
1970 23715
ala 23714
orbit 23714
Delayed 23713
750 23711
aling 23711
rubber 23709
solids 23709
801 23707
Medic@@ 23707
tly 23707
Ur@@ 23704
popliteal 23703
sixty 23702
hazardous 23701
rash 23700
Attention 23699
register 23695
270 23688
THP 23687
intern@@ 23686
Implementation 23683
atine 23681
ert 23678
sun 23674
KL@@ 23668
Wor@@ 23667
Poland 23665
K562 23664
ier 23664
gon@@ 23663
Colorectal 23660
ano 23659
169 23658
NB@@ 23655
69@@ 23652
MW@@ 23645
icle 23644
Kong 23643
associates 23640
phenytoin 23635
inger 23625
War@@ 23624
CNT 23620
tag 23619
Ul@@ 23618
Willebrand 23618
governing 23615
Ri@@ 23611
osity 23611
antiarrhythmic 23608
fluoro 23606
dis 23605
p65 23604
pren@@ 23602
metalloproteinases 23601
esthetic 23596
Diet 23587
dione 23578
ADH 23572
reaches 23570
uniquely 23570
declining 23567
fy 23562
mechan@@ 23562
motile 23561
speciation 23561
Cs@@ 23557
A5 23555
elucidation 23552
creates 23551
interpreting 23551
UD@@ 23550
anchored 23550
quiescent 23549
HMG 23548
lysates 23547
ligh@@ 23544
amel@@ 23541
mounted 23536
parasit@@ 23534
Discussion 23529
H7 23523
oselective 23519
8- 23518
PCT 23518
TMS 23514
enantiomers 23514
pter@@ 23514
ATION 23512
Xa 23511
pigmentation 23511
aying 23506
locking 23505
intram@@ 23502
fishes 23499
foramen 23499
coordinates 23498
ulations 23498
neurocognitive 23495
4th 23493
enia 23492
instillation 23492
NI 23491
orum 23491
pir@@ 23491
sal 23488
advent 23486
pet@@ 23486
corrosion 23478
Council 23474
feline 23469
OK@@ 23468
Detailed 23467
pharmacotherapy 23467
debris 23466
actu@@ 23464
deer 23461
checklist 23460
barium 23459
objectively 23457
sinusoidal 23456
Fox@@ 23451
TiO 23448
Traumatic 23442
gynecologic 23441
templates 23439
RECENT 23437
holes 23436
electrocardiographic 23435
flower 23430
MRS 23428
semiconductor 23427
dressing 23426
myopathy 23422
arterioles 23417
lobectomy 23417
ada 23409
CRH 23404
fasc@@ 23404
aine 23397
drinkers 23397
HAART 23394
membranous 23388
Organic 23385
situated 23372
Working 23368
Year 23367
ameliorated 23367
computing 23367
eff@@ 23367
innovation 23366
graduate 23365
Ce@@ 23363
Limited 23363
statistic 23356
tuned 23355
ossification 23352
Kin@@ 23348
autocrine 23348
XRD 23343
tioning 23341
imperative 23336
rho@@ 23336
Alpha 23335
wavelengths 23335
emulsions 23332
broiler 23329
Air 23327
ied 23322
Technology 23316
mycobacterial 23315
adap@@ 23312
neuro 23311
botulinum 23308
buc@@ 23308
2H 23307
multidimensional 23301
annotation 23295
bursts 23294
morphogenetic 23293
autom@@ 23291
impulse 23289
entation 23279
albeit 23278
mus 23272
phenobarbital 23269
psoriatic 23262
bifurcation 23260
digestibility 23259
flavonoid 23254
factorial 23253
heterozygosity 23251
ordering 23251
phylogeny 23250
resembled 23250
Fib@@ 23248
analyzer 23248
superiority 23248
naphth@@ 23236
1C 23232
TP@@ 23228
probiotic 23227
masking 23223
ternary 23222
O4 23221
embolic 23220
Nano@@ 23219
colchicine 23218
app@@ 23215
Across 23214
ard@@ 23214
residing 23214
Gln 23210
ideation 23207
wal@@ 23205
DO 23202
presently 23202
win@@ 23202
ophen@@ 23198
Half 23197
mimicked 23197
ostatic 23193
Tumors 23190
plasmic 23188
10.7 23183
S.@@ 23182
elongated 23177
HN@@ 23175
hyperthyroidism 23174
Scanning 23172
reprogramming 23172
algal 23171
neurotransmitters 23170
CCA 23168
Asthma 23167
confusion 23163
pertinent 23163
head@@ 23161
staphylococcal 23160
qual@@ 23159
vacuoles 23159
compl@@ 23157
osarcoma 23157
powered 23157
PUFA 23154
certainty 23153
GDP 23152
Solid 23151
occupancy 23150
bovis 23148
metaplasia 23143
pel 23142
tability 23140
mun@@ 23139
deemed 23136
zoster 23136
Accurate 23135
Dim@@ 23135
ophosph@@ 23132
Abeta 23125
Evolution 23123
abnormally 23118
porosity 23118
Inflammation 23115
unmet 23115
warrant 23114
Pase 23108
E. 23105
drives 23103
11,@@ 23097
Without 23092
glob@@ 23092
cream 23090
Da 23087
Cx@@ 23086
Wa@@ 23085
agglutinin 23082
normo@@ 23082
nanowires 23081
ops 23078
modular 23077
TS@@ 23075
oneuro@@ 23071
Apo@@ 23070
quit 23069
Tre@@ 23060
immunocompetent 23060
verse 23059
tendons 23056
computation 23054
neurotransmission 23043
pathogenetic 23043
scarring 23041
Lig@@ 23040
convergent 23038
integrins 23035
subtraction 23035
los@@ 23033
glycan 23032
contraceptives 23030
ben@@ 23029
open@@ 23029
Selection 23027
harmon@@ 23019
shaping 23016
ureter 23016
Psychiatric 23012
humeral 23011
LN@@ 23010
Not@@ 23006
county 23005
afforded 23000
fmol 22997
mentary 22996
-3@@ 22995
normal@@ 22986
statements 22985
orientations 22984
wake 22984
metr@@ 22981
custom@@ 22976
carbox@@ 22974
-2.@@ 22970
omonas 22967
Compounds 22965
kallikrein 22965
cup 22962
inflation 22962
rho 22960
196 22958
Char@@ 22958
titres 22956
fication 22953
immunocytochemical 22953
complaint 22951
Biom@@ 22950
RR@@ 22949
reared 22949
biomaterials 22948
nia 22948
plating 22947
PPAR 22945
terat@@ 22944
efferent 22942
var@@ 22938
vertebrae 22937
Rap@@ 22924
SPE 22924
metronidazole 22924
occasional 22923
bilayers 22920
gaining 22920
hairpin 22919
codons 22915
provoked 22914
Fusarium 22909
bubble 22908
sinuses 22907
0.00 22906
184 22905
imide 22905
intranasal 22903
ema 22902
LHRH 22897
anticoagulants 22897
synchronized 22896
mag@@ 22895
coun@@ 22894
supplementary 22893
esting 22892
abr@@ 22889
tized 22886
IIA 22884
FV@@ 22883
oligosaccharide 22882
phospho 22880
Compound 22878
atrophic 22875
committed 22875
ARs 22874
3,5 22868
SCLC 22865
circul@@ 22864
concomitantly 22864
Hum@@ 22863
ameliorate 22863
lingual 22863
diode 22862
176 22857
ician 22856
mate 22855
infecting 22847
Nerve 22846
Interview 22844
CBCT 22843
Sample 22841
Stim@@ 22838
Arabia 22837
163 22831
climatic 22829
photographs 22829
insertions 22827
initiative 22825
171 22821
ses@@ 22821
GO@@ 22819
Recognition 22817
gastroesophageal 22811
181 22803
Pat@@ 22801
limbic 22801
Sequencing 22798
ani 22797
tumoral 22796
Immunohistochemistry 22794
Matrix 22794
fluctuation 22794
precipitated 22792
expect 22789
Fac@@ 22787
omal 22787
osteoporotic 22786
avi@@ 22777
diphosphate 22777
direc@@ 22777
optim@@ 22776
otoxins 22775
contrasting 22774
onomic 22774
birthweight 22772
GPI 22767
Theory 22767
lymphadenopathy 22764
transection 22761
referrals 22759
neurosurgical 22757
germinal 22756
abstract 22752
Variation 22750
completing 22749
estrous 22749
Clinicians 22748
eptin 22748
coexistence 22746
commonest 22746
conc@@ 22743
tance 22743
TY@@ 22739
short- 22739
thoroughly 22729
1.16 22728
postin@@ 22725
alkali 22724
akes 22723
MICs 22722
anesthetics 22716
elite 22716
strengthening 22715
68@@ 22714
home@@ 22713
opsis 22712
endotracheal 22709
mod@@ 22703
tar@@ 22703
eosin 22702
statement 22702
11.4 22701
sacral 22692
0.012 22691
ORF 22689
bronchitis 22689
Poor 22687
mark 22682
fluoxetine 22673
FOR 22672
hydrolyzed 22672
A2@@ 22671
migrating 22671
Pf@@ 22668
colleagues 22667
omorphic 22663
albino 22661
Neisseria 22660
dimerization 22657
invariant 22657
thio 22654
streptococcal 22650
IPV 22649
Peptide 22648
subfamily 22643
6J 22642
individu@@ 22641
doubled 22639
sac@@ 22637
PLGA 22636
diphenyl@@ 22632
dehydro@@ 22630
said 22630
atri@@ 22629
blu@@ 22628
ancestral 22625
ADR 22620
infiltrates 22618
tuber@@ 22618
Pathway 22616
212 22612
Chol@@ 22609
recognizes 22607
Ks 22606
pressed 22603
expl@@ 22602
intervertebral 22601
workshop 22601
-mediated 22598
Rate 22597
IG@@ 22594
dt 22592
rigidity 22589
uneventful 22586
accumulating 22585
distorted 22582
agency 22580
leader 22579
olipids 22579
troph@@ 22577
Integrated 22576
amo@@ 22575
quinol@@ 22573
vigorous 22571
lock 22569
sm@@ 22569
ibuprofen 22567
Hen@@ 22565
xen@@ 22564
immuno 22562
breaking 22555
blo@@ 22554
premenopausal 22549
Rib@@ 22547
bedside 22547
complementation 22542
anaplastic 22537
thousands 22534
favour 22533
methamphetamine 22525
exocytosis 22524
ESCC 22523
ophthalm@@ 22522
hypotensive 22521
dering 22515
logic 22507
osyn@@ 22504
Langerhans 22502
A- 22496
SAP 22495
Dep@@ 22492
Adolescent 22490
manually 22490
phosphorylase 22490
phthalate 22490
decided 22488
sho@@ 22486
m3 22484
antipsychotics 22481
Island 22480
ft 22475
tig@@ 22473
Presence 22472
antiepileptic 22472
invasiveness 22472
sewage 22472
IK@@ 22470
dystonia 22465
interruption 22464
intima 22461
biochemistry 22458
ecules 22453
benzoate 22452
A. 22448
PKC@@ 22442
NGS 22440
reabsorption 22440
bioactivity 22439
grams 22437
MPA 22433
osmolality 22431
culturally 22430
esc@@ 22430
supramolecular 22428
225 22427
Alternative 22427
a.@@ 22427
scanned 22426
ands 22423
Kenya 22422
hampered 22422
ordinary 22422
carcinogens 22417
committee 22412
transcatheter 22410
Antibiotic 22406
anchor 22404
stature 22404
wash 22402
suspicious 22400
Sm@@ 22399
ight 22397
strengthen 22397
boost 22396
ometers 22389
outlines 22389
hepatotoxicity 22387
acea 22386
Th17 22385
Sephadex 22382
ACP 22380
decom@@ 22380
11.8 22377
Taking 22377
matic 22375
Prolonged 22372
violent 22367
disclosure 22363
osides 22362
ascribed 22360
modulatory 22358
EAE 22357
elastin 22354
bif@@ 22351
glycolytic 22347
HNSCC 22346
lectins 22346
letter 22344
meters 22343
roughly 22342
Upper 22340
Mini 22337
additives 22331
import 22330
doping 22326
mildly 22325
Ovarian 22321
alism 22321
orin 22315
workforce 22315
discriminating 22314
urethra 22310
imagery 22308
nephrotoxicity 22305
prospects 22305
ready 22305
calcified 22303
scler@@ 22298
cycloheximide 22297
conf@@ 22293
sper@@ 22293
opens 22289
sequestration 22281
imidazol@@ 22279
rater 22275
apping 22273
conference 22270
degrade 22267
ask 22260
MW 22258
11.3 22257
Hepat@@ 22251
drastically 22246
mus@@ 22246
Trends 22245
mos@@ 22244
Occupational 22241
Living 22239
ostat 22238
CRS 22237
O- 22236
toxicological 22236
ocephal@@ 22234
PCBs 22231
Work 22230
peptidase 22230
economically 22228
outward 22227
foetal 22223
myogenic 22222
OH@@ 22220
herds 22218
METHODOLOGY 22216
DB@@ 22215
hin@@ 22213
WB 22212
judgment 22208
18.5 22205
KRAS 22205
m.@@ 22204
Injection 22195
glucan 22194
lit@@ 22194
CDDP 22189
Toxoplasma 22188
triage 22182
leaching 22179
bit 22174
LAD 22172
reform 22169
weighing 22167
phages 22166
Chlor@@ 22165
osteogenesis 22163
FFA 22157
comb 22153
tryp@@ 22153
cyclodextrin 22152
BP1 22150
reader 22146
restoring 22146
tumorigenic 22146
tub@@ 22145
ws 22144
concanavalin 22141
Setting 22138
intravitreal 22134
pler 22133
1.17 22130
coal 22130
Kir@@ 22129
introns 22124
omer 22122
Exc@@ 22113
ubiquitination 22112
artan 22110
irritation 22109
esophagitis 22107
yeasts 22107
O157 22105
PGE 22105
10.1 22103
funded 22102
oscillation 22095
war 22093
173 22090
judgments 22088
chrome 22083
outlet 22080
acrylamide 22079
osteoclasts 22077
CNV 22076
Reconstruction 22074
atase 22074
spl@@ 22073
Son@@ 22071
1974 22070
hens 22061
x1 22057
y--@@ 22057
mur@@ 22055
indispensable 22054
asts 22053
uracil 22053
gum 22049
virions 22049
spasm 22044
preparing 22042
han 22039
urate 22039
retraction 22036
ril 22036
answers 22031
castration 22027
Mild 22024
CLA 22020
DRB1 22019
ferment@@ 22014
remnant 22013
transactivation 22012
crystallographic 22011
intramedullary 22011
migrate 22011
authorities 22010
intraventricular 22004
worst 22001
ozo@@ 22000
Term 21997
vitrectomy 21995
alg@@ 21994
apeptide 21994
Gli@@ 21983
Transfer 21983
si 21976
tert 21974
nig@@ 21971
oning 21970
fasted 21965
shar@@ 21963
coiled 21961
24.@@ 21954
gent 21954
Google 21948
contracted 21947
iso 21947
parac@@ 21946
ostatin 21944
ERCP 21939
dine 21934
28.@@ 21933
APs 21933
macromolecular 21932
Enterococcus 21930
agen@@ 21928
eosinophilia 21927
readings 21926
inequalities 21925
ables 21921
178 21919
bud 21919
pa 21919
varices 21918
forests 21914
perineal 21912
payment 21909
Simulation 21908
restorative 21906
memories 21904
motivated 21904
Seq 21903
obstacles 21901
thrombolytic 21897
synap@@ 21896
aci@@ 21895
gadolinium 21893
registries 21893
TX 21892
ham 21886
myristate 21882
PBL 21881
tri 21877
ifera 21872
overlooked 21868
EI 21861
leth@@ 21860
smoked 21859
surfactants 21858
siveness 21857
hydrophobicity 21855
thor@@ 21849
Us 21846
onuclear 21843
Fast 21842
etin 21842
hyperlipidemia 21840
concrete 21837
Label 21836
nal 21836
DEX 21835
enyl 21834
Israel 21832
binge 21832
OSCC 21830
ners 21830
ron 21829
antly 21827
lipophilic 21827
mast@@ 21825
GAD 21823
straightforward 21822
TP53 21820
DOI 21819
phal@@ 21819
Pharmacological 21817
reimbursement 21817
187 21813
SAM 21813
itin 21810
Mer@@ 21806
wearing 21806
perivascular 21805
termin@@ 21803
moments 21802
manipulations 21800
swabs 21796
Liquid 21795
centrally 21795
CaM 21790
amenable 21789
eth 21787
itol 21785
altern@@ 21784
engaging 21783
counterpart 21782
sevoflurane 21782
refinement 21781
outdoor 21778
sof@@ 21771
tism 21771
disposal 21770
noradrenergic 21769
flowers 21767
hydrate 21765
ophil@@ 21765
DBA 21752
pull 21751
V3 21747
Resonance 21740
linguistic 21740
urgently 21740
Multivariable 21739
west 21735
ya 21735
pan 21734
ull@@ 21734
catalyze 21733
Nearly 21731
256 21730
incorrect 21730
drift 21727
olys@@ 21727
agic 21725
bank 21721
endorphin 21721
infect 21721
herd 21720
Nd 21714
educators 21714
tubal 21710
vincristine 21710
repeatability 21709
myocarditis 21705
carcin@@ 21703
dam 21703
ty@@ 21703
μ 21701
CD25 21700
LC@@ 21697
SCN 21696
64@@ 21694
arteritis 21694
Am 21693
ji 21693
honey 21692
vascularized 21688
lesioned 21687
1.18 21686
Rare 21686
Thermal 21683
leukotriene 21682
appreciated 21681
detectors 21680
enol 21678
pertaining 21676
campaign 21670
auxin 21666
incompletely 21666
proto@@ 21664
209 21660
Pakistan 21660
meningioma 21660
Criteria 21658
reuptake 21657
10.9 21656
fragile 21656
Differentiation 21655
elementary 21654
leaflet 21654
eluting 21651
xi@@ 21647
CA3 21641
inous 21640
Connec@@ 21639
polycyclic 21638
propan@@ 21638
tosis 21638
backgrounds 21635
aldehydes 21633
gluten 21633
DSS 21630
monos@@ 21630
lap@@ 21627
FVC 21622
198 21618
faecalis 21610
aining 21608
iled 21608
ACA 21606
adrenocortical 21602
EF@@ 21600
agriculture 21600
reviewing 21593
diversion 21592
test@@ 21590
vation 21590
scars 21589
bec@@ 21586
Benz@@ 21582
ured 21580
subscale 21578
tured 21578
oblastoma 21574
Phe@@ 21568
condom 21567
informal 21565
STAT 21559
qualified 21558
olecular 21557
ag 21554
glucosidase 21553
11.6 21551
travel@@ 21546
Accuracy 21545
preexisting 21543
py 21542
ferric 21541
ges 21541
classifications 21539
confirmatory 21536
ope 21536
agon@@ 21535
regenerating 21534
Reduc@@ 21532
prostacyclin 21524
fascia 21523
Macro@@ 21521
spheres 21519
Applications 21513
lyase 21508
melanin 21502
anisotropic 21501
IMRT 21500
anase 21500
phil@@ 21498
ridge 21496
federal 21494
getting 21491
Nonetheless 21487
execution 21487
xin 21484
kits 21477
lers 21477
benzyl@@ 21469
perpendicular 21467
integr@@ 21466
fin 21465
subdivided 21464
argued 21462
retinoblastoma 21461
horseradish 21458
EPS 21453
PrP 21452
197 21448
MSI 21447
CON 21445
Dermat@@ 21441
TNBC 21441
transaminase 21438
sensi@@ 21437
Microbial 21435
headaches 21432
DNase 21431
Value 21430
meiosis 21429
Altered 21426
ull 21425
Reference 21424
elast@@ 21424
Tuberculosis 21423
Basic 21422
exam 21422
new@@ 21417
genotypic 21416
Fab 21413
longest 21410
Cloning 21407
nicotinamide 21404
Retinal 21402
interests 21402
54@@ 21400
seal 21393
AZ@@ 21392
defines 21392
thematic 21391
Material 21387
Bl@@ 21386
Pri@@ 21383
Gastrointestinal 21377
publicly 21375
inating 21374
Digital 21369
ospecific 21369
mitomycin 21368
ogenin 21368
Clu@@ 21363
boron 21363
lec@@ 21362
encounters 21361
MMPs 21360
fluoroscopy 21359
ll@@ 21359
Brief 21358
introduces 21357
maximally 21353
wa@@ 21353
lan@@ 21350
[...]
